#version: 0.2
á »
á º
n g
Ġ t
Ġ c
Ġ Ä
n h
ĠÄ ĳ
Ã ł
Ġ v
h á»
Æ °
Ã ¡
Ġ l
i á»
Ġ k
Ġt r
Ġ b
Ġt h
Ġ s
Ġ m
Æ° á»
Ġ h
Ġ nh
áº ¿
Ã ´
Ġ n
Ġ g
áº ¡
Ġc h
áº £
Ġk h
ĠÄĳ á»
Ã ª
Ġ d
Ġ ng
Ã ³
iá» ĩ
Ġ p
Ġ T
áº ¥
Ã´ ng
Ãª n
Ġv Ãł
á» ĳ
Ã ¢
Ġp h
Ã¡ c
Ġv á»
á» Ļ
Ġg i
Æ ¡
Ġt há»
Ġ há»
áº §
áº Ń
Ġt á»
Ġc á»
u y
i áº¿
Ġ q
Ä ĥ
Ã ¬
Æ°á» Ŀ
Ġ N
Ľ i
Ã Ń
Ġ x
Ġq u
Ġl Ãł
Ġ r
áº¡ i
Ġc há»
Æ°á» £
o ng
a n
Ġ C
Ġcá» §
Ġcá»§ a
áº¥ t
Ġc Ã³
Ġc Ã¡c
iá» ģ
Ġ H
Ã¢ n
Ã º
á» Ł
Ã¬ nh
á» ±
áº ¯
i Ãªn
c h
Ã £
Ġ M
áº§ n
Ġch o
i nh
Æ°á»£ c
Ãł y
Ġtr ong
iá»ĩ n
á»Ļ t
Ġvá» Ľi
a i
Æ°á» Ľ
Ġ V
Æ°á»Ŀ i
iá»ģ u
Ġ B
Ġhá» į
a nh
Ġn Äĥ
ĠÄĳ Æ°á»£c
á» ĭ
Ãł nh
Ġkh Ã´ng
Ã ²
a y
Ã ¹
áº§ u
Ġm á»
iá» ĥ
Æ°á»Ŀ ng
Ġ 1
Æ° Æ¡
Ġng Æ°á»Ŀi
Ġm á»Ļt
© ng
áº ·
Æ°Æ¡ ng
ĠÄĳá» Ļ
á» ¯
Ġ 2
áº£ i
o n
a o
a m
ĠÄ Ĳ
© c
ĠT r
Ġl á»
uy á»
Ġ S
áºŃ n
a ng
Ġ "
Ġtá» «
Æ°á»Ľ c
áº£ n
Ãł i
áº¿ n
u ng
Ġng h
Ġ A
u á»ĳ
Ġhá»į c
Ġkh i
Æ¡ n
ĠnÄĥ m
Ġ L
Ġnh Æ°
i n
ĠÄĳá» ĥ
ĵ ng
Ġ á»Ł
Ãł ng
ĠT h
a u
áº¿ t
Ãł n
iáº¿ n
Ġc Ã´ng
Ã¡ n
á» ķ
e o
0 0
Ã´ i
iáº¿ t
Ġh o
Ġthá» ĥ
Ã¢ y
ĠÄĳ Ã³
Ġs á»ĳ
ÃŃ nh
Ã¡ t
Ġ P
Ŀ i
Ġn Ãły
áºŃ p
ĠÄĳ Ã£
Ã¡ ng
Ġth u
Ġd á»
Ã¹ ng
Ġg iá»
ĠÄĳ áº§u
ĠÄĳ áº¿n
ĠN g
á»¯ ng
Ġ K
áº ±
Ġnh á»¯ng
áº ©
iá»ĩ u
Ġnh iá»ģu
Ġs áº
iá»ĩ t
Ġ (
Ġvá» ģ
Ã ½
ĠvÃł o
¥ c
Ġ D
Äĥ ng
Å ©ng
áºŃ t
iá»ĩ c
Ġp há»
áº¡ n
Ġr a
Ġ G
ĠÄĳá» ĭ
e r
Ã¡ o
ĠÄĳá»Ļ ng
Ġn Ã³
Ġt áº¡i
Ġc áº£
ĠÄĳá» ĵng
Ġh Æ¡n
Ġtr á»
± c
Ġc Å©ng
e n
á» ¹
Ġnh Ãł
Ã¡c h
Ã ©
áº «
Ã¡ i
Ġs á»
Ġv iá»ĩc
ĠlÃł m
Ãª u
Ġsáº ½
iá»ĥ m
áº¡ t
a r
Ġ Q
áº± ng
Ġtr Ãªn
Ġd o
Ġgi a
Ä ©
Ġ2 0
áº¡ o
Ġth Ãłnh
Ġkh o
ĥ n
Ġh Ãłng
Ġchá» ī
Ġb á»ĭ
Ġs inh
á»Ļ c
ÃŃ ch
Ġngh iá»ĩ
Ġs á»±
Ġt iáº¿
uy Ãªn
Ġtr Æ°á»Ŀng
áº£ ng
á» ĵ
áº¥ p
" ,
á»ķ i
ĠN h
áº¥ y
Ġ Ã´ng
Ġh iá»ĩn
Ġl áº¡i
Ġng Ãły
áº£ o
Ġgi Ã¡
Ġt á»ĳ
Ã² n
ĠnÃ³ i
Ġs au
Ġng há»
ģ n
Ġb á»
ĠÄĳá»ĭ nh
áº« n
Ġhá» Ļ
Ġnh Ã¢n
Ã¡ p
Ġqu an
Ġ -
Ġt u
Ġnh áº¥t
Ġch ÃŃnh
Ġd á»±
a l
Ã¡ nh
ĠC h
Äĥ n
áº¥ n
Ġn Æ°á»Ľc
ĠN am
Ġv iÃªn
ĠP h
Ġnh áºŃn
Ġ 3
Ġh ai
á»± c
Ã¢ m
Æ° a
Æ°á»£ ng
Ġdá» ¥
Æ°á» Ł
ĳ ng
ĠV iá»ĩt
Æ°á»Ł ng
Ġc on
áº· c
Ġph áº£i
ħ n
u áº¥t
Ġc Æ¡
Ãº c
áº· t
Ġthá» Ŀi
Ã´ n
áº¯ c
Ã² ng
Ġx e
Ġc ao
áº¯ t
Ã¢ u
i a
Ġb iáº¿t
Ġlá» Ľ
Ġk á»
ĠÄĳá» ģ
Ãª m
Ġth eo
Ãł o
Ġt o
Ġ y
Ġdá»¥ ng
Ġtr Ã¬nh
£ p
Ġt Äĥng
Ġc Ã²n
Ġgi áº£
iá»ĥ n
Ġt Ã´i
Ġph Ã¡t
á»Ļ i
Ġ U
á»ĭ ch
Ġth Ã´ng
Ġ á»
Ġth Ã¡ng
Ġhá» £p
ĠÄĳ i
Ġmá» Ľi
Ġnghiá»ĩ p
áº¡ nh
iá»ģ n
ĠnhÆ° ng
áº ¹
Ġqu a
ĳ i
Ġs áº£n
Ġl o
uá»ĳ c
Ġtr Æ°á»Ľc
Ġthá» ±c
ĠÄĳ iá»ĥm
ĠnÄĥ ng
ĠM á»¹
á» į
áº© m
ĠÄĳ iá»ģu
Ġh Ãłnh
Ġt áº¿
u á»Ļc
Ãº ng
Ġhá»Ļ i
ĠK h
Ġt áº¡o
áº »
i Ãªu
á»ĳ c
Ġk áº¿t
į ng
Ġq uy
Ġc Ã¹ng
áº¿ u
e l
Ġ 5
o r
uyá» ĥn
ĠcÃ¡c h
Ġtá» ķ
Ġl Ã½
Ġt Æ°
Ġk há»
Ġm Ãł
Ġ I
uyá» ģn
Ġx uáº¥t
Ĺ i
Æ¡ i
Ġtiáº¿ p
e s
Ġth áº¿
Ġ20 2
ĠÄĳ ang
áº¥ u
Ġ 4
áº¡ ng
Ġ anh
Ġ R
Ġh Ã¬nh
Ġv Ã¬
ĠQ uá»ĳc
Ġthá» ĳng
uyá» ĩ
i m
Ã³ a
Ġlá»Ľ n
Ġtu á»ķi
Ġl Ãªn
Ġgi áº£i
Ġng o
Ġl Æ°á»£ng
Ġtá» ±
Ġl á»±c
Ġc áº§u
u a
Ġc áº¥p
Ġt Ã¡c
Ġkh Ã¡c
iá»ĥ u
Ġn Ãªn
iá» ħn
Ãº p
Ġ Ã
" .
Ġl u
Ġgiá» Ľi
Ġth áº¥y
Ġ F
ĠA nh
Ġt Ãłi
Ġdo anh
Ġchá» ©c
áº£ nh
Ġtr iá»ĩu
e m
ĠÄĳ o
Ġt áºŃp
Ġgi an
Ġr áº±ng
Ġthá» ĭ
Ġgi Ãºp
Æ°á»Ľ ng
Ġt in
Ġtr iá»ĥn
Ġn á»
Ġsá» Ń
á»ĳ i
Ġc áº§n
Ġl áº§n
Ã¡ y
Ġb á»Ļ
Ġvá» ¥
Ġgiáº£ m
Ġph áº©m
Ġchá» §
Ġb áº±ng
Ġt iÃªu
Ġto Ãłn
Ġth Æ°á»Ŀng
Ġc Ã´
Ġb áº¡n
ĠT há»
Ġc uá»Ļc
uyá»ĩ n
00 0
Ġt iá»ģn
Äĥ m
ĠÄĳá» ķ
Ġ Ã¡n
ĠÄĳ Æ°á»Ŀng
Å ©
Ġnh á»
á»Ļ ng
Ġtá» ·
áº¯ ng
Ġs Ä©
Ġkh Ã¡ch
Ġgiá» ¯
Ġg áº§n
Ġk inh
Ãº t
e t
Ġb áº£n
Ġqu á»ĳc
Ġnghá» ĩ
Ġh ay
Ġb áº£o
Ġ 6
Ġph áº§n
i c
ĠÄĳá» ĳi
ĩ nh
Æ° u
ĠÄĳ áº¡i
ĠTr ong
Ġv áº«n
Ġt Ã¢m
Ġhá» ĩ
Ġcá» ©
a s
Ġvá» ĭ
áº¡ ch
áº¡ c
i s
Ġph ÃŃ
Ġnh iÃªn
Ġs o
ĠTr ung
a t
Ġtá» Ľi
áº¡ m
Ġho áº·c
ĠÄĳ iá»ĩn
Ġsá»ĳ ng
Ġb á»ĳ
ĠÄĳ Ã¢y
Ġd Ã¢n
Ġthá» §
Ġm Ã¬nh
ĠÄĲ á»
Ġtr á»Ł
Ġh iá»ĩu
Ġthá» ©c
ĠÄ ĥn
Ġt Ã¬nh
áº¯ n
. .
2 0
Ġn ay
ĠÄĳá»ķ i
ĠTh eo
h i
Ġth Ãªm
iáº¿ u
ı i
iá»ĩ m
Ġt ÃŃnh
Ġ áº£nh
Ġkho áº£ng
Ġtr ung
uá»ĳ n
Ġth i
Ġb Ã¡o
ĠG i
Ġb Ã¡n
Ã³ ng
£ i
Ġh Ã³a
Ġd Ã¹ng
Ġtá»« ng
Ġtrá» £
u m
Ġl iÃªn
uy áº¿n
Ġtrá» įng
ĠQ u
Ġm áº·t
Ġd iá»ħn
Ã¬ m
Ġho áº¡t
Ġ1 0
o l
Ã ¨
Ġá» ©ng
i d
Ń a
Ġtr á»ĭ
Ġt y
Ġk iáº¿n
Ġb a
Ġká» ³
Ġm Ã¡y
uá»ĳ i
Ġgi ao
Ġch áº¥t
Ġ W
Ġtiáº¿ ng
i t
Ġch uyá»ĥn
Ġtá»ĳ t
Ġmá» ©c
Ġcáº£ m
Ġ Ã½
Ġch uyÃªn
áº© n
Ġth Æ°Æ¡ng
Ġ E
Ġmá» Ĺi
Ġs Ã¡t
Ġkh Ã³
Ġkh u
Ġph Æ°Æ¡ng
« a
Ġd á»ĭch
Ġ 7
Ġt Ã¬m
Ġkh iáº¿n
Ġt ÃŃch
Ġr áº¥t
į n
Ġcáº£ nh
Ġchá» ĭ
Ġch Æ°a
Ġqu áº£
Ġm áº¡nh
Ġth iáº¿t
Ġcá»© u
Ġthá» ©
Ã³ m
Ġ J
Æ° ng
Ġs Ã¡ng
r o
Ġch i
Ġth am
ĠU S
Ġb áº¯t
Ġ 8
Ġnh áºŃp
Ġ em
Ġqu Ã¡
ĠH Ãł
Ġm ua
Ġl áºŃp
Ġquy áº¿t
Ġm uá»ĳn
ĠÄĳ Æ¡n
Ġx Ã£
á»ĵ i
Ġy Ãªu
Ġtá» ¥c
áº§ m
u s
Ġs Ã¡ch
Ġhá» ĵ
Ġch iáº¿n
Ã¡ m
áº± m
ī nh
uá»ĳ ng
Ġph Ã¡p
Ġl iá»ĩu
Ġng á»
Ġn á»¯
ĠUS D
l e
Ġh Æ°á»Ľng
Ġd áº«n
Ġvá» ±c
) ,
ĠÄĳ Æ°a
Æ°á»£ t
Ġt iÃªn
á»ķ ng
ĠÄĳ Ã¬nh
Ġth ay
r a
Ã µ
Ġch u
Ġv áº¥n
Ġph Ã²ng
Ġlo áº¡i
Ã² a
ĠÄĳ Ã¡nh
Ġk áº¿
áº· p
Ġtr áº»
Ġch áº¿
Ġchá» įn
Ġ 9
Ġn Ãło
Ġsá» ©c
Ġb áº¥t
ĠH o
Ġch Ãºng
« ng
Ġd iá»ĩn
Ã© t
Ġth Ã¢n
C M
Ġb Ãł
Ġ Y
ĠÄĳ áº¡t
ĠT uy
Ġngo Ãłi
Ġd Ãłi
ĠC Ã¡c
Ġb Ã¬nh
Ġr á»
ĠÄĳá»ģ u
Ġ X
Ġm ang
á»ĵ n
Ã© p
á» Ń
Ġchá» ©ng
ĠÄĳá»ĭ a
Ġtr ang
Ġl Ã£
áºŃ y
Ġbá» ĩnh
Ä Ĳ
i l
Ķ ng
Ġm áº¹
Ġnghiá»ĩ m
ĠT P
Ġtr Æ°á»Łng
Ġ an
áº ³
Ġb iá»ĩt
Ġho Ãłn
Ġd u
áºŃ u
Ġng Ãłnh
Ġk iá»ĩn
um p
Ġnh Ã³m
ĠS au
Ġs á»Ł
Ġhá» Ĺ
Ã´ m
) .
Ġg Ã¢y
Ġg Ã³
Ġc Ã¡
á»ĵ m
Ġphá» ¥
Ġt Æ°Æ¡ng
ĠTr ump
uyá» ħn
Æ°á» Ľi
Ġtr ÃŃ
o m
áº¡ y
Ġ O
¯ ng
Ġc uá»ĳi
Ġ Ã¡p
Ġngh Ä©
Ġl á»ĭch
Ġb iáº¿n
áº³ ng
Ġt ay
i ng
Ġv áºŃt
ĠÃ Ķng
Ġtá»ķ ng
u á»ĵn
Ġmá» ¥c
ĠÄĲ áº¡i
ĠÄĳ áº¡o
Ġm á»Ł
Ġgi Ã¡o
ĠN á»Ļi
Ġ1 9
Ġg á»ĵm
ĠNg o
ĠC Ã´ng
a d
iáº¿ m
ĠÄĳ áº·c
Ġb Ãłi
Ġcá» ķ
Ġtr anh
Ġph Ã¢n
ĠB á»Ļ
Ġth ÃŃch
Ġq uyá»ģn
Ġb Ãªn
Ġgiá»¯ a
Ġthu áºŃt
Ã¬ n
Ġgiá» Ŀ
Ġlá» £i
Ġv Äĥn
n e
Ġphá» ĳ
ĠNg uyá»ħn
Ġch ia
Ġkh ai
t h
T h
áº£ m
ĠC há»
Ġtr uyá»ģn
Ġvá» £
ĠV á»
áº¯ p
Ġn Æ¡i
Ġkh áº£
ĠÄĳá»Ļ i
Ġphá» ¥c
Ġt iáº¿t
Ġch Æ°Æ¡ng
ĠH CM
Ġth o
Ġg áº·p
Ġdá»± ng
ĠÄĳ áº¥t
Ġn áº¿u
Ġc á»ĳ
Ġmá» į
Ġbá» ı
Ġh áº¡n
20 2
Ġthu á»Ļc
Ġx Ã¢y
u r
áº· ng
Ġh Æ°á»Łng
ĠT á»ķng
Ãł u
Ġtá» īnh
Ġth Ã¬
Ġngh iÃªn
Ġk á»¹
Ġnh iá»ĩm
ĠÄĳ áº·t
áº¥ m
ĠÄĳÃ³ ng
áº§ y
Ġká» ĥ
t r
á»ĳ n
Ġvá» ĩ
Ġmá»į i
Ä© nh
Ġm áº¥t
ÃŃ t
Ġ20 1
Ġtá»ĳ i
Ġy áº¿u
áº¯ m
Ġnh au
Ġk iá»ĥm
a c
ĠA n
Ġnhá» ı
Ġl ao
Ġt uyá»ĥn
Ġg á»į
ĠM á»Ļt
ĠÄĳ áº¥u
Ġlá» Ŀi
Ġng uá»ĵn
Ġm Ã´
Ġv áºŃy
o s
Ġr á»Ļng
Ġt Ãªn
ĠÄĳá» §
ĠNgo Ãłi
Ġkho a
Ġt a
i Ãªm
Ġch ung
áº¹ p
Ġt inh
Ġtr a
Ġc Ã¡o
Ġqu áº£n
Ġl Ãºc
ĠÄĳá» ĵ
Ġqu Ã¢n
Ã³ c
Ġt iáº¿n
Ġg Ã¬
Ġvá» įng
Ġc ung
Ġlá»Ľ p
ĠvÃł ng
Ġv iá»ĩn
áºŃ m
Ãª ng
Ġd anh
Ġb an
t er
ĠKh i
Ġthu áº¿
u n
Ġtu áº§n
.. .
Ġtr áº£
an d
ĠnÃ³ ng
Ġm áº¡ng
Ġch ÃŃ
áº£ y
ĠA I
o t
Ġhá»ĵ i
u á»ķi
áº ½
ĠT á»
Ġchu áº©n
Ġnh anh
Ġkh ÃŃ
Ġb ao
Ġb ay
Ġxe m
áº¿ p
i Ãªng
áº« u
ĠÄĳo áº¡n
į c
o v
áº© u
Ġ1 2
Ġtá» Ń
Ġdá» ¥c
a g
Ġn á»Ļi
Ġng uyÃªn
Ã¹ a
Ġhá» ıi
Æ°á» ¡
Ġsáº »
ĠÄĳá» Ŀi
ĠÄĳo Ãłn
Ġphá» §
Ġx Ã¡c
Ġtr á»±c
Ġvá» «a
Ġnh u
Ġnghá» ĭ
Ġc áº¡nh
á»Ł i
a p
Ġn á»ķi
Ġkhá» ı
Ġh iá»ĥu
Ġchá» ĵng
Ġh áº¿t
Ġho áº¡ch
Ġkhá»ı e
Ġk Ã½
ĠÄĳ áº£m
ĠN há»
Ġh Ã´m
Ġtr áºŃn
á»į c
Ġ ÃŃt
o k
Ġm Ã´n
Ã© o
Ġch uyá»ĩn
áº© y
Ġc Ã¢u
Ġx Ã©t
ĠNh Ãł
Ġd uy
Ġv á»ĳn
Ġná» ģn
Ġ1 5
Ġgá»į i
Ġtr áº£i
Ġm inh
Æ°á»¡ ng
ĠÄĳá» ĳ
Ġth Æ°
Ġcá» Ńa
Ġkho áº£n
Ġng Ã¢n
Ġkh áº©u
Ġcá» Ń
ĠN Äĥm
Ã³ n
Ġlu áºŃn
r ai
ĠNg a
ĠM inh
Ġlu Ã´n
Ġg hi
Ġs ang
Ġnh áº±m
e d
Ġm áº¯t
Ã¢ ng
Ġc a
Ġ3 0
ĠÄĳ a
Ġb á»Łi
Ġlá» ĩ
Ġs uáº¥t
Ġh uy
Ġt uyáº¿n
Ġs ao
Ä ĳ
Ġ202 4
Ġv i
ĠNh Æ°ng
Ġph im
Ġ1 1
ĠgÃ³ p
ĠÄĳ áº¹p
Ġr á»ĵi
T r
Ã¡ u
k rai
Ġdá» ħ
ĠÄĳ Äĥng
krai ne
Ġph iáº¿u
Ġkh Äĥn
Ġv Ã¹ng
Ġs Ã¢n
on e
Ġr iÃªng
Ġs áº¯c
á»ĭ p
Ġx uá»ĳng
iáº¿ c
Ġv áºŃn
ĠI n
á»± a
Ġv Æ°á»£t
Ġth iá»ĩn
T in
Ġr Ãµ
Ġt Æ°á»£ng
Ġv iáº¿t
ĠÄĳ áº©y
Ġph áº¡m
C h
Ġch Æ¡i
© a
r e
ÃŃ n
Ġh Ã²a
T Ã´i
Ġd Ãłnh
Ġnghá» ī
Ġn Ã¢ng
Ġ Æ°u
Ġtr ai
ĠÄĲ Ã¢y
ĠVá» Ľi
Ġká» ·
ĠV Äĥn
iá»ĩ p
Ġph Ã¹
Ġd Æ°á»Ľi
ĠU kraine
Ġch Ã¢u
Ġc á»Ļng
Ġtr Ã²
Ġnh Ã¬n
Ġth anh
Ġb Ãłn
Ġh Ã£
ĠB Ã¬nh
Ġv Ã´
Ġtá»ĳ c
ĠTh anh
Ġd i
Ġlu áºŃt
Ġv Ã²ng
ĠÄĲá» ©c
Ġc Ãłng
Th eo
Ġl Æ°u
Ġm áº¡i
ĠCh ÃŃnh
áº¡ p
Ġg Ã¡i
Ġl Ä©nh
Ġth áº¯ng
a k
Ġh iá»ĥm
Ľ m
P T
ĠNh áºŃt
Ġá» §
Ġng ay
Ġtr áº¡ng
in e
ĠmÃł u
o d
Ġngo áº¡i
Ġph Ã©p
Ġnh áº¡c
Ġsá» Ľm
Ġcá» ¥
Ġth Ãºc
Ġtá» ĭ
Ġcá» ±c
Ġth áº¥p
ı a
Ġd ung
Ġx á»Ń
Ġb iá»ĥu
u p
Ġb Ã³ng
Ġd Ã¹
Ġph áº£n
Ġl áº¥y
ĠH á»
ĠÄĳá»ĳ c
ĠNhá» ¯ng
ĠÄĳá»Ļ c
Ġch iáº¿c
ĠA l
ĠD o
e w
N g
ĠÄĳ Ã¡ng
Ġ Z
Ġh Ãºt
Ġm Ã³n
i on
Ġtr Ã¬
ĠphÃŃ a
Ġc áº£i
ĠT o
Ġk ÃŃch
á» Ĺi
Ġph iÃªn
ĠC Ã´
ĠT áº¿t
ĠvÃł i
Ġph Ã¡
Ġho a
¯ u
Ġch áº¡y
Ġm áº«u
Ã£ i
Ġtá»ĭ ch
1 9
Ġx áº¿p
Ġch Ã¢n
Ġ2 00
ĠThá» §
ĠT Ã´i
Ġn áº±m
ĠB an
Ġg á»
Ġl Æ°Æ¡ng
Ġng uy
h o
i e
Ġn á»ĳi
ĠNg Æ°á»Ŀi
ĠN áº¿u
o b
Ġth áº§n
ĠlÃ£ nh
i g
ĠH á»į
Ġthu áºŃn
Ġ '
Ġt Ãłu
Ġk m
en t
Ġ Ã¢m
iá»ģ m
Ġnhá» Ŀ
i v
Ġm Ã¹a
Ġhá» ¯u
Ġb Æ°á»Ľc
Ġchá»ĭ u
ĠÄĳ Ã´ng
Ġl á»Ļ
Ġh áº¡
Ġ1 6
Ġth iáº¿u
Ġph ong
p h
Ġc Ã¢y
Ãł m
ĠÄĳ Ãło
ĠgiÃ¡ m
ĠThá» ĭ
Ġ202 5
Ġv ai
Ġt áº¥n
Ġx anh
Ł i
Ġc Æ°
Ġk iáº¿m
Ġs Æ¡
ĠTr Æ°á»Ľc
Ġto Ã¡n
Ġth Æ°á»Łng
Ġb Ã©
Ġs Æ°
ĠT Ã¢y
t e
Ġm Ã´i
P h
Ġx a
Ġt Æ°á»Łng
Ġb iá»ĥn
Ġh áºŃu
Ġ1 00
Ġl Æ°á»£t
Ġk Ã©o
a z
Ġ uá»ĳng
Ġl Ã¢u
Ġn am
ĠL e
Ġb uá»Ļc
Ġ áº¥y
Ġc Ã¢n
ĠB áº¯c
á»¯ a
Ãº i
ĠTá» «
p p
Ġso Ã¡t
ar d
Ġb uá»ķi
ĠÄĳ Ã´i
Ġd a
ĠÃ ģ
Ġ ai
ĠnghÄ© a
Ġt Æ°á»Ľng
Ġd Ã²ng
Ġch Äĥm
Ġ2 5
u i
Ġtr Ã¡i
Ġv Å©
uy áº¿t
Ġlá» ħ
Ġ5 0
ĠÄĳá» ©ng
Ġm ong
ĠÃ Ĥ
u t
Ġ áº
ĠI s
Ġd Æ°á»¡ng
ı ng
ĠÄĳ Ãºng
Ġs Ã¢u
Ġch Ãº
Ġqu en
Ġph Ãºt
Ġ á»ķ
Ġt Ã¡i
i k
ĠÄĳ Ã¡p
Ġ Ã¡o
á»Ń i
ĠTh Ãłnh
Ġkhá» ıi
ĠÄĳ Ã¡
Ġ1 8
Ġh Ã´n
o i
ĠL an
Ġm á»ĳi
Ġd á»¯
Ġch iá»ģu
Ġgi ai
ĠH áº£i
ĠTh u
o g
Ġx uyÃªn
á» ³
i r
Ġtho áº¡i
Ġt áº¥t
Ġg á»Ńi
Ġc Äĥn
Ġn áº·ng
Ġc Ã¡i
Ġx u
ĠÄĳá»Ļ t
ĠÄĳ Ãłn
Ġt ÃŃn
Ġchá»ī nh
Ġ Ã´
Ġc am
Ġthá» Ń
Ġb Ã¡c
ĠB áº£n
ĠH Ãłn
Ġ1 4
c e
Ġtr Ã¡ch
ĠTh Ã¡i
Ġnghá» ģ
ĠÄĲ iá»ģu
Ġ202 3
Ġx Ãºc
Ġng á»¯
e x
ĠHo Ãłng
a h
ĠÄĳ Ãªm
Ġg h
Ġkho Ã¡n
ĠM ar
Ġtr Ã¡nh
Ġc áºŃn
Ġqu anh
ĠT áº¡i
Ġd áº¡ng
Ġphá» ķ
Ġngh e
Ġb Ã¡nh
Ġch uyáº¿n
Ġl uyá»ĩn
3 0
Ġd áº¡y
ĠV iá»ĩc
u Ã´i
ĠÄĳ áº§y
Ġtrá» ¥
Ġl Ã²ng
Ġb á»ķ
Ġk Ãª
Ġqu ay
ĠNh iá»ģu
ĠL ong
Ġá»ķ n
Ġl á»±a
ĠÄĲ Ã´ng
Ġgiá» ĳng
ĠÄĲá» ĥ
ĠKh o
Ġkh Ã³a
Ġl Ã¡i
ĠÄĲá» ĵng
Ġ1 7
Ġth áº¥t
Ġngo Ã¡i
Ġnhá» Ľ
ĠÃĤ u
á» ĩ
Ã£ n
Ġchá» ¯
t on
uá»ĳ t
% .
ĠT u
Ġh uyá»ĩn
a v
Ġkhá» Łi
áº§ ng
ĠD Æ°Æ¡ng
Ġd áº¥u
Ġt iá»ĩn
Ġtá» ©c
Ġthu Ãª
ĠC á»
Ġná»¯ a
Ġchá» ĳng
ra el
id eo
1 0
ĠChá» §
Ġh áº¡ng
Ġngá» §
ĠÄĳ áº£o
u e
Ġt Ã¹
Ġth Ã¡i
Ġn áº¡n
Ġs uy
Ġlo áº¡t
l y
ĠS Æ¡n
ĠR e
Ġv ui
Ġt áº§ng
ĠKh Ã´ng
ĠN ew
ĠNg á»įc
Ġá» ŀ
Ġbá»ĳ n
Ġb ang
o u
ĠB Ãł
Ġ1 3
Ġtr ao
an k
al d
Ġch áº¥p
a b
Ġt áº£i
Ġh áº¡i
ĠhÃ£ ng
Ã¹ i
Ġt á»Ļi
ĠD Ã¹
Ġt áº£ng
ĠH iá»ĩn
Ġgi Ãłnh
ĠTr áº§n
Ġth áº£o
Ġx áº£y
Ġvá» ¯ng
ĠT H
Ġs ong
Ġphá» ĳi
Ġnh áº¥n
Ġgi Ã¡c
ĠIs rael
Ġqu Ã½
Ġl ai
Ġth uá»ĳc
Ġqu Ã¡n
Ġ o
Ġm áº¯c
á»ĳ ng
uyá»ĩ t
ĠPh Æ°Æ¡ng
Ġqu á»¹
Ġph Ãª
ĠL u
Ġs Ã³c
il l
Ġnh iá»ĩt
N h
µ n
e e
Ġh áº¡t
Ã³ i
Ġl Æ°á»£c
u l
Ġá»§ ng
Ġhá»į a
Ã¨ n
ĠH ai
ĠB áº£o
Ġng áº¯n
Ġb iÃªn
Ġs áº¯p
c k
ĠL inh
Ġngá» Ŀ
ĠÄĳ Ã´
Ġcá» ±
Ġqu Ãª
Ġsáº µn
Ġt áº§m
Ġth áºŃt
Ġngh i
1 2
Ġth áº³ng
Ġn iÃªn
¥ p
ĠPh Ã¡p
i et
i f
Ġd áº§n
Ġx in
Ġt uyÃªn
i an
Ġtrá» Ŀi
ĠL Ãª
Ġx ung
el l
Ġn uÃ´i
Ġh Ã¡t
Ġkh uyáº¿n
© t
ĠNg há»
Ġkh Ã¡m
áº· n
ĠS t
e b
Ãµ i
r is
u b
ĠlÃ£ i
iá» ħ
Ġ4 0
5 0
Ġd áº§u
Ġv ideo
ĠL iÃªn
Ġr Ãºt
Ġkh áº¯c
Ġth áºŃm
Ġm Ãłn
Ġc Å©
ĠV Ã¬
Ġc Ã¡nh
es s
Ġbá» ģn
ĠPh Ã³
Ġná» Ĺ
â Ģ
Ġc áº¯t
Ġth ÃŃ
Ġv ay
Ġc Æ°á»Ŀng
ĠÄĳ au
on ald
Ġ w
A I
ĠB Ãªn
Ġlá» Ńa
Ġs uá»ĳt
Ġph Ã³ng
ĠH á»Ļi
Ġkh áº³ng
Ġk iá»ĩm
ĠÄĳá» ı
Ġm Ã£
Ġng áº¡i
Ġm iá»ģn
ĠB á»
es t
M á»¹
Ġqu áº§n
Ġph Ã¡n
Ġbá» ©c
202 4
ĠTr Æ°á»Ŀng
Ġth áº£i
Ã£ o
Ġh y
ar t
Ġkh Ã¡n
Ġnh áº¹
g i
Ġl áº¡c
ĠÄĳ áº£ng
ĵ n
ĠH u
ĠGi ang
Ġ f
Ġth ao
Ġph áº¡t
ĠGi Ã¡o
r an
ĠH y
Ġ2 4
t Ã´
Ġb Ãły
Ġqu áºŃn
Ġchá» Ŀ
Ġng Ã´i
Ġth áº©m
Ġm iá»ħn
Ġb áº§u
Ġg á»ĳc
Ġc áºŃp
Ġch Ã³ng
Ġsá»Ń a
Ġ in
Ġth Äĥm
or e
Ġth áº§y
Ġn Ã´ng
ĠÄĳá» įc
Ġ áº¥n
tr al
Ġná» £
ĠPh áº¡m
Ġthá» «a
Ġngh iÃªm
Ġb Äĥng
ĠJ o
Ġb áºŃt
Ġvá»£ t
Ġ ÃŃch
Ġg áº¯n
Ġlá» ĩnh
Ġch iáº¿m
Ġdá» «ng
ĠNg uyÃªn
Ġnh áº¯c
Ġkhá» ĳi
ĠM áº·t
Ġkh Ã¡
Ã² i
Ã¨ o
% ,
Ġ202 2
Ġgi áº¥y
Ġs ung
Ġm Ã¡u
ĠÄĳá»ĭ ch
Ġh Æ°Æ¡ng
ĠÄĳÃ³ n
Ġcá»± u
Ġkh áº£o
Ġchá» ¥p
Ġ i
Ġ2 1
Ġt áºŃn
Ġtá» ĩ
Ġ Æ°á»Ľc
Ġ 0
Ġhá» ©ng
Ġch a
Ġdá»± a
us tral
T P
Ġch áº¯c
Ġv áº»
Ġc Ãł
ĠÄĳ Æ°Æ¡ng
Ġs ai
á»Ļ n
ĠG iá»
ustral ia
ĠV Å©
N D
Ã© m
ĠNg Ãły
ĠHá» ĵng
ĠA r
i ch
Ġch áº¿t
ĠÃ´ tÃ´
ĠK inh
l o
Ġth Ã¡ch
Ġr o
Ġc oi
s k
Ġ Ã¡nh
ĠÄĲ áº¿n
Ġth Ãº
ĠNg h
Ġb áº£ng
Ġg áº¥p
Ġb á»ĳi
ĠKho a
Ġg áº¯ng
áº¹ n
Ġt iá»ĥu
iáº¿ ng
am p
er s
Ġkh Ãºc
Ġph i
Ġná» Ńa
Ġd á»ĭp
Ġrá» Ŀi
k h
ĠT Ãłi
Ġchá» Ĺ
Ġrá» §
Ġth iá»ĩu
Ġthá»ĭ t
ĠC an
ĠTu áº¥n
Ġ2 2
ad a
1 1
in a
ĠTh e
Ġngh Ã¬n
Ġt áº¡p
Ġt Ã²a
Ġn inh
er a
Ġsá» £
d on
o p
ĠNh a
Ġng á»ĵi
Ġb Ã¨
Ġs Ãłng
Ġs Ãłn
Ġlá» ¥c
Ġs iÃªu
Ġgi áº£n
Ġn iá»ĩm
Ġt áº¯c
Ġth uyáº¿t
Ġthá» ¥
Ġm áº·c
Ġtr áº¯ng
Ġthá» ıa
Ġv Ã©
Ġhá»į p
Ã¨ m
U N
ĠL á»
ĠHo a
Ġ áº©m
ĠV iet
Ġc áº¥u
Ġh áº¥p
Ġth áºŃp
ģ m
Ġ19 9
Ġl inh
ĠX u
a x
Ġth Æ¡
Ġd Ãµi
iá»ħ m
ĠNg Ã¢n
Ġgi áº£ng
ĠTr Ãªn
Ph one
n er
Ġc áºŃu
ĠÄĳ Ãłm
Ġl áº¯ng
Ch Ãºng
ĠM ai
ĠK im
c o
ĠCh Ã¢u
ĠÄĳo Ã¡n
ĠC Ã³
ĠH ar
ĠS h
Ġng Ã´n
Ġm áºŃt
ĠA ustralia
al l
ĠQu ang
s t
ĠM us
£ t
Ġc Äĥng
Ġchá» ©a
Ġl y
ĠM á»Ĺi
ĠS á»Ł
i X
Ġt ai
UN iX
Ġs Ã³ng
Ġk á»ĭch
e v
Ġth iÃªn
Ġn áº¯m
Ġ6 0
á»ĭ nh
e g
ĠT Ã¢n
Ġ ung
ĠC on
Ġngá» «ng
ĠH Ã²a
ĠS p
Ġb u
id en
Ġnhu áºŃn
Ġs Ã´ng
Ġ2 3
ĠTH PT
Ġthu a
Ġgi Ãłu
Ġt im
Ġm ay
Ġtr Äĥm
Ġng Äĥn
pp le
Ġl áº¡nh
ĠPh Ãº
Ġn Ãºi
Ġlá» Ĺi
Ġrá»§ i
Ġchá» ¥c
Ġb á»ķng
ĠGi Ã¡m
ĠTh Æ°Æ¡ng
Ġs áº¡ch
Ġtá» ı
ĠlÃł ng
ĠC ar
Æ°á»Ŀ n
2 00
Ġk im
¢ nh
Ġx o
Ġchá»¯ a
Ġph Ãºc
ĠC up
Ġl áº«n
Ġmá» ģm
Ġ Æ°Æ¡ng
m an
T S
Ġk g
ĠD á»±
ĠB iden
Ġch áºŃm
Ġb iá»ĩn
Ġx á»
Ġt áº·ng
Ġb á»¯a
Ġng Æ°á»£c
ĠÄĳ uá»ķi
á»³ nh
ĠlÃł n
Ġh Æ°u
á»Ļ p
Ġd Ã¢y
Ġng Å©
Ġm áº¡ch
f f
Ġth Ã¡c
c ar
ĠCh Ãºng
á» ©c
Ġn iá»ģm
Ġ2 6
Ġt iá»ģm
ĠL o
ĠP ro
Ġch iáº¿u
s on
Ġnh áºŃt
Ġk Ã¨m
ĩ t
ĠP ar
Ġáº ¢nh
q u
Ġ2 7
Ġph Ã³
ĠXu Ã¢n
ĠN inh
Ġm Ã¡i
ĠL Ã¢m
¥ t
Ġáº ¤
Ġnh iá»ħm
ĠC Æ¡
į a
ĠTr ang
ĠS á»±
Ġr au
S E
ĠB a
Ġ2 8
ĠLu áºŃt
Ġk Ã©m
Ġr Ãłng
e z
Ġr Æ¡i
ĠQu áº£ng
i o
Ġb inh
202 3
Ġc áº¥m
Ġd Ãłng
ĠC Ã²n
ĠÄĳ Ã¨n
ĠÄĲ Ãło
ĠS o
Ġm Ãª
Ġb áº¡i
Ġm áº½
Ġl Ã¡
ic k
Ġl Å©
Ġk ÃŃnh
Ġkh ÃŃch
Ġtr Æ°ng
ĠF UNiX
ĠCan ada
ĠL Ã½
ĠChá» ĭ
Ġl an
Ġkh áº¯p
ĠG ia
Ġhuy nh
Ľ t
ĠÄĳ en
ter s
r y
ĠH á»ĵ
am e
ĠÄĳá» £t
á» ĵng
Ġi Phone
Ġt áº¡m
Ġkhá» ķ
Ġt Ã´n
Ġs á»¯a
l d
Ġtá» ĵn
ĠA pple
ov ic
Ġm Æ°a
e y
Ġs áº¯t
Ġh áº§u
Æ°Æ¡ i
ĠP há»
Ġtrá» «
ĠThá» Ŀi
Ġp in
Ġk á»ĭp
Ġh Ã¨
Ġqu áº£ng
l in
om b
o w
Ġkh uyÃªn
Ġb áº¡c
ĠMus k
Ġg a
Ġtr Ãº
ĠPh Ã²ng
Ġtr Ãºc
¥ ng
ĠA m
Ġc uá»ĳn
ĠG o
er t
Ġx áº¿
Ġ5 00
Ġ202 1
ĠÄĳá» ¡
ĠgÃ³ c
iáº¿ p
ĠkÃª nh
Ġt áº£
Ġcá» Ŀ
ĠÄĲ Ãł
Ġmá» Ŀi
Ġn á»ķ
ĠTh Ã´ng
or t
r i
Ġh Ãłi
Ġ7 0
Ġh Æ¡i
§ y
ĠÄĳá» īnh
ĠD u
Ġth iá»ĩt
as s
ĵ i
l ine
Ġgi Ã³
ĠTh Ã¡ng
ĠCh i
ĠÄĳÃ£ i
d u
ĠÄĳ ua
Ġch áº¯n
Ġng á»į
Ġtu á»ĩ
as t
as hi
ĠÄĲ áº§u
Ġl Æ°á»Ľi
ĠÄĲ á»Ļ
ĠH á»įc
Ġk iá»ĥu
Ġtr i
Ġh áº¡nh
Ġth iá»ĥu
Ġtrá» ĵng
áºŃ c
Ġn á»Ļp
ĠBá» ĩnh
ĠÄĳ ÃŃch
Ġrá» «ng
ĠgÃ³ i
or k
ĠtÃ¹ y
Ã³ t
Ġv ÃŃ
ĠV iá»ĩn
j ok
jok ovic
ĠÄĳ Ã¢u
Ġphá» ıng
ĠE l
ĠTh áº¿
ĠE m
ho w
is t
Ġn Ãªu
Ġng uyá»ĩn
Ġb áºŃc
Ġtr ÃŃch
Ġlo Ãłi
ĠC á»Ļng
ĠD Ã¢n
ĠTo Ã¡n
Ġb áº¯n
Ġchu á»Ĺi
ĠH uy
Ġth áº»
ĠNh Ã¢n
Ġgi áº¿t
ol l
Ġm Æ¡
Ġto p
L V
u d
Ġt uyá»ĩt
Ġho Ãłng
m p
Ġt Æ°Æ¡i
ĠÄĲ áº¥t
ĠÄĳá» £i
Ġgiá» ıi
ac k
Ġt Ãºi
Ġh áº¹n
ĳ t
Ġ áº©n
ĠT iáº¿n
Ġv áº½
Ġch Ã¡y
ĠD jokovic
B ND
ĠCá» ¥c
¦ y
Ġt á»Ļc
Ġch áº¡m
5 00
Ġph Æ°á»Ŀng
Ġ8 0
ic o
Ġmá» ¹
ĠNh Æ°
Ġb Ãło
Ġqu Ãł
Ġ2 9
ĠNgo áº¡i
en n
r am
at ion
Tr ung
ĠÄĳ Ã²i
Ã£ y
Ġk áº»
ĠlÃł nh
Ġtr á»¯
Ãº y
p en
e c
Å© i
Ġc Æ°á»Ľi
Ġl áº»
or ld
Ãº a
Ġtho Ã¡t
Ġá» ¦y
Ġkh ung
ĠV N
Ġgá» £i
Ġch áº¥m
ĠTr Ã¡i
Ġt Ã³c
Ġc Ã¡n
Ġáº¤ n
Ġthá» ķ
I n
Ġl á»ĳi
it y
Ġhuy áº¿t
Ġph Ãº
ĠM an
ĠQu Ã¢n
Ġcam era
K h
ĠV Ã¢n
ing ap
ingap ore
į t
Ġchá» £
ag ue
á»ĳ t
Ġr á»ĳi
at e
Ġkh áº¥u
Ġtá»ķ n
Ġd Æ°
Ġdá» įa
d a
Ġchi p
Ġh iáº¿m
ĠVá» ģ
i p
Ġth Ã³i
al y
Ġc áº§m
Ġb ÃŃ
Ġth áºŃn
Ġlo áº¡n
ĠA s
Ġ âĢ
ĠD onald
ĠU BND
Ä© a
Ġhá» §y
ĠÄĳ Ã¡m
ĠH LV
ĠChá» ī
ĠB ar
Ġ3 5
Ġtr Ã¹ng
ĠT Ã¢m
ĠH Æ°Æ¡ng
Ã£ ng
at h
ĠC uá»ĳi
ĠH iá»ĩp
Ġch áº·t
Ġ on
Ġd inh
Ġ202 0
Ġtá» ¥
or d
Ġá»§ y
Ġtr uy
an t
Ġtr Ãºng
ĠPh Ã¡t
ĠNghá» ĩ
Ġthá»§ y
Ġs áº¡c
ov id
H Ãł
ĠÄĳá» ©a
Ġv Æ°á»Ŀn
áº µ
Ġtrá» ©ng
ĠC o
ĠÄĳ e
ĠTh áº£o
202 5
áºµ ng
Ġch Ã¡u
th eo
ĠcÆ¡ m
áº¥ c
20 1
Ġph a
an n
Ġb áº¿p
Ġt iÃªm
Ġ3 1
Ġc Ãº
Ġm á»ĳc
ac e
ĠNghá» ĭ
Ġy Ãªn
ĠF PT
Tr ong
ĠS in
ashi ng
C Ã¡c
T há»
Ġ3 00
a w
Ġph áºŃn
ĠT áºŃp
a ch
e ch
Ġr áº»
ĠN áºµng
ashing ton
ĠG r
Ġ201 9
ob ot
S A
ĠÄĲ Ã³
Ġk Ãªu
Æ°á»£ u
Ġl áº¡
Ġx áº¥u
un d
ĠT iÃªn
ĠB r
Ġhá»Ļ p
Ġg ame
n am
Ġd Ã¡ng
ĠW ashington
or n
ĠC áº£nh
Ġ á»ĳng
Ġx Äĥng
d ex
ĠTr áº¯ng
ĠPh i
i x
t há»
Ġth ai
Ġc áº·p
ĠTr Äĥng
az a
ĠS am
ĠIn ter
ĠLe ague
ĠKh Ã¡nh
H CM
ĠW orld
Ġ9 0
ĠS ingapore
h n
ĠS c
ro s
Ġv áº¿t
Ġch áº³ng
ĠV in
ĠC ovid
Ġh Ãło
Ġtá» Ŀ
Ġgi Ãł
Ġphá» ©c
Ġná» Ĺi
Ġc an
Ġl iá»ĩt
ĠT á»ķ
ly mp
Ġs áº¡n
ĠD uy
Ġgá» ¡
Ġth Æ°á»Ľc
Ġs Ãºng
ĠTh iÃªn
Ġn áº¥u
kh Ã´ng
ĠK áº¿t
Ġgá»į n
Ġh uá»ĳng
ĠK á»³
Ġdá» ©t
E O
c há»
ĠG u
' ,
ĠI t
ĠV ÃŃ
Ġl iá»ģn
Ġ19 8
ĠC áº£
Ġkh Ã´
Ġr Æ°á»£u
i z
ĠhÃ£ y
Ġchá» ĳi
Ġ Ã©p
Ġd á»ĭ
Ġgh áº¿
Ġth ang
Ã¹ y
ĠThá» ±c
ion s
ĠCh Æ°Æ¡ng
Ľ p
Ġlá» «a
Q u
Ġd áºŃy
ĠÄĳ iá»ĩp
Ġr u
Ġsá»ĳ t
Ġ201 8
Ġlá» Ĺ
Ġd Ãły
Ġl áº½
Ġn áº¯ng
y l
Ġ áº¥m
Ġtá»ĳ n
og le
Ġhá» ĵng
r id
c a
g e
ĠH Ã³a
A T
Ġt áº¥m
Ġng ang
Ġm á»Ļ
Ġmá» «ng
§ ng
Ġs áº¯m
Ġm iáº¿ng
Ġl áº¯p
ĠC Ã¹ng
m art
l or
ĠB ÃŃ
ĠPh ong
o od
6 0
Ġtá» ıa
Ġh áº£i
Ġb Ã³
ĠH Ãłng
ĠÄĲ áº£ng
ĠÄĳo áº¡t
Ġngá»į t
Ġo f
Ġk iÃªn
Ġv ong
ĠV inh
ĠC N
Ġtr áº¥n
Ġth e
ĠAn d
Ġc áº£n
á» «
Ġb Ã£o
Ġchá» Ł
ĠB H
Ãª nh
ĠÄĳ áºŃu
Ġn Ã©t
Ġcá» ©ng
ĠÄĲ iá»ĩn
ig h
Ġph áº«u
ai n
Ġnh áº«n
Ġ Ã´n
ĠH Ã¹ng
ĠQu á»³nh
B á»Ļ
Ġon line
l a
Ġlá» įc
ĠB ra
ĠlÃ£ m
B C
ĠÄĳ am
Ġm áº¯n
ĠPh áº§n
Ġb Ã¹
Ġx Æ°Æ¡ng
u ters
ĠHar ris
X H
Ġchá» ĳt
A nh
o ok
Ġth Ã¹
am as
ĠB e
Ġm a
E L
Ġv inh
b er
ĠQu áº£n
lymp ic
y r
ĠâĢ ĵ
Ġ Æ¡n
car az
Ġm u
Ġr Ã¡c
ĠRe uters
Ġng on
ÄĲ V
Ġ e
ĠÄĲ á»ĳi
ĠT im
á»ĭ a
Ġch Ãºt
Ġkh Ã¡ng
Ġch áº·n
ĠH Æ°ng
ĠG Ã²n
ĠKh u
ĠS Ãłi
Ġtho áº£i
ĠL a
Ġgiá» įng
C S
Ġc Ã£i
Ġs how
Ġd Æ°Æ¡ng
ĠB áº¡n
ĠG aza
ĠNhá» Ŀ
Ġb Ã²
ĠPh an
ro up
Ġnh áº¯n
Ġc Æ¡n
ĠY ork
ĠGo ogle
N áº¿u
ĠC EO
o ur
en d
Ġc Æ°á»Ŀi
ĠC ol
C há»
ĠT Ã¡c
ĠÄĲ á»ĭnh
á» Ľi
Ġh u
ĠThá» ©
Ġs a
Ġc á»Ļt
Ġvá» ¡
Ng Ãły
á» Ŀi
Ġngh Ã¨o
ĠA ir
ĠI ran
Ġchá» ©
Ġb á»ĵi
ĠlÅ© y
ĠPh Ãºc
Ġl eo
Ġn on
Ġ' '
± ng
ĠÄĳá» Ĺ
Ġgh Ã©p
ĠH á»ĵi
Ġs Ã¡u
Ġmá» ĩt
ĠGi Ã¡
ĠO pen
Ġsá» ©
it e
ĠAl caraz
ĠCh iáº¿n
u ro
Ġb uá»ĵn
Ġcá» ¡
ĠJo hn
4 0
e al
ĠÄĳ áº¡p
Ġs Äĥn
ĠM ich
EL TS
Ġl áº¡m
Ġcá» ¥c
en ce
In dex
Ġn Ã£o
Ġtr áº¡m
Ġg Ãł
ĠC ao
Ġch áº£y
Ġx ong
ĠM as
Ġch Ãło
ĠT ik
' .
Ġnh á»±a
Ġc ar
202 2
¥ y
u k
Ġtr áº¡i
Ġgi áº¥c
es ia
Ġtr Ãł
Ġw eb
Ġtr Æ°Æ¡ng
ĠS l
ĠS á»ĳ
Ġ4 5
ĠM y
N há»
Ġb Ã©o
Ġr obot
ra b
Ġm Ã¡t
ĠQu á»¹
Ġch áº¥n
amp ions
C B
há» įc
i b
Ġnh á»ĭp
á» ĥ
don esia
omb ank
á» ¥c
Ġgi Ãły
ĠGiá» Ľi
ĠHu áº¿
K hi
Ġkhá» §ng
Ġlá»ĩ ch
ĠÄĳ áº¯c
L B
Ġch e
ĠS ong
s en
Ġh iá»ĩp
os t
ĠThá»§ y
et t
Ġgi Ã¢y
ĠM á»Ł
Ġth Ã´n
Ġbá» ģ
ĠIt aly
ĠGi ao
ĠBH XH
á»į ng
Ġt Ã¡n
ĠL Ãºc
Ġd ao
ĠNh Ã³m
ĠThu áºŃn
á»į i
is s
ĠÄĳá»ĳ t
2 5
ĠNgh iÃªn
ĠGi áº£i
ĠÄĳ áº¡n
ĠG D
p e
ĠÄĳ áº³ng
c on
Ġb Ã¹ng
Ġm Ã¹i
Ġrá» Ńa
ĠCá» ¥
ĠPar is
á» ·
Ġb áº¡o
Ġg áº¡o
T ok
S au
ĠÄĲ o
an i
ĠI I
G i
Ġd Æ°á»Ŀng
ĠÄĲ Ãłi
Ġqu ang
am in
ol d
Ġb Ã£i
Ġxo ay
v er
Ġk ÃŃn
ex ico
7 0
ĠI ELTS
Ġm ai
Ġkhu Ã´n
ĠG en
Ġ3 2
V iá»ĩt
ĠD Å©ng
Ġtá» ī
ris t
l and
ĠSin ner
ĠTh Æ°á»£ng
Ġt iá»ĩc
ĠB l
ĠÄĳ áº¯t
Ġtá» ©
ĠC LB
ĠS inh
Ġtu Ã¢n
is a
ĠV Æ°Æ¡ng
Ġmá» ıi
a f
ĠkhÃ³ c
Ġs á»ķ
' s
n et
ĠÄĳ em
ĠO lympic
o y
Ġm Ã¬
Ġthá» Ł
ĠDo anh
Ã Ŀ
in i
iv e
Ġg Æ°Æ¡ng
Ġkh iá»ĥn
ĠIn donesia
ph one
B ank
ĠC Ã¡ch
Ġbá» Ŀ
Ġhu áº¥n
ĠL Ãło
Ġnh áº£y
Ġn Ãºt
et ro
ĠD iá»ħn
le y
ĠQ uy
Ġt Ãłng
ĠT ay
z il
ĠC uá»Ļc
ĠTh ay
1 5
ĠC Å©ng
ĠU n
ĠGr and
Ġth Ã¡o
ĠCh ampions
ĠY Ãªn
ĠÄĳ iá»ĩu
ai l
Ġtr á»ĳn
ĠC l
Ġkhu áº©n
ĠNew s
ĠC al
ee p
Ġd uyá»ĩt
iá»ĩ ng
ĠL Æ°Æ¡ng
Ġvá» ı
ĠN á»¯
an ce
ng Æ°á»Ŀi
ĠC áº§n
ĠT iá»ĥu
ÄĲ Ã¢y
Ġtr Ã´ng
ĠG re
3 00
Ġkh en
Ġng Æ°á»¡ng
ĠM exico
ĠD e
á»ĳ p
ĠÄĳ Ã¡o
sk y
8 0
ĠT Æ°
Ġs Æ°u
Ġgá» Ĺ
Ġb áº¡ch
Ġs et
ĠC a
Ġh Ã²
Ġho áº£ng
M á»Ļt
Ġl Æ°ng
Nhá» ¯ng
ay s
ĠÄĲ áº·c
Ġb áº¯c
Ġth Ã´i
ĠÄĲ Ã¬nh
Ġbá» ¥ng
Ġ201 6
i am
ĠH Æ¡n
ĠH amas
ĠQ ua
Ġcá»ĳ t
Ġm iá»ĩng
i es
ĠTh Ã¹y
ĠTik Tok
ĠchÃŃ n
ĠÄĲ iá»ĥm
ĠM on
Ġtrá» ¥c
ĠViet nam
ĠR ob
g on
p o
ĠHá» ĩ
ĠTo Ãłn
ĠL ao
o x
Ġt Ãºc
Ġphá» Ł
b on
s ung
ĠV ÄĲV
er n
ĠS te
Ġ uy
Ġth uyá»ģn
ĠB Ã¡c
ot t
Ġmá» ¡
¥ i
Ġch Ã³
Ġv iÃªm
ĠÄĳ áºŃm
ĠD av
ĠNg ay
ĠG al
Ġt Ã¢y
ĠT iá»ģn
Ġph áº¥n
Ġh iáº¿n
ĠÄĳ Ãł
Ġgi Ã£n
ĠC Æ°á»Ŀng
ĠLo an
ar k
Ġt áº¯t
ĠÄĳ Ãłi
Ġth Æ°á»£ng
Ġk áº¹
Ġxu Ã¢n
Ġb á»Ļt
Ġn Æ°á»Ľng
Ġ201 7
c ombank
Ġbu Ã´n
us t
ĠOpen AI
Ġ3 3
ĠRe al
ĠS áº£n
f t
Ġb Ã¡m
Ġs Ã¡p
Ġhá» ıng
ĠP l
Ġtr áº§m
ĠL Æ°u
ĠY o
Ġtr Æ°a
Ġkh áº©n
Ġho ang
Ġqu Ãªn
Ġm áº£nh
ĠM al
ĠV Ãłng
Ġn á»Ł
Ġm Å©i
ic e
Ġl áº§m
Ġd áº¯t
3 5
Ġ Ã¡m
tr e
mart phone
Ġb áº£y
Ġth áº£m
el en
ĠN ad
ar a
1 00
Ġh áº¹p
ĠBra zil
ĠB Ã¹i
Ġm Ã£i
an s
Ġm m
Ġm áº£ng
Ġm áº¡c
oll ah
Ġph anh
ĠTH CS
Ġtr uyá»ĩn
if orn
iforn ia
a el
Ġk em
ĠH áº¡
e i
Ġch Ãłng
Ġng áº¯m
ez b
Ġt ung
Ġt Ã¡ch
Ġng áºŃp
ezb ollah
ĠC áº§u
Ġth Ã©p
Ġs u
et a
ee k
ĠC am
Ġr Ãło
en s
ĠÄĳ ai
Ġnh i
1 8
ĠT Ã¹ng
Ġkho áº£nh
Ġbá» Ľt
I D
ĠT ÃŃnh
Kh Ã´ng
igh t
ĠM á»©c
h am
u ch
ĠT Æ°Æ¡ng
ĠF r
ĠA F
ĠSt ar
Ġd Ã¡m
Ġchá»§ ng
p er
ĠÄĳ eo
Ġg Ã¡nh
A SA
ĠÄĳ Ã²n
Ġhá» ıa
Ġth Äĥng
Ġx Ã³m
Ġh áº§m
ĠNh i
Ġ4 00
Ġs Æ¡n
ĠT Ã¬nh
Ng Æ°á»Ŀi
e ar
Ġt Ä©nh
ĠN ai
ĠN et
ĠS ch
Ġ &
Ġc m
ag e
Ġg an
ĠH áº±ng
ĠV Ä©nh
ĠTr á»Ŀi
ĠB iÃªn
Ġr áº¯n
Ġ3 6
i al
in d
ĠT ech
Ġcáº£ ng
ĠCal ifornia
Ġtr eo
Ġt Ãºy
Ġ u
Ġm Ã¢y
Ãº n
v a
Ġth áº£
Ã¹ m
gi Ã¡
Ġs Ã´i
ic a
Ġx Ã³a
Ġru á»Ļt
ĠT S
ĠM c
ĠÄĲ Æ°á»Ŀng
d i
ĠÄĳ iá»ĥn
Ġv ua
Ġtr Ã²n
ĠNh áº¥t
e k
Ġm áº¡o
Ġt áºŃt
ot a
Ã© n
Ġch Ãºc
ĠT Ãłu
Ġho Ã£n
le x
Ġb Æ¡i
Ġnh Ã¡nh
ĠH ezbollah
Ġph Ã¡o
Ġmu á»Ļn
c t
Ġmá» ĩnh
Ġ3 7
Ġc o
Ġkho Ã¡ng
ĠCh uyÃªn
ĠNad al
Ġth iá»ĩp
Ġv Ã¡y
á»Ļ m
ĠH áº¡nh
ĠV Ãł
Nh iá»ģu
ĠB Ã¡o
Ġmá» ıng
b an
Ġ15 0
it h
ĠI T
Ġngá» «a
o o
Ġhá» ¥t
ĠH iáº¿u
Ġdá» įc
ĠSp ace
Ġt an
Ġng Ã£
Ġvá» Ŀi
áº« y
Ġtr áº§n
Ġtr Ãło
ĠS er
Ġhá» ©a
ĠV Ãło
ĠTh iáº¿t
Ġm áº¥y
Ġd Ãłn
Ġv oi
ĠThá» ĳng
ĠM áº¡nh
ĠD i
Ġ áº£o
ĠÄĲ á»ĭa
ĠTr Æ°á»Łng
Ġsá»ĳ c
Ġs Ã³t
V N
ĠY ou
Æ°á»Ľ p
ak e
Ġch inh
Ġ1 20
ĠlÃ£ ng
Æ°Æ¡ n
ĠTr Æ°Æ¡ng
ĠCh u
Ġ3 4
Ã Ķng
á»¯ u
i pp
Ġch im
ĠT áº¥t
Ġ19 7
y m
ĠTh áº¯ng
ĠSam sung
Ġs Ã¡nh
Ġ20 30
Æ°á»£ n
Ġcá» ı
ĠP al
ĠG áº§n
A V
ĠÄĳ áº§m
Ġnh Ã£n
Ġr Ã²ng
et h
Ġv Æ°á»Ľng
an y
ĠC ap
ĠX Ã£
Ġd Ã¢u
ĠÄĳá» ±ng
Ġx Æ°a
ĠH á»¯u
ĠA d
S G
ĠH Ã´m
ĠM ac
ĠN Ã³
ĠÄĲ Æ¡n
Ġh Ã¢m
Æ°á»Ľ t
Ġbá» ¥i
Ġkhá» Ľp
ĠG ar
Ġ Ã´m
ĠK iáº¿n
Ġlá» ĵ
ĠT Ãº
ĠV I
ĠthÆ¡ m
ĠSl am
u g
ĠThá» ¥y
it amin
ie v
h a
Ġm Æ°u
ĠÄĲo Ãłn
Ġin ch
ÄĲ áº¡i
ĠIn st
Ġr Ã¨n
t o
202 1
1 6
Ġtr Æ°á»£t
ĠQu Ã½
ĠMar k
Ġh a
ĠB Ã¡ch
E m
Ġt Ã´m
Ġtr á»ĳng
ĠPh il
Ġcar bon
c el
Ġxá» ©ng
r on
Ġv iá»ħn
Ġk iÃªm
x y
Ġthá» į
ĠF ed
ax y
hi p
Ġs martphone
G PT
Ġch ua
ĠA P
Ġt Æ°á»Ŀng
Ġv áº£i
te in
ĠCh ÃŃ
19 9
Ġthu áº§n
ĠK á»¹
Ġd Æ°á»£c
Ġkhá»ķ ng
Ġgi Ã¡n
ĠG l
Ġp ro
Ã£ nh
Ġnh áº¯m
Ã¬ a
Ġ al
Ġb ia
Ġcá»¥ m
ĠM o
ĠB Ãłi
Ġv en
Ġtá» §
ĠL y
Ġk ia
ĠH C
in es
Ġtrá» įn
ĠCh at
Ġt Ã¡o
Ġt iá»ĩm
ĠC ity
ent or
ays ia
ĠPh Æ°á»Ľc
ĠR iÃªng
Ġ3 8
Ġb áºŃn
Ġgi áº¥u
Ġ201 5
m i
Ġt áº¯m
Ġv Ä©
Ġh Æ°
Ġth áº¡c
ĠS un
ĠL áº§n
ĠP r
Ġb Ãª
at ch
ol f
B S
Ġph Ã¡i
ĠV Ãµ
ĠG B
Ġxá» ©
Ġh áº¯n
ĠH uyá»ģn
Ġl Ã¢m
ĠA ng
Ġcá»ķ ng
Ġx áº¡
Ġl Ã´ng
ĠKh ang
ĠNgh Ä©a
Ġr Äĥng
Ġm á»±c
ĠD ung
ĠU y
ĠA rab
t or
A N
ĠT iáº¿ng
ĠTr uyá»ģn
ĠChá» ©ng
Ġch Ã¹a
Ġtiáº¿ c
e p
Ġth áº§u
ĠZ elen
C Ã´ng
T E
k a
ĠE r
C Ã³
ĠC á»ķ
Ġ202 6
ĠAF P
ĠZelen sky
m ar
ĠB áº¿n
as h
s e
ho p
Ġtr Ãłn
ĠM Ã¡y
ĠHá» £p
4 00
ic s
8 00
ĠÄĳá» ĩ
Ġgi áº·t
iá»ħ u
s ite
Ġgi áºŃn
ĠL on
ĠL á»Ļc
Ġmá» ĵi
am a
ĠL Ãł
ĠÄĲá» Ĺ
Ġ7 5
ĠCar l
ĠCN N
ĠG eo
ĠF ran
Ġr Ãł
Ġthá» Ŀ
ĠÄĲ á»Ļi
Ġdá» įn
ĠA lex
D onald
ĠN Ã´ng
ĠÄĳ áº¿
es ter
Ġd Ã²
ĠTh Æ°á»Ŀng
ĠR o
6 00
ĠN ASA
al o
c Ã´ng
' ',
ĠT Ã´
Ġx Ã¢m
Ã½ t
ĠE x
V iá»ĩc
Ġnh Ãłng
2 4
T á»ķng
Ġhá» ĳi
Ġ4 8
co in
1 7
ĠC amp
Ġv itamin
au l
ĠKho áº£ng
os e
ag ram
V á»Ľi
Ġkh Æ¡i
ĠB áº±ng
A M
Ġch áº·ng
ĠT Ã²a
ĠM ad
ĠM ax
Ġv ang
Ġthu áº«n
ĠHu á»³nh
Ġch áº½
Ġng Æ¡i
ĠB en
Ġth an
ĠGal axy
d o
Ġgi am
ĠM os
ĠVá» ¥
Ġsá» £i
Ġv Ãµ
C C
Ġtr á»Ļn
ĠH ong
Ġ Ã¢n
Ġc anh
Ġb Ã´ng
ĠÄĲ a
ĠS w
eb ook
C on
m a
Ļ i
âĢ Ļ
k inh
Ġgi Æ°á»Ŀng
ix el
ĠTim es
i er
ĠT á»±
ĠS an
ĠInst agram
ĠTr Ãł
ĠTh Æ¡
Ġl Ãµi
Ġnh iÃªu
at t
ĠG roup
Ġgh Ã©
Ġv a
ar l
Ġc áº¥t
H o
Ġn iÃªm
it al
Ġ Ã¡c
Ġs t
ÃŃ p
Nh Ãł
ĠS Æ°
ĠP ut
4 5
9 0
ĠgiÃ¡ p
im b
ĠO s
m er
Ġd á»ĳc
Ġch áº©n
Ġ201 4
á»ĳ m
Ġs Ãºt
ĠÄĳá»ĵ n
ĠMal aysia
k ho
ĠT el
Ġcá»§ ng
ĠK iev
b rid
Ġt Ã´
Ġt Ã¡m
ĠTo ur
ĠÄĳá» ģn
Ġthá» £
ĠKh Ã¡ch
ing s
ĠE U
ac ebook
c om
Ġl Ã¹i
ĠGD P
ik e
á» £
Ġh Ãłm
Ġan d
i ao
ĠL á»±c
ĠGre en
ĠLon don
Ġhá» ķ
ĠM ess
ĠB o
an ia
ĠChat GPT
d e
ĠCh rist
Ġkh Ã¡t
ĠQu an
ne y
Ġh Ã¹ng
ĠA t
ĠTá» ·
ĠH Ãłnh
ĠR onald
v id
ĠT N
Ġm uá»ĳi
Ġm áº§m
ub e
y o
Ġv Æ°Æ¡n
Ġch Ãªnh
an a
Ġx Ã¡
Ġkhá» ©
Ġt uy
Ġng áº§m
th u
ĠM ed
ĠK há»
Ġc Ã¡t
ĠD eep
al a
ĠlÃ£ o
Ġv áº¹n
Ġm entor
) ;
G S
x i
Ġb Æ¡
ĠInter net
Ġqu Ã©t
Ġnh áºŃm
ĠLá» £i
uch ia
Ġ4 2
ĠPut in
Ġm Ã£n
ĠSau di
Ġweb site
Ġ6 00
Ġl áº·ng
Ġh eo
á»± u
ar e
ĠW ill
iv es
g o
ĠTh Ãºy
E D
Ġtr Ã´i
Ġth Ã¹ng
ĠV áºŃn
Ġo xy
g ent
Ġs ay
Ġmá» ķ
es la
ĠEl on
er o
vid ia
T á»«
ĠH ol
Ġ a
ĠM á»įi
ĠL ai
ĠK ong
Ġb Ã¡t
Ġá» ©c
Ġf an
Ġlá» ıng
Ġqu Ã£ng
Äĳ áº§u
ĠDav id
am es
Ġtrá» į
v e
Ġm Ã³c
ĠM á»¥c
ĠÄĲ áº·ng
in k
ĠS Ã¡ng
ĠTr á»įng
Ġhá»Ĺ n
ĠLe ban
ĠLeban on
t el
Ġc áº¯m
ĠH on
Ġl á»ĳp
ĠHo SE
ĠLá» ħ
7 00
S S
Ġc ua
Ġl Æ°á»¡ng
ĠTr ÃŃ
Ġl Ãºa
ĠX Ã¢y
Ġtr Æ¡n
ĠU t
£ n
Ġl ang
Ġh Ã´
ĠS yr
c Ã³
ĠÄĳ áº¯p
ĠÄĳ Ä©a
Ġx Æ°á»Łng
ĠB á»Łi
Ġ5 5
Å© a
ĠH e
ĠO r
Ġ Æ°a
Ġb Ã¡
ĠF or
Ġch ai
ĠB u
Ġc áº©n
ĠPhil ipp
Ġng áº¡c
ĠM in
Ġb om
áº³ n
ĠN ov
ĠJ e
Ġx áº£
is h
it coin
Ġng á»±c
ac c
Ġt áº§n
ĠN Æ°á»Ľc
i ence
ÃŃ a
á»ĭ n
ĠA b
ĠP et
Ġkho Ã¡c
F A
Ġng á»Ļ
ĠGeo r
r one
Ġchu á»Ļng
Ġh áº³n
Ġnh áº¡y
ĠMess i
9 9
Ġvá» Ł
ĠC om
ĠK áº¿
d y
Ġt Ãłn
Ġr Ã£i
e h
Ġto ur
20 20
g er
Ġd áº¡
Ġlá» ¡
ĠS a
ĠP er
ĠÄĳ áºŃp
Ġg om
Ġtr á»Ļi
Ġm Æ°á»£n
¯ a
ĠM el
ĠA v
ĠNg hi
ĠW al
ĠBar ca
ĠJo e
ĠGiá» Ŀ
Ġl Ã²
Ã¹ n
ĠX e
Ġv Ã¡n
Ġ4 3
ĠRob ert
ĠCamp uchia
7 5
ĠPar k
h e
Ġm áº»
Ġkh iáº¿u
ĠK ur
ĠPh im
Ġy áº¿t
Ġ6 5
ĠH iá»ģn
ĠÄĲ áº¡o
Ġv áº¯ng
Ġq uyá»ĥn
ĠU l
ĠYou T
Ġd e
ĠF acebook
acc ine
ĠTh Æ°
id a
ĠY áº¿n
on a
C O
t ra
ĠB er
ĠE d
ĠAng el
an o
ĠNg Ã´
w ard
Ġnh Æ°á»£ng
ĠL Ã£nh
Ġs áº§u
ĠT am
ĠD on
Ġc Æ°Æ¡ng
Ġsá» ¥t
ĠQ uyáº¿t
Ġ19 6
ĠT esla
Ġnh áº§m
Ġm Ã²
ĠS e
ĠX anh
ur e
Ľ n
ĠH áºŃu
Ġmá» ı
ĠÄĲá» ģ
Ġt uyáº¿t
ĠV Å©ng
on d
ĠMich ael
k s
ĠC Ã¢u
iv er
Ġphá»ķ i
o ft
Ġc Æ°á»Ľp
ĠN vidia
ĠRonald o
ĠN a
ÄĲ iá»ģu
ĠSyr ia
m e
Ġth áº¥u
Ġh áº£o
in t
ĠPh áºŃt
ĠHo Ãłn
z a
Ġng á»Ļt
ĠF lor
ĠTá» īnh
ĠÃģ nh
f ord
Ġl au
ĠB ro
ĠÄĲ H
Ġ3 9
ĠHo Ãłi
ĠMos k
T áº¡i
Ġm Ã©t
ĠH ÄĲ
Ġcá»ĳ ng
Ġx Æ¡
ĠP ost
Ġvá» Ļi
Ġso áº¡n
Ġ á»ĵn
Ġb Ã¢y
Ġlá»Ļ n
Ġ >
ĠT V
ĠFran c
H H
Ġg olf
Ġ4 6
Ġd ÃŃnh
2 2
Ġt Ã¢n
ĠM ic
ap p
Ġ201 3
Ġpro tein
AT O
Ġl áº·p
ĠÄĳá» «ng
ĠNg Æ°á»£c
ĠTo y
i le
Ġm eg
ĠTN HH
J C
y d
á» ¥
Ġt iá»ħn
ĠT Ä©nh
Ġhá» ĳ
Ġe uro
Ġho an
ĠU AV
or s
Ĺ ng
Ġtho áº£ng
Ġr áº½
it t
Ġb Ãºn
Ġth Ã¢m
ĠL á»ĩ
x e
Ġng áº¡ch
Æ°á»¡ i
tre am
Ġl ÃŃnh
Ġk iá»ĩt
Ġb l
Ġm áº¡n
ĠB us
ĠÄĲ áº¡t
ĠM Ã´i
ĠMosk va
Ġt Ã´ng
SE AN
m y
s h
Ġt ÃŃ
Ġv áº£
Ġhá»ĵ n
S I
Ġlá» ģ
it s
ĠAnd re
ĠGu ard
Ġ2 000
g h
Ġhá» ģ
ĠV an
ĠPhilipp ines
S eek
ĠB ill
id e
H á»į
ĠÄĲ Äĥng
ĠVá» £
ĠC ai
n a
ĠL i
r en
ch e
ra gon
ĠC r
ĠV i
ĠV iÃªn
ĠÄĲ á»Ļng
Ġ201 2
ĠÄĳ áº»
ĠÄĳ Å©a
ĠThá» į
and er
ĠK iá»ģu
l á»
ĠÄĲ Æ°á»£c
Ġdá» ĵi
ĠÄĲ inh
Ġlá» £n
Ġl ÃŃt
ĠK iÃªn
Ġg Å©i
ĠB ang
ĠYouT ube
ĠM il
ĠS ang
ĠD anh
l er
Ġv accine
ap ixel
gent ina
Ġm en
ĠSc ience
ĠV Ãłi
ĠL á»ĭch
Ġ4 4
ĠV al
ĠD Æ°á»Ľi
Ġmeg apixel
ĠH er
ĠTr iá»ģu
ĠÄĳ Ã¢m
Ġb áº©n
Äĥ k
1 4
Ġg áºŃp
1 3
Ġkh Ã´i
ĠS on
ĠS Ä©
i en
an e
Ġtho Ã¡i
ĠToy ota
Ġdá» ĵn
Ġd iá»ĩt
y a
ĠN ATO
ĠH Ã¬nh
ĠB á»ĳ
ĠB itcoin
ĠÄĲ an
Ġtá»± u
Ġl ives
ĠR ub
Ġngá» £i
od el
há» ĩ
ĠC Ãł
áº« m
ĠNh Ã¬n
Ġchu á»Ļt
Ġc u
Ġmá» ĵ
ĠKur sk
Ġch Ã¡n
ĠH Ã£y
ĠM eta
ī a
Ġt Ã¡
nh Ãł
Ġh uyá»ģn
ĠV ol
ĠR om
ĠO n
b um
á» µ
O S
Ġd uyÃªn
ĠS u
ĠE n
ĠPhá» ¥
Ġm Ã¹
ĠCh o
ol e
Ng uyá»ħn
ĠcÃ³ c
Ġbá» įc
Ġr ung
Ġlá» ©a
ĠA TP
Ġho Ãłi
Ġ4 7
ol a
ĠUt d
á» «ng
ĠF in
Ġbu Ã½t
ĠC Ã¡t
ĠÄĳá»ĵ i
Ġkáº¹ t
Ġv áº¥t
Ġb á»ĳc
ĠT in
áº± n
b o
Ġkh Ã¢u
ĠH an
ĠM ay
ĠK á»ĥ
Ġ5 7
Ġch Ã¬m
Ġ4 1
ros oft
Ġl áº¯m
Ġr á»±c
Ġná» ģ
P A
k ÃŃp
Ġtr á»Ļm
Ġlá» ĵng
ĠA SEAN
D I
ĠCh áº³ng
Ġrá» ¡
ĠÄĳá» ©c
Ġd áº¡o
ĠH iá»ĩu
ĠAl v
Ġ199 0
ĠHar v
Ġd Ã£
in o
b ia
Ġb i
ĠC áºŃu
? ".
Ġb áº¡
ĠT om
ĠT ok
ĠM Ã¹a
ĠMar t
kho áº£ng
ĠThá»ĭ nh
Ġdá»ĭ u
I T
Ġl Ã´
Ġb áº¿n
Ġph e
ĠMas ters
ĠFlor ida
Ġch Ã©p
2 3
Ġm áºŃp
l ad
Ġm etro
ĠA D
Ġ8 00
Ġ á»ĳc
Ġd á»ĳi
ĠH Ã£ng
ĠS iÃªu
b ot
ĠÄĳ Ãºc
Ġv isa
ĠN Ã³i
Ġchá» «ng
ĠC Ã¡
ĠS eo
ĠP GS
Ġá» Ľt
ĠThá» ĥ
Ġ8 5
Ġlo g
ĠLe e
ĠÄĳ Ã¡y
ĠÄĳ uÃ´i
Ġ25 0
p a
Ġc Ãłi
Ġtr áº¯c
Ġth áº¯t
ĠS ai
ĠNh Ä©
Ġ201 0
ian o
Ġr á»Ļn
Ġ5 4
at a
Ġv áº¡ch
ĠTr á»ĭnh
ĠB áº¡ch
w ood
Ġdá» «a
ĠCh ung
ĠAr gentina
Ġd Ã¢m
ĠT iáº¿p
Ġxá» ī
Ġn áº¥m
ĠM i
ĠK ar
Æ°á»Ł i
m ua
ĠÄĲ á»Ļc
g iá»
ĠTh i
m á»Ļt
ĠhÃ£ i
ul l
ĠSpace X
ĠFranc is
? ",
ĠÄĳ Ã¹a
Ġb áº¯p
Ġch Äĥn
Ġd rone
Ġngá»į n
Ġkh uyáº¿t
ĠB áº¥t
ĠNh Æ¡n
Thá» §
Ġt ang
ĠW e
ĠHon da
Ġ Æ
Ġh iá»ĥn
ĠQu Ã¡
Ġc áºŃy
ĠTay lor
á» Ńa
ĠM iss
ag en
k e
ĠC O
ĠE uro
ĠX iao
Ġb Ã¬
Ġtrá» «ng
Ġ7 00
ber g
i re
ĠT á»ĳi
Ġm Ã²n
Ġch áºŃt
ĠJ on
ĠtÃŃ m
ĠV ideo
Ġná» ĵng
ag i
Ġd áº£i
N Äĥm
u ck
ĠH áº§u
Ġkho ang
ĠÃ Ŀ
Nh Æ°ng
Ġvá» įt
od e
C A
en e
ÄĲ Ã³
Ġm á»ĳt
ĠM au
Ġ200 8
ĠTok yo
ĠD N
ĠGi Ã¡ng
ation al
ĠMic rosoft
ĠD ani
8 8
ĠH D
ĠL áº¡t
ĠDeep Seek
U V
Ġc Ã¡p
ĠTo p
Ġmá» Ŀ
ĠÄĳ ÃŃnh
ĠÄĲ iá»ĥn
ĠP aul
ĠCh Æ°a
Ġb Ãºt
Ġm Ã¢u
ĠM er
ĠL am
ar y
Ng a
b á»
Ġnh Ã¬
ĠT ex
ĠTh áº§y
es h
Ġkh Ã©p
ĠV áºŃt
Ġtho Ã¡ng
Ġkáº¹ o
Ġch uyá»ģn
Ġ> >
ĠL au
Th Ã´ng
un ce
ob al
F ast
k o
Ġch at
ĠM at
Ġcá» Łi
ĠM áº·c
ĠS al
Ġm Ãºa
Ġd á»Ļi
if e
Ġg áº¯t
Ġqu á»µ
ĠR es
ĠP at
Gi Ã¡
Ġh ung
us e
2 8
ĠM áº¹
ĠWill iam
Ġc áº¡n
pp er
Ġ201 1
ĠII I
Ġg áº§m
lo ck
ann ah
Ġg á»ĳi
2 6
g an
ĠL ig
Ġqu áº§y
Ġlá» įt
ĠGi ai
chá» ©ng
ĠÄĳ áº·n
Ġs iáº¿t
ĠÄĳÃ³ i
ÄĲ T
Ġb áº¥m
ĠA i
ĠQu Ã¡n
ĠHarv ard
w ei
Ġl a
Ġn áº¿p
ĠX uyÃªn
ist an
ĠTex as
Ġc á»ĳc
Ġv Æ°Æ¡ng
Ġ5 6
eal and
Ġal bum
ĠT uyÃªn
ĠV y
ĠV á»įng
ĠP SG
ĠK iá»ĥm
ĠR ich
ĠAl t
ĠM a
ĠTr áº»
Ġkho e
ĠThá» ķ
Nh áºŃt
Ġg áº¥u
Ġ4 9
20 19
re ak
ĠZ ealand
I I
Ġm Å©
ĠS up
ĠÄĲ i
i el
t á»«
Ġr áº¡p
ĠL Ãłm
ĠTá» µ
Ġtá» įa
ĠS JC
ĠA c
ĠP i
¥ a
Ġth Ã´
M A
ĠUl tra
Ġ j
Ġth áº¡ch
ĠM b
S á»±
T C
o c
Ġt áº©y
l u
Ġtr Ã¢n
ĠTh áº¡nh
ah u
q ue
á» ģ
Ġs er
ĠkhÃ³ i
ĠAt l
t a
Ġlo a
E F
Ġc Ãºng
ĠS k
ĠS ao
Ġ Ãª
Ġnh á»Ł
Ġná» ©t
qu áºŃn
ĠÄĳ Ã¡n
Ġl áº¥n
ĠIn d
Ch ÃŃnh
iv ers
ĠN or
B áº¡n
ĠR os
ĠD á»ĭch
ĠE ng
Ġhy brid
ĠÄĳá»ĩ m
ĠAs s
Ġ6 8
ĠTech combank
Ġtrá» ħ
al e
ĠPh iÃªn
is e
T A
v n
Ġc Æ°á»¡ng
Ġc alo
Ġm anh
Ġsá» ¥p
ĠAl l
imb le
Ġl Æ°á»Ŀng
Ġch anh
ĠS hi
ĠG S
ou th
ĠNet any
ĠGl obal
c ert
an c
Ġ5 1
ĠJ ack
o ol
ĠM V
Ġem ail
ill a
ĠNetany ahu
Ġch uá»ĳi
ua wei
est ine
Ġf or
D Ã¹
e on
ĠL áºŃp
ĠIn s
B A
T Ã¢y
Ġk iá»ģu
Ġtr iá»ģu
Ġm áº·n
ĠAr t
ath on
ĠTuy áº¿t
ĠSp ort
Ġc áº¯p
Ġtr Ã¹m
Ġ200 9
thu áº¿
ĠGuard ian
ĠSeo ul
I S
T V
ĠM W
Ġdá» ĩt
ĠAm er
Ġl Ã¢y
ĠB ay
ĠP ol
p ort
Ġ Ã¹n
ĠM or
ĠB ÃŃch
ĠS E
Ġm Ãłng
Ġn áº¡p
ĠV ic
ĠD ai
ĠNh u
ap pe
Ġ200 6
h an
Ġkh e
ĠT Ã´n
ol og
Ġh iáº¿p
A D
s y
Ġl á»Ł
ust in
imble don
B Ãłi
Ġv u
ĠAlv es
al i
Ġ5 2
Ġ5 3
s hip
t op
Ġ im
Ġs en
Ġch Ã¢m
ĠM ag
ĠMich el
Ġl áº¯c
Ġm áº¯m
Ġng Ãµ
Ġthá»ĭ nh
ĠW il
ĠTu áº§n
ĠPal estine
á» §
Ġrá» ĵng
ĠViet combank
G iá»
Ġth Ã¡m
Ġs áº¥u
Ġg Ã£y
ĠG old
A C
u ra
ĠA g
Ġ9 5
ĠMad rid
U kraine
f or
und ai
i Phone
u el
Ġl áºŃn
Ġngh iá»ĩn
ĠD Æ°á»£c
ing roup
S Ã¡ng
Ġtr Ã¡ng
Ġlu i
ĠBá» ©c
sen al
t hi
Ġd áº¹p
ĠHá» ıa
lin es
V iet
y n
Ph Ã¡p
ĠTh áºŃm
Ġ6 3
ov er
P U
yl v
M á»Ĺi
¥ n
Ġnh iáº¿p
Ġvá» īa
in ess
Ġk Ã©p
Ġlá» ¥a
ic an
ar i
Ġl Ã¢n
Ġch iÃªn
Ġd Ã£y
ĠTr áºŃn
ĠTh Ã¡p
ros s
po ol
2 7
t y
ĠV áºŃy
Ġvá» ±ng
ĠW ar
r ay
Ġg ai
an mar
ĠNh ung
Ġ á»ĳm
Ġtr iáº¿t
ĠXiao mi
ĠMb appe
O CM
w n
Ġh Ã´i
Ġh áº»
Ġr áº¯c
ĠL os
id er
ĠVin Fast
ĠYo on
M C
Ġv Ã¢y
ĠB á»ĵ
ĠS AT
ĠAir lines
OCM AI
B Ã¬nh
b a
Ġn áº£y
e ng
Ġc ay
Ġth áº¡o
Ġho Ã¡
2 9
I A
Ġm á»ĭn
ĠT á»Ń
ĠM Ã³n
ĠV iáº¿t
ĠB iá»ĥn
Ġx Ã¡ch
en a
ĠS m
ĠK en
Ġl áº·n
Ġnh áº¡t
H ai
t Äĥng
Ġkh Ã¡i
ĠCh Ã¡nh
ĠTu á»ĩ
t ar
Ġh Ã¡i
Ġr anh
ĠN Äĥng
ĠB Ã¡nh
in s
ell a
t Ãłi
ĠÄĳá» ©t
Ġtá» ĵi
ĠC á»±u
ĠM ur
N J
ch iáº¿n
ĠÄĲ Ã´i
ĠI D
ĠF l
9 00
l Ãłm
Ġg Ã¬n
Ġch Ã¬a
ĠZ h
ĠAngel es
o ut
Ġl Äĥn
Ġdá» Ŀi
Ġlives tream
Ġs Æ°á»Ŀn
ĠM Ã£
Ġl áº¥p
Ġm Ã¨o
ĠT Äĥng
Ġx ÃŃch
ĠV ance
U S
ch ain
ĠP enn
ĠbÆ¡ m
Ġd Ã¡n
ĠTh iá»ĩn
P S
á»į n
at ar
p há»
Ġnh Ã´m
im e
Ġ6 7
ĠDN SE
H Ãłn
Tr Æ°á»Ľc
ĠAlt man
k m
¨ ng
Ġng á»±a
ĠvÃł nh
ĠÃª kÃŃp
Ġt Ã²
Ġph Æ¡i
ĠTh om
Ġv Ã³c
Ġl Äĥng
Ġx Ã´i
at es
ak i
ĠGeor g
E S
Ġy ou
re e
if t
ĠCap ital
lock chain
ylv ania
u it
Ġl iá»ģu
ĠM áº¡ch
ĠD áº£i
ĠR AM
thá» ĭ
ĠAv iv
Ġd Ã¢ng
Ġ19 5
Ġgi áºŃt
m ent
s ylvania
z o
Ġch ay
Ġcá» įc
e en
Ġth Ã¡p
Ġn Ã´n
ĠS hop
b y
Ġ eo
Ġch áº£
Ġph áº³ng
ĠN i
iver pool
ĠT Æ°á»Ŀng
ĠL ou
ĠD el
Ġkho ai
Ġ9 9
Ġthá»ķ i
201 8
n Äĥm
u z
Ġl ong
Ġl áºŃt
ĠB Æ°á»Ľc
ĠA ward
Ġ3 50
ĠKh Ã´i
ĠRich ard
Ġng Ã³n
Ġthá» ±
er g
ĠIn t
ĠVic tor
2 1
ĠM C
ĠGiá» ¯a
Ġáº¤ t
Ġv áº·t
Ġtr áºŃt
Ġng á»įc
ĠH un
ĠE s
ĠJ enn
ur n
Ġtr iá»ĩt
ĠT áº¥n
ĠH ay
Ġ5 8
Ġ ax
Ġr á»ķ
ĠNg Ã£i
ar m
ĠPenn sylvania
Ġc Ã´n
Ġng áº·t
6 5
B Ãł
p s
ng Ãły
Ġtr e
am il
ĠJ ose
ĠHol ly
E C
Ġs an
Ġch Ãª
Qu áº£ng
ĠMy anmar
Ġb áº«y
ĠTr inh
ĠL iÃªm
az on
iam i
ĠSup er
u ne
Ġcá» ĵn
ĠM áº«u
ĠD uyÃªn
C Ã´
Ġb áº¿
ĠH a
Ġcon cert
ĠKh áº£o
as e
ut hi
á» Ĺ
Ġm Ãły
Ġh áºŃn
Ġx Äĥm
ĠTr iá»ĩu
ĠS á»Ń
ĠHy undai
' '.
A S
Ġn á»ĵi
ĠTh áº¥y
Ġmá»į c
ĠBl ack
Ġv Ã£
Ġh Ã©t
Ġn Ã©m
ĠC or
ĠNgh e
ĠT Ãªn
ÄĲ á»ĥ
Ġ200 4
Ġm ini
on s
Ġ6 4
ĠkhÃŃ a
ĠHÄĲ ND
H á»įc
Ġm Ã¹ng
or a
ĠW imbledon
ur y
Ġ Æ°á»Ľt
Ġng Ãłn
Ġgi Ã²n
ĠOs car
Ġká» ģ
C uá»Ļc
Ġcá» Ĺ
ĠC Æ°Æ¡ng
ĠAr senal
Ġax it
Ġtr Äĥn
ĠCh arl
D o
Ġ7 3
A E
D u
ĠÄĳ áº¡m
Ġph iá»ģn
ĠN o
ĠNg uá»ĵn
th on
ac o
ĠPhá» ķ
Ġru á»Ļng
á» ŀ
Ġt ia
Ġth áº¯c
Ġph Ã¬
ĠBan k
h Æ¡n
k en
Ġm Ã³ng
ĠT iÃªu
6 8
c ast
Ġs uá»ĳi
ĠH uawei
ĠM iami
ĠÃ Ķ
ĠE v
ĠS Ã¢n
ĠJ ames
% ),
I C
T áº¿t
Ġth áº§m
Ġg ay
ĠS Ã¡ch
ĠK iá»ĩt
Ġn o
ĠK r
al s
Ġlu Ã¢n
Ġná» Ľi
art up
ĠFed er
ĠSai gon
3 4
Ġc ong
ĠD á»¯
ĠR ed
Ġm á»Ļc
Ġkh uy
ĠT ÃŃn
Ġmá» ī
ĠG ra
ĠR af
ĠQu áº£
K ho
s inh
ĳ c
Ġtr Ãłng
Ġb ar
Ġs áº¥y
Ġm áº¿n
Ġnh Æ°á»Ŀng
Ġq uyÃªn
ĠG er
et ing
ĠUn ivers
Ġch Ã¨
ĠV á»ĭ
Ġho áº¡i
ĠK at
il le
Ng há»ĩ
Ġvá» ©t
ĠM S
ĠV ingroup
ĠQu áº¿
ĠAm azon
ĠTh áº§n
ĠI V
ĠHá»į a
Ġ áº¥p
Ġkh Ã¡nh
ĠT uá»ķi
ĠCh ia
as on
g en
ĠTr á»ĭ
Ġdá» ¡
ol and
ov a
Ġ198 0
ĠCarl os
ĠBus iness
Ġ Ã¡i
Ġt áº¡ng
Ġn Ã¢u
ĠN Æ¡i
eo p
p r
Ġr Ã¡p
ĠC á»Ń
Ġlu á»ĵng
ĠF DI
ĠThu áº¿
t iá»ģn
Ġx en
ĠS n
ĠPh ÃŃa
ĠUy Ãªn
A n
I M
ĠV P
Ġmá» ¥n
Ġ5 9
ĠPl us
Ġb á»Ļi
Ġd ai
ĠS im
ĠNg Ã´i
ag o
ĠLig a
T T
Ġs áº¡t
ĠL iverpool
ĠQ uyá»ģn
' '
M á»įi
Ġh Ãł
Ġ18 0
n y
Ġph un
ĠC Ã¡i
ĠV en
ĠL ive
i um
Ġl Æ°á»Ľt
Ġtr Äĥng
Ġrá» ī
Tr Æ°á»Ŀng
ĠBá» ī
A ustralia
g in
t ai
Ġh áº±ng
ĠT y
ĠT uyáº¿n
ĠN Ãªn
ĠPh Æ°á»£ng
% ).
Ġqu áº¡t
ĠC ung
ĠB ID
ĠL iÃªu
ĠG em
ĠÄĳi Ãªu
og a
ist ics
8 5
Ġb o
Ġh it
Ġo unce
Ġchat bot
Ġ Ã¢u
ĠC á»±c
ch i
ai r
ĠP ow
ĠTh am
us s
Ġg áº¡ch
iá»ģ ng
ĠCh a
Ġrá» ĩt
ĠÃģ o
Ġvu Ã´ng
V Ã¬
ĠNg uy
er e
ĠCh iáº¿c
ig er
ĠMac ron
ĠSw ift
Ġd áºŃp
ĠS ab
ĠP an
ĠP TE
Ġbá» ĩ
ĠCar ol
Ġg Ã¡c
Ġx Ã´
Ġngh iá»ĩt
eal th
F UNiX
Ġng Æ°
Ġngo áº·t
ĠPet er
Ġser ies
há» ĵ
Ġn áº¡
Ġngh iÃªng
Ġá» ¨ng
ĠI v
gi áº£m
ĠHolly wood
Ġl uá»Ļc
Ġh iáº¿u
Ġch iáº¿t
ĠS uá»ĳt
Ġbá» ī
ĠF ord
is hi
á» ģn
Ġh Ã²n
ĠV F
Ġso i
ĠCom p
ĠÄĳá» Ľn
or y
ad e
Ġc Ã´i
Ġs Æ°Æ¡ng
ĠÄĲ iá»ģn
en c
Ġbu á»ĵng
Ġl Ã¡t
Ġg áº¡t
ĠNh áºŃn
Ġ200 7
P V
b ank
Ĥ n
ĠM e
ĠQ uyÃªn
ĠHo uthi
b es
l on
ĠNh áº¡c
Ġ6 6
ĠFr ank
ĠÄĳ áº¡c
Ġbá» ĥ
ĠHo áº¡t
ak a
ĠCN BC
ĠGreen land
ĠAD N
P P
ĠH al
ĠR á»ĭa
B I
Ġ am
Ġn áº£n
ĠB Ã³ng
Ġ200 5
pp o
Chá» ī
4 6
Ġs on
ĠS um
ĠP a
el and
Ng o
po int
n es
Ġh áº¡ch
Ġnh áº·t
ĠH OCMAI
ĠD áº§u
ĠD ragon
Ġ200 3
ĠÃĤ m
% )
L iÃªn
n ational
o ck
Ġv Ã¢n
Ġkh ao
Ġr un
ĠAward s
3 6
G E
H Ã´m
Ġng u
ĠM ill
it z
Ġ8 8
Y D
j u
ĠÄĲ Ã´
ĠD O
ĠO anh
ak h
av e
Ġháº» m
Ġh annah
Ġn áº¡i
Ġn áº¯p
ĠB el
ĠD Ã²ng
el s
ĠO b
ĠSt an
Q T
Ġc Æ°ng
Ġn Ãłn
á»ĭ t
ĠY am
ĠVI B
u an
Ġg Ãµ
ĠM Ã´n
Ġ8 4
Th e
T H
q ua
Ġm á»Ļng
Ġn Ã¡t
ĠC áº©m
ĠM á»Ļc
Ġ20 50
Ġ6 2
tr Æ°á»Ŀng
Ġb á»Ļc
ĠL at
áº» o
ĠY agi
ov ak
r us
v en
ĠS M
Th Ã¡i
Chá» §
A pple
M Ã¬nh
Ġ Ãºt
Ľ c
al and
ĠF I
lo w
ĠLo áº¡i
olog y
g iáº¿t
v ed
Ġph Ã¡c
Ã² m
Ġ1 30
as er
ĠJ im
ĠSc ott
ĠBe au
ĠÄĳ Ã¨o
Ġn Ãłnh
Ġx inh
ĠL isa
Ġ9 00
ĠM Ã´ng
ĠTh áº©m
et te
Ġk W
Ġch Æ°ng
Ġng Ã¢m
Ġph u
ĠM ob
ian a
Ġche ck
ĠFor bes
Ġth áº¥m
ĠC áº£m
ĠM etro
Ġ7 2
Ġ7 6
Ġxo áº¯n
5 5
D P
Ġ ong
Ġng Æ°ng
ĠM á»Ľi
ĠS uá»ĳi
ĠGi áº¥y
ĠW all
ĠGar ros
Ġl en
Ġl áºŃu
ĠB áº¡c
ĠL áº¡c
in c
ĠPh Ã¢n
ĠF ox
ĠJ ul
ers on
ear ch
do anh
Ġt áº£n
Ġt Ãºng
Ġkh an
ĠS á»©c
v i
Ġx Ã¡m
ĠM Ãłn
ĠB y
ĠS ol
er m
ĠR oland
ro v
ĠchÃº a
ĠCarl sen
ĠSm ith
ĠÄĳ áº¯n
Ġm Ãłi
Ġm odel
Ġr áº¡ng
ĠTr anh
Ġvá»ĭ nh
ec t
ver ev
Ġc Ãłnh
Ġd Æ°a
Ġ202 7
Ġtá»± a
Ġrá» ĥ
un a
ig n
d ro
u c
Ġh ao
ĠB Ã¡
ĠB á»ĳn
ĠKh Ã¡c
ov e
Ġbl og
y an
Ġx Ãł
Ġy áº¿n
ĠFeder er
Ġb Ã³n
Ġd áº·n
ĠG PT
Ġbá» ©t
or i
ĠL ED
Ġra d
Ġná» ¥
ĠphÃŃ m
ĠW ang
ĠTá» Ľi
ĠCá» ©
á» ©
Ġc Æ°á»Ľc
Ġk áº½
ĠT inh
Ġqu Ã¡t
ĠTh Ã¡nh
ĠI P
k ok
ĳ n
Ġt Ã¹ng
Ġx Æ°á»Ľng
am b
ĠD is
Ġ6 9
Ġ7 7
Ġ7 8
ac t
Ġta xi
m one
ĩ n
Ġthá» īnh
er y
Ġchu Ã´ng
c i
ĠÄĳ iá»ģn
ĠH ung
Ġ8 2
201 7
ĠÄĳáº¿ m
F C
s s
Ġtr au
Ġh Æ°á»Ľc
Ġh Ãłn
ĠN ap
ĠTr iá»ĥn
ĠTh áº¡ch
ĠR og
3 3
A l
b áº£o
Ġm Äĥng
Ġnh o
ĠN ole
ĠP NJ
ĠQ atar
Ġ9 8
s ter
ĠT on
áº¹ t
it ed
ĠKhá» Łi
Ġth Ã¡nh
Ġd Ãło
áº¯ k
ĠL Æ°á»£ng
ĠZ verev
ann ik
ĠInter national
m en
Ġl Å©ng
Ġm Ã¢m
ab y
ell ig
Ġd á»Ł
Ġho t
202 6
uk i
A R
l es
Ġph Ã´
ĠM eg
ĠV ua
ĠA M
ĠR ap
Ġchi Ãªm
ant a
ĠbÃ¹ n
Ġ6 1
ĠW hi
ĠJohn son
A h
y le
Ġ11 0
ĠÄĳ Ãłnh
Ġ8 1
F ed
G A
áº¿ ch
ĠSh e
ĠIns ider
D á»±
d er
Ġm Ã¡
ĠT w
ĠR a
o und
t uyá»ĥn
Ġh Ã©
ĠS i
ĠHu á»ĩ
Thá» Ŀi
Ġcu á»Ļn
P há»
ĠÄĳ áº¥y
Ġv iá»ģn
Ġth a
ĠV ir
im ir
ĠX uáº¥t
th Ã¡ng
os h
ĠNov ak
Ġl á»Ļi
Ġd áº¥y
ĠC áºŃp
ĠM Ã´
in n
áº½ n
Ġ199 7
ĠDani el
c á»ķ
Ġt Ã³m
Ġl Ã¡nh
Ġch Ã©o
ĠV Ä©
ĠB uá»ķi
ĠTh ÃŃ
ĠCh Ã¢n
eh ran
E U
N G
p t
Ġc áº¯n
Ġnh Å©ng
ĠC ro
ĠTr áº¥n
ig an
sk i
201 6
C o
Ġm Ah
Ġn Ãłng
Ġkh Ã©o
ĠT áº¡
Ġhá» Ł
Ġngh áº½n
ĠCh uyáº¿n
ĠR am
Ġnghá»ĭ ch
r ick
w ar
y e
Ġh am
ĠU N
ap top
á» ©ng
ĠS UV
19 8
Ġ199 6
S J
Ġt Æ°á»Ľc
Ġm iÃªu
Ġg ym
ĠH iá»ĥu
ĠW ood
ÄĲ á»ĵng
ĠDai ly
ĠInt ellig
3 1
Ġng Ã´
ĠN as
ĠS il
Ġbá» Ĺng
ĠX in
Ġ16 0
gi Ã¡o
ĠSte ph
ĠStar ship
N am
ĠT a
ĠV ar
ĠP ra
ĠW est
eop le
3 8
4 7
j a
k há»
ĠT e
ĠV áº¥n
it a
Th áºŃt
ĠBe ck
o e
ĠÄĳ uá»ĳi
Ġg á»ĳm
ĠÄĳá» įng
Ġph Ãłn
Ġtá» ¥t
ĠH iáº¿n
ĠAn ton
lad imir
r áº¥t
r ic
áº¿ m
Ġr Ã³t
ĠB ur
en z
ĠKh anh
ĠX Ã´
and a
Ġst artup
D Ã¢n
ch er
ĠB lo
ĠR od
ĠW SJ
ĠZ ero
ĠMas ter
ĠBang kok
ved ev
Ġc Ã²i
ĠT ehran
ĠN ob
ĠB YD
ĠÄĲ áº£o
ĠCh iá»ģu
ĠW eb
iel d
Ġb Ã¡ch
Ġph áº¿
ĠHÃł m
Äĳ Æ°á»Ŀng
âĢ ¦
ĠBl ue
L ED
ĠÄĳ an
Ġb Æ°á»Ľ
Ġch áºŃu
Ġr á»Ļ
ĠA CB
ĠCh Ãłng
Ġsá»Ł i
Th anh
Ġtho a
Ġro ck
ĠMed vedev
4 8
I s
Ġ ,
ĠJ er
om e
ag er
Ġvi rus
og ue
thá» §
ĠKhá» ĳi
ĠNguy en
b our
ĠK á»·
ĠD ub
ĠCh an
Ġ8 3
ÄĲ á»©c
Ch Æ°Æ¡ng
ph Ã¡t
G ia
ĠB Ã©
al k
Ġ8 6
ud e
ott i
ĠGem ini
H Ã£y
Ġp l
Æ¡ m
ro id
ĠO l
Ġ Ãło
Ġl Ã´i
ĠV á»ĭnh
ĠÄĲ á»įc
ĠD a
om es
ĠSt ud
Ġch Ã´n
Ġx i
Ġr Ã²
ĠD inh
Ġkho Äĥn
el e
em y
ĠÄĳo an
9 5
ĠP in
ĠNg uyá»ĩt
ĠI r
ĠMart in
ĠThom as
P ad
Ġ .
Ġl Ã¹ng
Ġb Äĥn
Ġn uá»ĳi
Ġg am
ĠN at
ĠS TE
ĠK on
ĠÄĲá» ı
od ym
ĠCol le
ĠSte ve
bá» ĩnh
3 7
k i
ĠC en
ĠÄĲ Äĥk
ĠD á»ĭp
ĠCh ris
ÄĲ á»Ļi
ĠVá» ĩ
ĠIntellig ence
odym yr
C a
r it
ang e
Ġkhi Ãªu
ĠKh áº£
R E
V I
q uy
s u
Ġt Ãª
ĠÄ Ĥn
Ġkh uáº¥t
ĠM ike
ay a
Ġho r
ĠD iá»ĩu
ĠCh áº¥t
Ġ7 1
th er
ou d
ĠAlex ander
ĠCá»Ń u
l Äĥng
į i
Ġv áº¥p
ĠC Ã¢y
ĠTh o
20 30
ĠJ an
Ġw ith
s i
Ġc l
Ġvá» Ĺ
Ġx Ã´ng
ĠTr áº¡m
ĠL and
ĠK ing
ot te
ed es
Ch iá»ģu
Ġlog ic
j i
Ġtr Ã¢u
ĠT or
ĠC T
ĠNg á»¯
if f
chá» ī
ĠAnd roid
ĠMil an
Ġkhuy a
L á»
l et
w e
w ork
ĠÄĳ iÃªn
ĠV ogue
ĠB ern
ĠG h
ĠW h
ĠTá» ©
g a
g ar
Ġ +
Ġs Ã©t
ĠH S
am ala
ĠTr av
ĠS ar
ĠD r
Ġkhá» ĳc
ĠF ood
ĠGeor ge
ĠLou is
Ġb lockchain
ĠC áº·p
ĠS yd
Ġy oga
Ng Ã¢n
ĠMar ia
ĠJe ff
B á»
ng há»
Ġm e
ÃŃ u
Ġ7 9
ath an
6 7
Ġ is
Ġc Æ°á»£c
ĠÄĳá» ±c
ĠB Ã¡i
ĠNh iÃªn
Ġvá»ĭ t
at i
Ġ7 4
ĠTá» «ng
b áº¥t
Ġm i
ĠN e
Äĳ áº¡i
ĠGiá» ĳng
Ġhor mone
O N
b ert
Ġ Ãªm
Ġv Ãº
Ġb Ãºa
ĠC ÄĲV
Ġkhi Ãªm
ag a
Ġch Ã©n
ĠÄĳá» Ľi
ĠV CB
Ġlá» ¥t
Tr Ãªn
c l
Ġl Ãª
Ġl aptop
ĠT Ã¹y
ĠH Ã¢n
ĠL ife
ĠK ia
it an
tr Ã¡i
ot o
Ġ12 5
Ġ200 1
aw a
d am
Ġn Ã©n
ĠB iáº¿t
Æ°Æ¡ m
Ġdá» Ĺ
ĠO m
Ġtá» ıi
ĠN ick
ĠTr Ãºc
ĠTh áº¡c
ĠR obot
re y
ow n
Chá» ĭ
ĠSer bia
giá» Ŀ
T o
ĠS en
ĠA ut
ĠTh áºŃt
ĠK el
Ġc ode
ĠÄĳ Ã¹i
Ġx Ãło
Ġr Æ°á»¡i
ĠC Äĥn
ĠÄĲ iá»ĩp
ĠI m
ĠF BI
Qu á»¹
G I
b all
i ro
k ing
Ä ĳi
Ġth en
Ġnh Æ°á»£c
ĠC ross
ĠTh Äĥng
ĠP ak
ĠgÃ³ t
ĠO ne
Äĳ iá»ĩn
ĠMar c
ĠStar lin
cel ona
D A
c an
n ing
Ġs áºŃp
ĠT iáº¿t
ĠNg Ãłnh
ĠI S
Ġchu i
C an
z y
ĠÄĲ á»ĵ
Ġthá»§ ng
Ġ199 5
ĠBID V
p l
ĠH áº¯n
ĠS outh
ĠO ppo
ĠHun ter
L Ãºc
nh á»¯ng
Ġk iá»ģm
Ġb áº¡t
ĠV Æ°á»Ŀn
ĠÄĲ Ãªm
ĠÃĤ n
201 5
3 9
Ġtr inh
ĠM odel
ĠB ook
ĠTh iáº¿u
Ãµ m
Ġrá» ¥ng
Ġcá»¥ t
ĠcÃº m
ĠSyd ney
C I
k in
w are
Ġ Ã¡
Ġg u
Ġd áº¡i
ĠB os
Ġhá»į ng
ĠS tr
ĠP y
ĠG PU
ro m
Ġrá» Ĺi
ot e
ĠÆ ¯u
A r
F L
e ing
g áº§n
Ġb áº¥y
ĠB ao
ĠTr áº£i
ĠNh iá»ĩm
Ġngo an
Ġ8 7
ÄĲ Ãł
ĠFI FA
Ġt Ãº
el y
ĠW atch
ĠAs ia
0 1
c Ã¡
Ġch iÃªu
Ġr áº¡n
ĠD iá»ħm
Ġbu Ã´ng
ĠGo od
4 9
H en
Ġb ong
Ġh ang
Ġg ram
Ġnhá» ©c
ĠLu Ã¢n
ĠViet tel
Gi áº£i
cel otti
ĠAmer ica
Ġt áº¡
Ġr áº¡ch
ĠS H
ĠD J
ĠU ng
ĠJ r
Ń i
Ġt Ã¡ng
ĠT s
Ġgi Ã²
ĠB i
ĠB in
ĠP eople
ĠD ar
Ch uyÃªn
Ġrad ar
3 2
t Æ¡
Ġb á»ĵn
Ġr áº£nh
ĠM áº«n
ĠP u
Ġá»§ i
iet y
ct ion
H á»Ļi
w ay
Ġx Ã¬
ĠK e
ĠR on
19 7
ĠTel eg
S am
T Ã¬nh
Ġd áº»o
Ġng áº¯t
ĠL ew
ĠD om
ĠD á»±a
od cast
iz za
ĠNhu áºŃn
Is rael
j et
t Ã¬nh
Ġ *
Ġm ar
Ġnh ÃŃ
ĠV ladimir
ĠD es
ĠTP HCM
ĠChá» £
ĠAn celotti
Äĳ iá»ģu
Ġxo a
ĠOb ama
D iá»ħn
H Æ¡n
Ġ uá»ĳn
Ġv Æ°á»£ng
Ġqu áº¥y
am an
ĠGi Ã¡p
ĠChá» ĵng
te ch
Ġlog istics
p ing
t Ãłu
ĠT O
ĠH en
ĠV áº¡n
ĠB BC
ĠP o
Ġnhá» §
ne dy
5 4
H iá»ĩn
L u
g y
s á»±
Ġv Ã²i
Ġl Ã¡ch
Ġm ark
Ġch Äĥng
ĠÄĳá» ¥c
Ġx á»ĭt
ĠX Ã©t
il y
ĠNi Ãª
ĠkW h
B an
l ing
Ġth iá»ģn
Ġnh á»įn
ĠM Æ°á»Ŀng
ĠK iáº¿m
ev er
tai ner
r es
Ġch Ã´ng
Ġthá» ¥c
ĠH z
ĠS how
ar is
em en
Ġ200 2
if er
gi áº£i
ĠRes earch
á» īnh
Ġb Ãłng
ĠM ass
ĠL ab
Ġgh Ã©t
ĠPhá» §
ĠKen nedy
ĠCharl es
ĠPak istan
i us
k er
Ġv Ä©nh
ĠT as
ĠL Äĥk
Ġra pper
ic al
at ican
Thá» ĭ
ĠbÃ³ p
ĠEng ine
t Ãªn
ng Ã¢n
Ġch Ã¡nh
ĠD en
thá» ±c
5 7
k g
o ph
Ġs e
Ġh Ã¡o
Ġnh Ãłn
Ġchá» Ľp
Ġ1 000
ĠKh áº£i
it ch
Ġ19 70
rai n
Tr áº§n
omb ia
ĠChampions hip
Ġngu á»Ļi
ĠSTE M
T iá»ģn
Ġchá» įi
ĠC á»ĳ
ĠH uyá»ĩn
ĠV iv
ra ph
ev el
ath er
ĠHÄĲ QT
) :
H áº£i
Ġv Ã¡ch
Ġth Ã¨m
Ġch Ã¨o
Ġng áº«u
ĠT er
ĠT ur
Ġr ao
Ġ14 0
Ġcan xi
ĠCol um
O C
f l
h u
Ġ ao
Ġl Ã©o
ĠM B
Ġkhá» Ń
ĠR i
ĠR en
gi ao
ĠLy n
Ġn eo
Ġd Ã¬
Ġgiá» ¥c
ĠÃ ļ
ĠO x
ĠSo c
ĠSch ool
ĠBo eing
H O
b ur
Ġnh Äĥn
Ġg ene
ĠM ong
Ġgiá» įt
ol y
ĠUn ited
Ġl Æ°á»¡i
Ġb Æ°á»Łi
Ġn Æ°Æ¡ng
Ġg áºŃy
Ġhá» ©c
ĠC as
ĠC op
Ġnhu á»Ļm
Ġw on
ĠMer c
c uá»Ļc
Ġc au
Ġl Ã¡ng
Ġl Ã³t
Ġm Æ°á»£t
ĠC lin
ĠTr Ã¢n
ol i
ro p
Ġngá» ¡
ĠbÃ© n
ĠLá» ¥c
ĠVol odymyr
ĠMichel in
? "
L e
Ġ Æ¡i
Ġt áº¥u
Ġh áº¡m
ĠT od
ĠM u
ĠTr iáº¿t
ĠTh áº¥t
ĠK y
ĠI SS
ĠR u
ĠE ver
ĠCam era
Ġr Å©
ĠM ate
ĠV er
ĠV Æ°á»£ng
ĠB al
ia te
et sk
Äĳ Ã£
Ph Æ°Æ¡ng
ĠHar ry
oll agen
Ho Ãłng
4 4
N ew
Ġ áº¥u
áº ¤
Ġc áº©u
Ġh i
Ġd Ã©p
ĠT Ã¡o
ĠV ND
ĠL in
is on
ĠMar athon
ĠCá» Ńa
ĠYo ung
pr ess
E lon
Ġh ÃŃt
Ġn á»ĳt
ĠV oy
ĠL G
ĠL á»¯
un t
ĠLá» Ŀi
ester ol
L M
M áº·t
T ech
Ġl iá»ħu
Ġl aser
Ġb e
Ġm od
ĠH Æ°á»Ľng
ĠH igh
ĠM ot
ĠV ik
ĠB ig
on t
ĠÄĲ á»ķi
ĠA T
ĠCh uyá»ĩn
em ent
ĠW ell
Ġ8 9
du c
t t
ĠH Ã¡n
ĠH el
ĠS Ã¡u
ĠL ang
ĠP ay
Ġkho an
ic on
Ġ199 8
Ġsu Ã´n
, "
1 50
Ġn ang
ĠH ealth
ĠB S
ĠS and
ĠK ore
Ġcon tainer
ĠHu ang
ĠKr em
s á»©c
t Æ°Æ¡ng
Ġnh á»ĭn
Ġr áº£i
Ġcho Ã¡ng
ĠA p
ĠL áº¡ng
ĠD ay
le v
Ġ9 2
ord an
Ġlá»ģ u
P I
b ao
Ġb reak
Ġnh á»ĵi
Ġd Å©ng
ĠN av
Ġr ong
Ġr Ã¡n
ch ester
ĠM id
in Bank
Ġho Ãłnh
ĠK o
ĠG Ã³c
ĠG ames
ĠJ en
ĠKho áº£n
ĠPhá» ĳ
Ho a
ĠGeorg ia
f ield
Ġth ÃŃnh
Ġs Æ°ng
Ġkh áº¯t
Ġng Ãło
ĠU AE
ac ombank
Ġ17 0
ab le
if i
ub ishi
ĠAndre w
ĠMur ray
C N
K inh
h iÃªn
ĠB áº£y
ĠÄĲ en
ĠP e
ĠD iá»ĩp
ĠCh Ãºa
ĠBar celona
ib o
ĠBay ern
Can ada
H M
S á»Ł
l Æ°á»£ng
ng o
Ġcá» į
ĠB M
ĠB áº£ng
Ġ9 6
il d
rist iano
ĠPy thon
O lympic
Q G
V in
ĠÄĳ áº¥m
Ġn á»Ļ
ĠV Ã²ng
ĠB Äĥng
áº· m
ĠW i
Ġxo Ã¡y
ĠSin war
its ubishi
ĠCarol ina
U AV
Ġb Ã£
Ġb áº©m
Ġnh iá»ħu
Ġp odcast
ĠÄĲ Ãłm
ĠK u
ĠG Ã²
ĠKh Æ°Æ¡ng
ĠW in
Ġ9 1
Ġ9 7
ur t
Ġxu Ã´i
ĠNet work
ĠKrem lin
w agen
Ġchá» įc
ĠA f
ĠA qu
er ing
ĠPh Ã¹ng
ĠThá» ¥c
ol ate
ĠJ un
od y
ks wagen
Ġt i
Ġl Æ°á»£n
Ġb áº©y
Ġs Æ°á»Łi
ĠV illa
ĠP au
er b
ĠR oy
ĠMich igan
ĠÆ ¯
m o
Ġc Ãºc
Ġl Æ¡
Ġth áº¯p
ĠT em
ĠV á»ĳn
ĠK ang
ĠF ind
ro w
ra q
ing ham
Ngo Ãłi
ĠVir gin
F i
b in
l l
Ġh Ã´ng
ĠH ill
ĠM att
ĠV Ã¹ng
ĠB aby
ĠTr áº¡ch
ĠNg Ã´n
ĠF er
ĠÄĲá» «ng
Ġrá» ħ
tr ong
ed an
ev in
omb erg
enn is
áº¤ n
n Æ°á»Ľc
Ġb Ã³c
Ġqu Ã¢y
Ġr Äĥn
ĠV atican
it ion
us h
Ġhy dro
ĠDon etsk
bour ne
Ġ app
Ġc áº¥y
Ġl am
ĠÄĳá» ĳng
ĠB áº§u
ĠS el
Ġra p
th ew
Ġ199 9
ĠHung ary
ĠOx ford
M O
d á»±
á» Ľc
Ġc ai
Ġl á»Ļc
Ġs Ãło
Ġm áº¯ng
ĠT á»ĳt
ĠTr áº£
Ġlá» Ŀ
ĠD an
ĠNh Ã£
Ġgá» «ng
ĠBu ff
ĠJenn ifer
6 4
T Ã¡c
p age
Ġl áº§y
Ġd áº¡n
Ġx Æ°ng
Ġr Ã¹a
ĠTh Ãªm
ĠNh iá»ĩt
Ġbá» įt
ĠF A
ĠY Ãªu
th Æ°Æ¡ng
Ġi Pad
201 4
imb ank
ĠTy son
ĠBlo omberg
N ovak
n ie
Ġd iá»ħu
ĠT áº¡p
ĠCh áº¥p
Ġ4 50
ĠJ ordan
uck er
ĠIr eland
ĠVoy ager
L Ãª
z e
Ġnh an
Ġx áº»
ĠV iá»ħn
Ġmá» ³
ĠÄĲ Ã¡nh
ĠG rab
Ġká» ĩ
Ġngá» ı
ad y
iv i
ĠCá» §
ul t
ev a
ĠDav is
ĠFin als
ĠAss ad
ĠZh ang
G en
I t
P G
c ao
d en
ĠN V
ĠL áº¡p
ĠJ annik
ĠmÃ´ tÆ¡
ern and
ĠVar iety
N Ã³
Ń ng
Ġgi áº±ng
Ġtá» §y
ĠN m
ĠC áº¥p
ch o
ĠS tre
ĠG ab
ĠCh áº¿
ĠF ort
ph áº£i
ĠDO GE
Ġmark eting
ucker berg
R I
c Ã¡c
áº¹ o
ĠKh Ã¡n
ĠI raq
ass age
con s
ĠSk y
l esterol
Ġcho lesterol
ĠU r
ĠR ay
hi re
ĠBro ok
ĠSn ap
U D
Ġl Ã¬
Ġx ao
ĠH aw
Ġho i
ĠD ra
ĠCh Ãºc
ĠI C
ĠF old
ĠZ uckerberg
iv al
Ġ25 6
brid ge
r ing
z ech
nh Ã¢n
ĠÄĳ áº±ng
Ġnh á»Ļn
ĠÄĳá» ¥ng
ĠN ep
ĠH iá»ĥn
ĠH il
ch a
ĠL im
Ġngá» ¥
ĠÄĲo áº¡n
ĠFrancis co
ĠVictor ia
l i
m os
Ġl áº©u
Ġch áº£o
Ġchá» ¯ng
ĠM ach
inh o
ĠK á»ĭch
ĠPh áº£i
ĠY ang
re en
ce an
ey mar
ĠVinh omes
ĠMel bourne
ĠRog er
) ...
E V
e u
m it
ĠC áº§m
ĠS mart
ĠA C
ĠL og
ĠnÃ³ c
ĠSo ft
ĠAs ian
ĠColum bia
C Æ¡
O T
Ġc Ãºp
Ġb ung
Ġs áº¿p
Ġm áº¡
Ġph iÃªu
Ġgi Æ¡
ĠN ic
ĠN á»ģn
ĠC re
ĠB et
ĠB ah
Ġtu a
ĠW at
ĠUS B
ĠY emen
th Ãłnh
os ter
Ġ199 4
ĠEr ic
for m
ĠRaf ael
H Ãłng
Ġth Ãªu
ch uyá»ĥn
ĠB ell
ĠÄĲ Ã£
ĠK ÃŃnh
ĠG ates
Ġto a
Ġcu á»ĵng
ĠWe ibo
T uy
Ġm assage
Ġg á»Ļi
Ã³ p
ĠT an
ĠC Ã´n
ĠB ez
ĠS Ã´ng
ĠS ub
ĠL áº§u
ĠTh Ã¢n
ĠF ar
ĠJ am
Th Ãłnh
Ġgh en
Ġ197 5
ĠMat thew
T áº¥t
c áº§u
t á»±
x uáº¥t
Ġ Ã³c
Ġtr Ã¡n
Ġtá» ¥ng
ĠM ang
ĠTr e
Ġho áº¡n
ĠD em
Ġbá» įn
Ġquy áº¿n
ĠJ i
Th u
... ,
ĠID F
2 50
B a
G o
Ġm áºŃn
Ġn uá»ĳt
Ġng á»±
ĠC áº£ng
ĠS ec
ĠD ig
ĠR áº¥t
at o
ĠQu áºŃn
ĠY u
Äĳ iá»ĥm
ĠIn v
Ng há»
ĠJose ph
6 9
ĠB as
ĠD ie
ar on
Äĳ Ã¡nh
ion el
ex t
ĠCol ombia
Ġn Ã©
Ġng áº«m
Ġph Ã´ng
Ġr Ã¡ch
ch Æ°a
en ko
ĠF il
ĠF ound
Ġ19 0
ĠPhá» ¥ng
ett i
ĠVal ent
ĠNor th
ĠMerc edes
7 7
b reak
c m
p hi
Ġthá» ģm
ĠB inh
ĠVá» «a
ĠAl ph
ĠLu c
ĠSc r
Ġhá»ķ ng
ĠNob el
b i
p ace
Ã ģ
ÄĲ áº§u
ad o
Ġ11 5
ick le
ĠTech n
ĠMed ia
A G
j amin
Ġ Æ°á»Ľp
nh Æ°
Ġh Ã¹m
ĠS us
ĠS Ã³c
ĠD im
Ġ3 60
ĠBr and
ĠSte ven
G áº§n
Ġg áº¯m
Ġx ay
Ġx Ã¡o
ĠI B
ĠJ u
ur i
tr ess
if ic
all ah
ĠCam bridge
ĠWilliam s
ĠSE A
iate k
C áº§n
D C
h ai
j or
t Ã´ng
Ġ á»ĳp
Ġv Ã¡c
ĠB ob
ĠL Ä©nh
ĠK ai
ĠI d
âĢ ı
200 9
ĠAqu aman
c Æ¡
Ġp izza
ĠT al
ĠC V
ĠH as
ĠM itsubishi
Ġrá» Ĺng
Ġ19 60
un o
ab eth
ul a
ĠCon s
ation s
ark ov
ĠJon es
ĠStan ford
ĠBeau ty
ickle ball
f ake
n áº¿u
v o
Ġb Ãªnh
ĠM áº¡ng
ĠM od
ĠS SI
it ol
ĠY e
Ġgá» ¥c
ĠLá» Ľn
201 3
ĠGre g
ĠVol kswagen
ĠKore a
6 3
b r
s a
t inh
v el
Ġs Ã³i
ĠV ina
ĠL Ã¢n
ĠD iÃªn
ĠHo use
Ġo ff
ĠÄĳÃ´ la
ist a
ĠBra d
ĠMc C
ĠRo ck
m Ã¡y
s á»ĳng
t s
Ġtr áº·c
Ġs h
Ġs edan
Ġg iá»ģng
ĠT uyá»ģn
ĠC áºŃn
ĠH eg
ĠM ir
ĠÄĲ Ã¡ng
ĠTr Ã¢m
ĠK evin
ĠG ro
Ġ202 8
ĠR ai
Ġmáº¹ o
âĢ Ŀ
eg a
bo ard
ĠColle ge
ĠStre et
K áº¿t
M S
m ed
Ġv áº¡n
Ġng Ã²i
ĠB Ãłn
Ġdá» ©a
ĠK ir
ĠQ R
Ġtu á»Ļc
at or
ĠQu áº§n
ĠW ind
ĠScr atch
' ",
Q uá»ĳc
S ingapore
b iz
u le
v ent
Ġ áºŃp
Ġkh Ã´n
ĠTr u
ĠTr Ã¬
ĠL ove
ĠTh ÃŃch
ĠP op
ĠKh áº¯c
Ġkhá» ĳng
ĠF re
ĠThá» ıa
Ġ10 8
tr ung
Ġf l
Ġ199 3
ri bank
ĠAs h
ĠâĢ ľ
amil k
ĠÆ¯ á»Ľc
C á»¥c
L áº§n
M áº¹
c ent
m on
Ġt am
Ġl á»Ļt
Ġm ÃŃt
ĠH áº¡t
ĠR ad
ĠJ ustin
il a
ster dam
7 8
9 8
N et
T Æ°
t u
Ġv an
Ġk iÃªng
Ġn an
ĠV HM
ĠTr á»Ł
Ġtrá» ĩ
at s
ĠE VN
ĠCl ub
ĠBer lin
C L
M an
h Ãłnh
Ġt Æ¡
Ġb Ã´i
Ġp iano
ĠC el
ĠC zech
ĠP sy
ĠK amala
ĠnÃ³ n
Ph Ã³
Ġ199 2
Chá» ©ng
ĠEuro pa
C uá»ĳi
V á»£
p or
Ġk eo
Ġph Ã´i
ĠN eymar
Ġx Æ°á»Ľc
Ġr Ã¡o
ĠH Ãło
ĠM á»ĳi
ĠA h
ĠCh en
ĠR h
ĠW is
ĠViet jet
man n
ĠPhá» ¥c
ĠPow ell
Y T
z i
Ġch en
Ġch Ã³t
Ġp op
Ġph áº«n
ĠH Ã¢m
ĠH ass
ĠB or
ĠS ing
ĠK n
Ġdo ping
ĠKh arkov
ĠF al
il on
ĠIn tel
ĠSo o
ĠAs ton
ett s
C áº£m
C ap
S á»ĳ
k á»¹
á» ¡
Ġc ollagen
Ġphá» ĵng
Ġy en
ĠI l
ĠF an
os hi
ĠSt ore
ors che
Ġg Äĥng
Ġg en
ĠN áº±m
ĠG ram
ĠKh ung
ĠBr ian
ĠPl ay
ĠRub io
ĠTod ay
A F
R O
T ay
h Ãłng
Ġng uyá»ĩt
ĠR y
is ion
ro om
os a
Ġsu Ã½t
ĠChrist ie
ĠWood s
ĠNas r
A P
V Äĥn
b Ã¡n
s eth
ĠV eg
ĠTr a
ĠS ud
ĠK az
ĠCh ic
ĠCh ina
ĠJ osh
ain t
ĠFr ed
B áº¯c
s áº½
s á»Ńa
ĠÄĳ u
Ġs al
ĠT áº¡o
Ġgi Ã¡ng
Ġr Ã£
ĠM all
ĠV á»¹
one y
ĠLi u
F PT
L Ãłm
c Ã´
m ark
s Ã¡p
v Ã´
Ġ Æ°ng
Ġb Ã¬a
Ġch Ã¡o
Ġqu á»³
ĠÄĲ Ãłn
ĠÄĲ á»ĵi
Ġlá» į
os s
ĠAnd y
con om
ĠVirgin ia
H y
ĠÄĳ Ã¨
Ġk Ã¬m
Ġn áº¡t
ch áº¥t
ĠM áºŃt
Ġphá» Ľt
ĠCh inh
ĠF u
ĠE lo
eb y
ĠJo urn
ĠSh in
ĠAm sterdam
ach us
ĠMas an
ĠOn line
ĠVP Bank
T áºŃp
e ID
Ġt ie
Ġl Ã©n
Ġx áº£o
ĠB ud
ĠA z
ĠK id
es e
ĠQu Ã¡ch
ĠO cean
ĠDo Ã£n
chá» §
ĠJourn al
" :
% ;
Ġv Ã²m
Ġth ung
ĠT A
ĠM Ã£i
ĠÄĲ Ãºng
ĠS áº¯c
ĠL á»Ļ
ĠL Äĥng
Ġtá»ĳ ng
ĠCh uyá»ĥn
op er
ĠViet inBank
iz abeth
ĠEngine ering
oph er
ĠHeg seth
T F
m es
Ġt áº¿t
Ġc ard
Ġg áº·t
ĠH old
ĠB ess
ĠS P
ĠA pp
Ġná» ĩn
ĠThá»ĭ t
ĠTeleg ram
ĠBez os
g or
h en
ı m
Ġs tress
ĠT á»ĳng
Ġx Ãª
ĠS acombank
ĠCh ang
ĠI CC
im a
ĠF ury
um an
ir st
ab a
se a
ĠBen jamin
ĠSw iatek
ĠMass achus
It aly
C áº£nh
f an
l og
Ġs Ã¢m
Ġcá» «
ĠV AT
ĠB il
ĠS T
Ġsáº ¹
en ka
20 10
ĠE duc
Ġ9 4
tr on
iss an
ĠCl au
ĠShop ee
L Ãł
h uyá»ĩn
Ġ Ãł
Ġb y
Ġng áº§n
ĠT um
ĠC ub
ĠB on
ĠA qua
ĠF est
Ġngá» «
ĠO le
th eby
Ġw ifi
Ġj e
ĠStarlin k
ĠNasr allah
Ġc á»ĳi
Ġch áº£i
ĠT áº§n
ĠN ass
Ġr Ã©t
ĠM Ã¬nh
ĠL as
ĠCh áº£i
ĠF ernand
ĠE V
ĠE le
ĠE conom
Tr ump
ell o
ĠSo theby
ĠDub ai
ĠBess ent
ĠMassachus etts
Ġsáº¹ o
5 6
B áº£o
t i
Ġt ivi
Ġv iá»ĩt
ĠT Ã¬m
ĠN BC
ĠTr Æ°ng
ĠTr Ãłm
ĠL una
Ġsá» «ng
al le
ic ro
ĠMar y
Ġ199 1
200 6
ĠWhi te
cons in
S C
t á»·
Ġb Æ°u
Ġn Ã¡o
ĠH i
ĠV áº¥p
ĠB áº¯t
Æ°Æ¡ u
Ġ2 20
ĠI FL
ĠE SG
Ġbá»ı ng
ĠÃģ p
ĠAc ad
ĠBeck ham
Bá» ĩnh
C K
f a
n i
Ġx Ã¡t
Ġr ang
ĠV Ãłnh
au r
ĠD re
ĠCh e
Ġto ken
ĠJ ac
Ãµ ng
Th ay
Ng uá»ĵn
eep fake
ĠbÆ°á»Ľ u
ĠChic ago
5 8
M ar
N A
N X
b áº¯t
t áºŃp
Ġc áº©m
ĠÄĳ un
Ġs Ãºc
Ġnh Ã£
ĠM uá»ĳn
ĠM un
ĠL NG
en ing
ĠKh Ãª
ĠKh ÃŃ
ĠR á»ĵi
20 12
Ġw ork
ĠAm y
ĠTim e
ĠEx imbank
ĠEduc ation
I V
M I
b e
o ff
s iÃªu
Ġ ac
Ġc at
Ġr áº«y
ĠL Ãłng
Ġsá» ıi
Ġ10 5
ĠHo me
ashi on
ĠAb d
Do anh
Ġrock et
ĠKel ly
Lu áºŃt
ĠSoc ial
B ook
P Bank
W orld
d ragon
á» «a
Ġv Ã¡
Ġch Ã¬
Ġx á»ĳp
ĠC uá»ĳn
ĠTr ans
in dex
ia s
and al
ph Ã²ng
ĠMus ic
ĠEl izabeth
ĠAd am
ĠSteph en
4 2
B H
S tar
T O
Ġh iá»ģn
Ġnh a
Ġg Ã¢n
Ġg Ãłng
Ġd Ä©
ĠM Å©i
ĠB ut
ĠL ar
ĠG e
ĠG or
ÄĲ Æ°á»Ŀng
Ch iáº¿n
Ch at
az da
200 8
ĠRom e
ĠSnap dragon
G C
R S
y s
Ġv Äĥng
Ġnh Ã¡t
Ġn em
ĠT ien
Ġqu áº¥n
Ġr eo
ĠC Ãłng
ĠC Ãºc
ĠD ao
Ġlo go
ĠX Æ°Æ¡ng
ĠX em
ĠAl i
ah a
Ġxo Ãłi
lymp ia
ĠMo ham
bá» ı
ES CO
Sam sung
4 3
C Ã¡ch
ng Ãłnh
Ġl i
Ġl á»¯
Ġtr Ãªu
Ġg á»Ļp
Ġgi ang
Ġx Ã©
ĠÄĲ áº¯k
ĠA BC
ĠP orsche
ĠG a
Ġbá»ĭ t
ĠCh iáº¿t
it ter
ĠJ ess
ĠJ ason
ĠBá» Ŀ
qu á»¹
phá» ¥
nghá» ī
m et
r as
Ġk Ã¨
Ġs Ãºp
Ġh Æ°ng
Ġg Ã£
Ġch Ã¹m
ĠM ik
ĠB ir
ĠTr Ã¬nh
Ġgiá» ı
ĠQ S
ĠCh and
ia t
ur es
Äĳ ang
thá» Ŀi
oo th
ĠCap itol
Kho áº£ng
ĠSoft ware
ĠWis consin
ĠGram my
S P
l ish
Ġt Ã²i
Ġk n
Ġd iá»ĩu
Ġqu áº¿
Ġqu Ã¡i
an ie
ĠC R
ĠC y
ch ip
ĠS av
ĠA UD
Ng hiÃªn
ĠÃģ i
ran t
ĠVin amilk
ĠCol or
ĠUnivers ity
ĠPow er
ĠShe in
2 000
Ġv áº¡t
Ġd Ã¨
et ico
ĠJ ane
Ġ12 8
ĠAtl etico
D ance
i ola
Ġs Æ°á»Ľng
Ġgi eo
ok e
ĠhÃ£ m
Thá» ±c
Ġ198 9
ĠSer ies
ĠChrist opher
Ġblog ger
B á»ĳ
L S
c al
g ia
m und
o is
t z
v Ãłng
Ġ /
Ġth Æ°a
Ġm an
Ġn m
Ġkh ay
Ġkh iáº¿p
ĠL es
ĠCh er
Ġgá» ıi
te Dance
av a
ĠbÃª tÃ´ng
To Ã¡n
ĠHen ry
ĠBuff ett
4 1
6 6
N ASA
g á»ĵm
ĠT Ã¡m
Ġvá» Ľt
ĠC os
ch uyÃªn
ĠB ol
ĠD ata
ĠTá» Ŀ
ĠHá» Ĺ
AI D
Ġmu á»Ĺi
ĠAtl as
5 9
7 3
k y
m áº¥t
n ick
s hop
t in
t en
Ġ z
Ġb á»±c
Ġn Ã²ng
Ġg áº§y
ĠC X
ĠC ry
Ġ20 35
Ġkho áº»
Ġkhá» ī
ot ter
ĠRe b
ĠOs aka
ĠJe an
Ġlives how
C áº§u
D R
E x
l ie
r l
s áº£n
ĠÄĳ áº¯m
Ġk áº¹p
Ġcá» Ľ
Ġq uyá»ĩn
ch Äĥm
al enka
ĠKh ai
el sea
ĠChá» įn
ĠMo ore
ĠUnivers e
ĠUN ESCO
ĠLew is
Ġmod ule
T Ãªn
W S
c le
n o
Ġnh Ã©
ĠV o
ĠB á»ĭ
ĠS ach
ĠTh Ã¬n
ĠCh in
ĠCh ess
Ġngo áº¡n
ĠThá» «a
ÄĲ i
Äĳ á»Ļi
ly n
Ġi OS
ĠLá» Ľp
r ed
v in
Ġ or
Ġtr Ã³i
Ġtr ek
Ġx áº¥p
ĠGi áº£m
ĠX Ã¡c
Tr Ã¡i
Ph áº¡m
ĠCar lo
ĠPr em
ond er
ĠBos ton
R eal
t á»īnh
Ġt Äĥm
Ġl ay
ĠT CB
ĠT iger
ĠS á»¹
ĠL iá»ĩu
ĠK ey
ĠD Æ°
es el
ap er
ik a
TH PT
ĠMob ile
ĠWell s
C H
H LV
T á»ĳi
c olate
r and
t ain
Ġc Ãºi
Ġl ung
Ġth áº¯n
Ġp ickleball
ĠT ak
Ġx á»Ł
ĠV el
in ner
ĠTh ai
ĠTh iÃªm
ĠD áº§n
ĠG w
hi o
ÄĲ o
ÄĲ áº¿n
ne ct
Th áº¿
ĠChá» ĳt
Äĳ Ã³ng
ĠBe ach
ĠMc G
ĠAmer ican
ĠBM W
S h
Ġch Æ°á»Ľc
ĠN ik
Ġchá» Ńi
ĠH Ã¨
em e
Ġvá»¥ n
ic t
ĠE c
ĠVN eID
ĠGuard iola
t ail
Ġv on
Ġl Æ°á»Ŀi
Ġm Ã´ng
Ġd eepfake
ĠM ah
ĠS á»ĳng
ĠD Ã¹ng
ĠR au
Ġ24 0
ĠAr iz
ĠNghi Ãªm
ĠPat rick
ĠAg ribank
ĠSab alenka
fl ix
ĠInv est
B ar
g u
l an
u te
v ille
ĠÄĳ áº¯ng
Ġk ÃŃp
ĠB ow
Ġlá» ¥y
ĠA k
ĠA ud
ĠL ink
ĠP C
ĠD ong
ĠKh Ã³a
ĠR á»ĵng
ĠÃ Ĭ
ĠHo us
Nh Ã³m
ell i
200 4
ip as
Ġ198 6
ĠHa aland
Lá» ħ
ĠTem u
ĠAriz ona
E FA
L O
p op
t Æ°
há» £p
Ġn áº§n
Ġgi áº¥m
ĠH K
ĠM azda
ĠB iáº¿n
ĠG áº·p
ĠG all
ĠR ach
Ġthi Ãªng
ĠJ ay
ĠO hio
Tr áº£
Giá» Ŀ
S inh
T u
k el
m as
y eh
Ġ it
Ġt Æ°á»Ľi
Ġc áº¡o
Ġth Ã²i
ĠB ai
ĠA GI
ĠTh Æ°á»Łng
ĠCh Äĥm
ĠR et
ĠÄĲá» ĩ
ĠW ong
ĠHo an
ter n
Ġdi esel
ĠLe g
ĠSh er
ĠLo áº¡t
Ġshow biz
ĠPol it
Ġje ans
B ÄĲ
L Ã½
z h
§ a
Ġt áº£o
ĠT ai
am i
ĠS anta
ĠCh elsea
ĠPh áº£n
ĠI M
Ġ9 3
ĠO lympia
Äĳ Æ°á»£c
Ng ay
ĠLá» ĩnh
Ġ198 8
Ġst ud
its ipas
ĠJon athan
Ġrun ner
ĠBy teDance
ĠAut o
C arl
E R
o unce
ķ i
Ġtr Ãºt
Ġtr Ã¨o
Ġm y
Ġm icro
ĠC ristiano
ĠH PG
ch Æ°Æ¡ng
ĠM iá»ģn
ĠB iá»ĥu
ĠP ri
ĠnhÃł m
ĠPh o
ĠPh Ãºt
em a
th ur
Th Ã¡ng
Ġ16 8
ri end
ĠCá»¥ m
ĠSport s
ĠChan el
B áº¥t
b ar
m in
o T
w ell
Ġp oly
ĠN ext
ĠC er
ch ÃŃnh
ĠM et
ĠL Ã²
ĠL Ã¡i
in son
ĠTh Ãºc
ĠD ia
ĠO LED
ard s
á»ĩ t
200 1
ec ca
ĠCo un
pe arl
ĠBro wn
A i
M IT
Q uy
Ġ at
Ġv áº¯t
Ġs um
ĠM Æ°á»Ŀi
ĠB Ã¢y
on da
ĠS ev
ĠS ant
ĠA eon
ĠTh Ã¢m
et s
ĠÄĲá» £t
ĠQu al
ĠY ale
ĠAl bert
Ph Ãº
Ġ14 5
ff e
qu in
Ġtá»¥ y
aul t
ĠSu z
s Äĥn
Ġt est
Ġn ilon
ĠN issan
Ġr Ã¢u
Ġr á»ĳt
ĠC Ã¡nh
on i
ĠÄĲ á»ĳng
ĠP art
ĠO p
ĠGen er
ĠGold man
ĠTw itter
ĠTs itsipas
ĠVeg as
Ġcá»« u
O L
l Æ°Æ¡ng
m s
x Ã£
Ġm l
an yl
ĠM en
ĠV ill
ĠA ug
Ġtrá» Ĺi
el le
ĠR ON
it o
Th Æ°Æ¡ng
ob in
az er
ĠquÃ½ t
ĠHu Ã¢n
Gi Ã¡o
1 20
7 9
R áº¥t
S ao
U BND
g g
l Ã©
w a
Ġc á»Ļi
ĠÄĳ inh
ĠT ia
ĠB est
ĠU P
ĠR ice
im es
ĠF C
ĠF i
ol o
ĠE Q
ĠJ D
ÄĲ BÄĲ
tr ÃŃ
ter net
Ch ampions
ĠIs land
ul in
st an
ort s
ĠMin zy
ĠMW G
ĠDel hi
ĠNap as
ĠBook er
3 50
c ia
e ed
i F
l ao
u x
Ġn Ã¡m
Ġkh iáº¿t
ĠM PV
ĠÄĲ áºŃu
ĠK Ã½
Ġá» ©
tr y
Ġ13 5
ann a
uit ar
ĠDie go
ĠFound ation
, ...
C Ã¢u
E T
O B
S t
b iáº¿n
Ļ ng
Ġr es
ĠM our
ĠB á»¯a
ĠL aw
ĠD C
ĠG R
ĠG el
ig o
ĠGiá» įng
ĠMan chester
Ġma jor
ĠVI C
ĠPr inc
ĠNass r
r ate
Ġ =
Ġth áº±ng
Ġs hi
Ġn Æ¡
Ġg Ã²
Ġd áº§m
Ġph ao
Ġqu á»·
ĠC áº£i
ĠH Æ°á»Ŀng
ĠB Ã£i
ĠÄĲ Ã¡p
ĠL Ãªn
ĠP as
Ġthu n
ĠJ ap
ĠHo áº·c
ĠIn n
ent anyl
af e
ĠGar y
zo om
thon y
alle ng
O pen
c Ã¡ch
c us
m ore
Ġb Ãºp
Ġn it
Ġg Ã¹
ĠT á»ĳc
Ġthá» ĳn
ĠN ak
ĠN á»Ĺi
ĠH all
ĠH ani
Ġcho Ãłng
ĠB B
ĠL az
ĠL ut
ĠL ady
ĠP ok
ĠK ate
ĠU á»ĳng
ĠThá» īnh
ic ius
ĠÄĲá» ©ng
20 11
ra d
Äĳ á»Ļng
ig in
ow ski
ort mund
ĠBr uno
ĠSc ot
Qu an
Ġgolf er
ĠLau ra
port s
k áº¿t
k á»³
ħ u
Ġl ike
Ġnh á»ĳt
Ġg áºŃt
ĠB es
ĠS ir
ĠK l
ĠR ose
ĠÃ įt
ra h
ĠX ung
om p
ĠO k
tr áº»
Ġ11 6
od a
ĠHá» ©a
ial es
ĠChu á»Ĺi
ĠBill board
ĠHous ton
6 2
B T
T Ãłi
c Ãł
w alk
á» Ŀ
Ġt áº¡c
Ġc Ã¡m
Ġs hop
Ġph iáº¿n
Ġvá» Ŀ
Ġgi un
ĠH am
ch ez
ĠS ri
ĠL or
ĠR áº¡ch
Ġ6 50
at er
th anh
pp ing
Ġo ut
ĠAr n
Ġ198 1
ye ong
ĠDra per
C G
F T
N Æ°á»Ľc
P R
l Ã¡i
Ġ á»ĵ
Ġ áº¿ch
ĠÄĳ áºŃy
Ġv iáº¿ng
Ġk ar
Ġth at
Ġkh ang
Ġng áº¡t
ĠB enn
ĠL Æ°
eo l
ĠP en
ĠP re
Ġlo Ã£ng
ĠF el
un ch
ou cher
ck tail
ĠFr itz
ĠNet flix
ĠSum y
Nghá» ĭ
vent us
7 2
J I
M inh
P hi
m ail
t ok
Ġt Ã¡t
Ġm Æ°á»Ŀi
Ġn áº¿m
ĠN iÃªn
ĠN á»Ńa
Ġcho colate
ĠL Ã´
ĠL Ãłn
ĠK áº»
ĠK yr
Ġphá» Ļng
ĠCh áº¡p
el a
Ġ7 50
ĠHo t
av er
ess a
ĠPhá» Ł
ĠBu Ã´n
lá» Ľp
ĠHD Bank
anc ial
ĠBah rain
H N
k ins
s ch
Ġ zoom
Ġtr o
Ġnh ai
Ġnh uyá»ħn
ĠB TC
ĠÄĲ áº§m
ĠP V
ĠD ortmund
ĠCh oi
Ġbá»ĳ t
Ġkhu áº¥y
ÄĲ iá»ĩn
ĠDo ug
Ph Ã¡t
ĠHy un
ĠBr it
ĠSch ol
lad esh
for ce
ĠMS B
BH XH
B ig
C hi
b it
c am
h iá»ĩn
o th
Ġ Ã²a
Ġv Ã¹i
Ġs pa
Ġnh áºŃu
Ġn áº¿n
Ġkh iáº¿m
ĠN áº¡n
ĠN á»ķi
ĠN est
inh a
ĠS ign
ĠA R
ĠD eb
ĠU V
ĠW TA
ak ing
19 75
ard o
ers ey
ĠLo Ãłi
ĠCo ok
orn ing
ĠFer r
Ġkn ock
ĠSach s
9 6
C áºŃu
N á»¯
P C
V Ãło
h y
h yd
á» ı
Ġt Ãł
nh áºŃp
Ġv un
Ġth áº·ng
Ġg uitar
ĠN S
ĠTr i
ĠTr á»«
ĠTh ree
ĠNg Å©
ĠF ID
ĠTá» ©c
ĠIn f
Nhá» Ŀ
ĠMon ica
cel and
com m
app y
Viet nam
ĠMS N
ĠSim on
ĠDis ney
ĠTru th
B Ã¡c
T X
b Ã¡nh
c ap
w on
Ġk ali
Ġnh Ã©t
Ġng áº£
ĠT Ãł
Ġph Ãł
Ġgi Ã´ng
Ġr en
ĠC ore
ĠS y
ĠL ÄĲBÄĲ
ĠD ol
ĠPh one
Ġto Ã¡t
ĠF ull
at in
ĠW eek
it hi
om o
... )
ĠZ o
ĠJo h
ĠAr thur
Ġ27 0
ow s
yl ian
ĠAir b
ĠLy on
ĠEng lish
ĠRoy al
ĠPolit ico
H á»ĩ
L o
M P
d ay
r u
s á»ĳ
w an
áº ¢nh
Ġh ave
Ġh Æ°Æ¡u
Ġch Ã¨n
ĠN ational
ĠÄĲ Ã¨n
Ġngh Ãªnh
ar ez
ĠNh áº±m
ĠCh áº¥n
um er
ĠE ner
Ġ19 50
and r
ĠMar ie
ĠLu x
man uel
pen d
ĠKhu Ãª
ĠPl an
ens e
ĠInd ian
ĠYam al
ĠAM D
ĠAnton y
Ġmar athon
Le ague
Go ogle
ĠFal con
B Ã¡o
E G
T Ãłu
Ġb áº¥p
Ġn Ãªm
Ġn ick
ĠM áº¯t
ĠA th
ĠL ionel
ĠG T
ĠG un
ĠW ay
Ġngá» £p
Ġ9 11
ĠO ut
Äĳ áº¡o
Äĳ á»ĵng
ak er
ĠLe ar
ut ure
200 7
ĠEr ik
ĠNov aland
lá» «a
ĠRub iales
Carl os
ĠHani yeh
L Ãło
M Ã¹a
R C
V Å©
a an
b á»Ļ
b Ãłi
l Ã£i
m á»Ł
m áº¹
Ġv o
Ġb á»ĵ
Ġn Ã£
ĠC Ã¡n
ĠH áº¡n
ĠM áº¥t
ao ke
ĠS ho
ĠA le
ĠD áº«u
ĠG hi
Ġy our
ĠF arm
ĠAn thony
Ġf entanyl
st al
ĠMin nes
ĠJe ju
C áº£
D S
b ass
Ġb all
Ġch áº¡p
ĠM G
ĠM áº¡c
ĠM ini
ĠD Ãłn
ĠG W
ĠKh iÃªm
at on
ĠCN TT
ĠYo ut
Ġfan page
ĠOr igin
ĠFin ancial
ĠInd ia
ĠJosh ua
Ġcat walk
iF one
ĠMinnes ota
5 2
b au
n Äĥng
Ġk Ã©n
Ġph om
ĠH áº¿t
ĠV ui
on to
ĠS om
ĠP ac
Ġgá» ī
ent al
ph Ã¢n
av y
200 5
ĠVin icius
ĠvÃµ ng
ason ic
ĠMill er
ĠHold ings
E A
H Ãłnh
i que
o f
Ġ ex
Ġv Ã£n
Ġv uá»ĳt
Ġv áº«y
ĠT uyá»ĥn
ĠN Y
ĠN á»Ĺ
ch iáº¿m
ĠB Ã¡n
ĠS uk
Ġy ear
Ġngá» Ńa
ÄĲ á»«ng
ÄĲ á»ģ
ho Ãłn
ĠNgh iá»ĩp
omb o
ĠPer ry
ĠJack son
Ġcl ip
bur g
ĠTechn ology
Ġtrek king
G D
L ong
V á»ģ
j in
nh am
Ġl Ã³c
Ġth iÃªu
Ġph Æ°á»£ng
Æ°á»Ŀ m
ĠN Ãł
ĠC á»ķng
ĠC BS
ĠV u
ĠB Ã¨
ĠA S
ĠÄĲá» īnh
ol lo
ĠJ ung
ĠHo tel
Ġkhá»ı a
Ph ong
200 3
iam ond
ust a
ĠIv y
ĠSH B
ĠÃļ c
ĠDig ital
ĠAcad emy
ĠLut nick
ithi um
8 6
c Ã¢y
t iáº¿ng
Ġ áº¯c
Ġ up
Ġc Ãły
Ġs Ã¡
Ġs il
Ġch Ãł
Ġch áºŃp
ĠT Ã¡i
Ġthá» ĳi
Ġcá»§ i
ĠH ur
ch u
ch Ã¡y
ĠB OT
ĠÄĲ áº·t
ĠS at
ĠS Ã³ng
Ġho ay
ĠD y
ĠR ing
ÄĲ iá»ĥm
ĠO d
and y
Ġ17 5
Nh Ã¬n
ĠEl le
ĠEm ma
ĠBang ladesh
ĠKar en
ĠLat in
' t
8 4
H S
k iá»ĥm
t an
Ġ om
Ġc áº·n
ĠN Ãºi
ĠC Ãº
ĠH ang
ai s
ĠL ib
ar u
ĠQ uyáº¿n
Ġkho Ã¡
ĠU Ã´ng
ĠI oT
um ber
ĠJ in
ĠJ ersey
th iÃªn
ĠAn n
Ch Ã¢n
ĠJo y
ĠCo ur
ĠBl u
ĠMark eting
ĠÃĬ kÃŃp
ĠDia z
Open AI
ĠEner gy
. ,
7 6
M á»¥c
T ik
k áº»
l Ãł
t iáº¿t
u ay
Ġ áº¡t
Ġt áº¥p
Ġv e
Ġl on
Ġn ano
ĠN u
Ġx AI
Ġqu e
ĠC ur
ĠC ard
ai t
ĠB Ã¡t
ĠP eg
ĠD al
Ġká» µ
ĠI celand
ĠF ace
Ġ10 2
ÄĲ Ã£
ÄĲ á»ĳi
ĠLe v
Ġ198 7
ĠCl oud
ĠSer ie
ĠGra ham
ĠCT G
ĠJu ventus
Ġsal ad
8 9
C á»±u
b á»ĭ
k ov
v ay
v iá»ĩc
Ġ Æ°Æ¡m
Ġv Ã¡ng
Ġnh Ãµm
Ġch áº§n
ĠM I
Ġthu á»Ł
Ġbá» «a
ĠCh alleng
ĠKh mer
um a
ĠO ff
ĠO ld
est ay
kh u
Ġ198 4
ĠRo ad
á»§ i
ĠHaw ai
cm ai
! ".
c áº¯t
k esh
t our
w in
Ġk Ã¬nh
Ġm iá»ĩt
Ġnh á»ĭ
Ġg o
Ġqu áº¥t
ĠC AD
ĠA st
Ġho m
Ġchá»ī n
ĠR yan
im i
em is
ĠQu een
ĠmÃ´ tÃ´
ag an
ĠIn dex
ob e
Ġin s
In donesia
ĠVin pearl
ĠMo on
ĠEx press
Ġbl ue
ire ct
rov sk
ĠTon y
ĠCen ter
ngo áº¡i
B ra
H u
V á»¥
n ame
o on
Ġt áº©m
Ġt em
Ġth on
Ġgi Ã£
ĠN iá»ģm
Ġqu áº©n
ĠH annah
ĠB V
Ġmá» įng
ĠÄĲ T
ĠS L
ĠD áº¥u
ĠD all
ar o
ar ro
ar th
Ġlo ay
ĠF irst
ĠGi áº£ng
tr Ãªn
ĠMai l
ĠCo ol
aw ay
iss a
ĠAd v
ĠLig ue
ĠRaf ah
VI B
L Ã¢m
f er
Ġh Äĥng
Ġn áº¥y
Ġd á»Ļt
ĠT Ã´ng
Ġr á»ĵ
ĠC at
ĠH R
ĠH in
ĠM ek
ĠTr ude
ĠS á»
ĠA aron
ĠK iá»ĩn
ĠK it
Ġbá» ¥c
ĠThá» Ń
ĠW u
ĠJ ong
Ġngá» ©a
le e
ĠHo ward
ĠO CB
Äĳ áº¥t
ĠLe x
Nh Ã¢n
ĠCo in
ĠCr u
ĠEn ter
ĠDani il
ĠTrav el
ĠNep al
Ġwork shop
ĠMour inho
5 3
7 4
F F
K á»³
M al
o z
Ġt ennis
Ġm in
Ġn Ã¡u
ĠN ev
Ġr áºŃm
Ġr Æ¡m
ĠS aint
ĠP ort
ĠNh áºŃp
Ġbá» ĵng
Ġá» Ĳ
ĠR une
ad ing
ĠthÃ¬ a
ĠMar co
Nh Æ°
ri ot
end er
ĠMac Book
ĠPet e
ĠCr eta
ĠVen ice
ĠbÆ°á»Ľ m
ĠTor onto
ĠJap an
ĠTrude au
H á»
X e
h inha
r et
w eek
Ġ are
Ġt itan
Ġch áº±ng
ĠT Ã³m
Ġph Æ°á»£t
Ġx ÃŃu
Ġqu áºŃt
ĠC P
ĠM anh
ĠS áº¯p
ĠL áº¥y
ĠD iamond
ĠPh Ã¹
á»į t
Ġnhá» īnh
ĠW it
ĠUS A
ing er
Ġo an
ub er
ĠBar ron
Qu Ã¢n
ĠBH YT
ĠDon bass
ĠAll en
sy k
ovak ia
vi ew
ĠGro k
ĠFest ival
ĠMun ich
ĠJess ica
Bra zil
M Ã¡y
P od
W A
b u
t Ã´i
Ġt áº¡t
Ġl áº§u
Ġgi Ãłn
Ġhá» §
ĠH á»Ļp
Ġngh iá»ģn
ĠP ixel
ĠK er
ĠCh Ãº
el d
ĠR ang
ĠR uss
Ġnhá» ĩn
ĠQu e
it ies
ÄĲ Æ°á»£c
th a
Ġca ffe
ent s
Ph im
ir ut
ĠPhá» Ľc
ĠSte fan
Ġco cktail
199 7
he ng
Ġmá»ī m
ĠColor ado
B O
C ao
C ar
H z
R T
a e
b áº¡n
d ie
r in
ĠÄĳ Ãºp
Ġv est
Ġl ithium
Ġb áº§m
Ġm Æ°Æ¡i
Ġd ang
ĠT B
ĠT Ãło
Ġx Ã´n
Ġr Ã¬a
ĠB re
ĠA ustin
ĠL áº¯k
ĠU syk
ĠKh Ã³
Ġ5 12
Ġngá» ¥c
ĠY áº¿u
ĠAn na
ĠIn de
Kh u
Kh Ã¡ch
ĠGar cia
ĠWal z
enc ia
otte nham
Ġshi pper
C Ã¡
S áº£n
T oy
V ua
X u
e nh
m ad
r ie
x Ã¢y
ĩ ch
Ġt e
Ġc Ãło
Ġv áº·n
Ġl Ãºn
Ġs Ã²ng
Ġnh ung
ĠN áºŃm
ĠC H
ĠC I
ĠV Ã´
ĠV ai
ĠS ina
Ġho Ã¡n
ĠP am
ĠCh Ãªnh
ĠKh an
ĠKh iáº¿t
ĠF e
ĠF ab
ĠF ashion
um i
le d
ter te
ĠThu á»Ļt
ill i
gi os
ĠDu terte
Ġ198 5
ĠAndre eva
ĠRom ania
Kho a
ĠStud io
ĠSar ah
ĠNV L
ĠPok rovsk
G al
V R
m áº·t
s Ã¢n
v á»£
¨ m
Ġg as
Ġch Ãłi
Ġp ar
ĠT áº¥m
ĠT Ã³c
ĠN ay
Ġx Ã³t
Ġr ay
ĠC Ã¹
ĠB ry
ĠS á»¯a
ĠTh ung
ĠP ang
Ġgiá» Ĺ
ĠK as
ĠD un
ĠG ard
ĠG olf
ĠGi Ã¢y
ĠY a
Ġca bin
Äĳ á»ĥ
ut t
Ġxu á»ĵng
Ġw as
ff ee
qu áº£n
ĠBe irut
end o
ĠPat riot
tar io
ĠViv o
I ELTS
X in
o us
p ink
Æ ¯
Ġl Æ°Æ¡n
Ġs Ã²
Ġs áº£nh
Ġm g
Ġh e
Ġg há»
Ġch Æ°á»Ľng
Ġkh inh
Ġthá» «ng
Ġchá» ķi
ĠC ang
ĠH NX
ĠV ers
ĠÄĲ áº±ng
Ġlá» ©t
ĠL áº¡i
ĠP ep
ĠP itt
Ġ3 20
ĠKh am
is ha
ol as
ro y
il ot
Ġ12 6
Tr iá»ĥn
Ġ16 3
Ph áº§n
ĠLe on
Ġ17 8
ou l
ast ic
199 9
ĠClin ton
ĠAlph a
ĠOle ks
ĠReb ecca
ĠRach el
7 50
B l
I l
I ran
h Ã´n
s an
w s
± a
Ġ ad
Ġl Ã¡n
Ġb us
Ġx Ã¨o
ĠC S
ĠC Äĥng
ĠH AG
ĠM IT
ai re
ĠB ad
ĠB oy
ĠP PP
ĠK áº¡n
ĠK era
ĠG PA
ĠG yeong
Ġkho Ã¡i
ĠU s
ĠU EFA
Ġhá»ĩ t
Ġso lo
Ġ10 4
ĠW om
ĠE TF
ĠUS AID
ĠX áº¿p
Ġcá»ĳ p
ag ement
Tr áºŃn
od o
ĠAl f
ĠZ alo
est yle
Ġtá»ĩ p
yl on
ĠCol lin
ĠMon t
ial s
ĠAp ollo
ĠCy ber
Ġkar aoke
L ago
S á»ĳng
t á»©c
uy in
ĠC u
ĠB art
Ġlá» Ńng
ĠD áº«n
ĠD mit
ĠG au
ĠF ul
em an
ĠÄĲá» Ŀi
um b
Ġchu á»ĵng
Äĳ á»ķi
ine z
ĠIs hi
qu an
Kh Ã¡nh
ĠVI P
ko ff
ĠMB B
ĠGab ri
C D
M as
M ac
P NJ
T á»ķ
h t
l ic
n ia
t ÃŃn
w ang
z en
ĠÄĳ áº£
Ġnh á»įc
Ġcá» ĵng
Ġx ua
an ol
ĠC orn
ĠH Ã³c
ĠM ua
ĠM Ãłu
ĠB Ã´ng
ĠK ath
ĠD iá»ĩn
Ġbá» ¡
ĠKh a
ĠF ire
as a
ĠUS S
om a
ak ers
ĠSh el
Ġ198 2
att an
bo hyd
ĠHan oi
Giá» Ľi
ĠJim my
ĠMob iFone
ĠValent ine
Ġhom estay
Ġghá» ģ
+ ,
M á»©c
a ac
b ack
e ff
n á»¯
s ai
Ġ #
Ġl áº«y
Ġb áº§y
Ġb Ã¡u
Ġs ÃŃt
Ġnh ÃŃch
Ġnh áº¥p
Ġn Ã´
Ġd er
ch Ã¢u
ĠV ang
ĠB ox
ĠTr an
ĠTr Ã¹ng
ĠS or
ĠL et
ĠQ uáº¥t
ĠNh Ã¬
Ġlo Ã©t
ĠR O
et z
Ġ10 1
ĠW ings
ĠJ P
ĠSt one
est ing
ow er
CC I
ĠOn tario
ĠMag ic
ĠWar ren
ĠWhi t
inn ess
rit ing
ĠSec ur
ĠGR DP
ĠKyr gios
Ġnick name
ĠHawai i
C l
H EV
K im
b áº£n
g ie
i or
t á»ķng
w ays
á» ħ
Ġl ive
Ġth is
Ġch Ã³i
Ġng Ãłi
Ġng Ã¢y
Ġng Ã¡ch
en o
ar us
ĠI an
ĠI mp
ĠR io
ĠThá» ©c
ĠO xy
and ra
ph ia
Ġ26 0
ĠVin cent
ĠGu inness
ĠNews week
ĠTS MC
ĠDi or
ĠSa e
gh an
ren a
ons o
ĠJac ob
ĠQual comm
pend ent
9 3
A rab
A ss
N T
c Ã²n
c ard
g et
i y
v Å©
Ġ ar
nh áº¡c
ĠÄĳ iá»ģm
Ġthá» Ńa
ĠH ack
ĠB ack
ĠL iv
ĠK or
ĠKh Ã¡m
ĠF E
Ġ12 7
ph im
ĠLu is
if y
ich i
kh Ã¡ch
ĠCan nes
ĠFin ance
ĠMart inez
ĠLau ren
ĠNo el
ĠVP B
ĠIv an
Chat GPT
bohyd rate
b áº§u
b ek
m Ã³n
w en
x in
ĠÄĳ áº«m
Ġm Ã¡c
Ġm iÃªn
Ġm iá»ĩn
ĠT Æ°á»Łng
ĠC á»ĳng
ĠH av
ĠM Ãł
ĠA B
ĠL il
ĠG on
im er
and ro
ĠLan ka
ĠMar s
ĠmÃ£ nh
Ġin ternet
car e
ĠSl ovakia
ani um
ĠWal es
CO M
ĠÃĶ n
ĠRap hinha
Co V
M E
j ect
n ay
s ao
ĠÄĳ Ã¡i
Ġl e
Ġch áº¯t
Ġd es
Ġx Ã³c
ĠC B
ĠH áº£o
ĠH elen
ai ne
ĠÄĲ Ã¡m
ĠP GA
Ġgiá» ħu
ĠR N
at ive
hi ng
ĠW es
ĠX force
ĠAn ne
Ch Ã¢u
ĠDo uyin
Ġ198 3
con n
Ġsu Ã´ng
ĠStar b
ĠPer u
ĠST B
Ġstud io
E VN
I P
n Ã´ng
Ġtr ue
Ġth áº£n
Ġs c
Ġs Ã¡o
Ġnh ang
Ġd áº³ng
Ġng áº¥t
ĠT en
Ġqu ai
Ġchá» ĳn
ĠC áº©n
ĠK lo
ĠCh ar
ĠR oll
ĠGi l
ro ad
ĠHo w
ĠY aris
th ay
tr á»«
ov o
ph y
Ġ14 4
ou ld
ers e
ĠSp e
ĠSo obin
ĠStar mer
ĠHon or
ĠMin aur
ĠFl ip
Tik Tok
7 1
H á»ĵ
P l
c á»ĳ
d áº¡y
i j
r ol
s p
Ġt ele
Ġv áº¯n
áº¿ ng
Ġn á»į
Ġn CoV
Ġch uá»Ļc
Ġlá» £p
ĠS ak
ĠS ix
ĠL ight
á»ķ n
ĠCh im
el son
ua d
ĠW HO
ĠJ ar
ĠJ as
ĠJ ake
Ġngá» ¥y
th Ã´ng
th áº§n
ok s
Äĳ o
Ġ11 7
ph Ãºt
Ġo Ã¡n
ell er
ĠJo el
ax i
ester n
EF L
ĠKen ya
ĠCen tral
ĠMot or
ĠHel per
ĠWit koff
K V
T iáº¿n
v á»¥
há» Ļ
Ġm Ã©p
Ġn iá»ĩu
Ġg Ã¡y
ĠT ottenham
ĠN CB
Ġchá» ĩch
ch ung
ĠB lockchain
on o
ĠTh áºŃp
ĠTh áº»
áº« ng
ĠCh Ã¹a
or im
Ġnhá» ¥c
CM P
Ġvi ew
Ġ11 8
ine ken
ho u
ĠIs k
200 2
qu Ã¡
ĠMor gan
ĠPan asonic
ĠSil icon
ĠÃļ t
ĠScot land
ĠNest lÃ©
ĠMek ong
Pod s
H D
J oe
P B
S JC
c es
u ter
v Ã¹ng
áº µn
ĠÄĳ Ã´n
Ġtr áº§y
Ġh Ã³c
Ġnh Ã´
Ġgi áº¿ng
ĠN ar
Ġx á»ķ
Ãº m
ch Ãºng
ĠM Ã¢y
ĠV TV
ĠB Æ°u
ĠB at
ĠS ora
ĠG av
ĠNh iáº¿p
ĠCh iá»ĥu
el if
us tr
th uá»Ļc
ĠAn a
ok a
Äĳ Ãło
Äĳ á»ģ
Ġ11 9
ho áº·c
Ph Ã¢n
az e
ĠCo oper
ĠBe at
ĠMc Il
ĠChrist ian
ĠMichel le
ĠGeorg ina
ĠInde pendent
N á»Ļi
b ie
c y
p oke
s ik
t á»ĳi
t ic
Ġc up
Ġh ack
Ġn ew
Ġthá» ĩ
ĠN á»¥
Ġr Æ°á»Ľc
ĠC UV
ĠH or
ĠV ision
Ã² e
Ġ2 30
ĠL á»ĳi
ĠK Ãªnh
ĠK ylian
ĠD or
ĠGi Ãªng
ĠY our
Ġrá» ¥i
Ġphá»¥ ng
ĠO pt
th áº¿
ĠNhá» ĭ
Äĳ á»ĳi
Ġgá» Ŀ
iv an
ĠSt and
ĠMan agement
ĠBar ack
ĠGu kesh
Ġ197 6
ĠVI II
ĠCr ime
ĠTe am
ĠPau la
ĠYout ube
ĠQue ens
Toy ota
C ola
D N
O LED
S T
T Ã¢n
V CB
c er
h ot
i os
p son
Ġ áº£m
Ġv oucher
Ġn ung
ĠC le
ĠH Ã´n
ĠB Ãºn
ĠS eal
ĠP T
ĠG Ã³i
ĠG ame
ĠU OB
el ess
ĠR un
ĠJ uan
ab i
ĠMus etti
Ġbu á»ĵm
ĠAm orim
pe ed
ĠPl aza
ĠBus h
ĠSon y
ĠCub a
ĠEle c
ĠSuz uki
Ġins ulin
ĠIsk ander
ĠMcIl roy
8 2
D ragon
H amas
J annik
Q uyáº¿t
T á»·
t iÃªu
z ha
Ġ all
ĠT ÃŃch
Ġthá» ģ
ch áº¡y
ĠV ie
ĠB ul
ĠS uy
ĠS Ã¡n
ĠL op
ĠK ay
ĠG og
el f
.. ..
ad or
Äĳ áº·c
ak o
ĠZ one
ab e
Ġo anh
Ġ28 0
Ġ197 2
199 5
ray aan
ĠSol ut
Tech combank
ĠClau de
6 1
D eep
S B
m á»©c
m ond
v á»ĩ
w er
Ġtr Ã¹
Ġth Ãł
Ġs Ãłnh
Ġd áº¡t
ĠT áº§ng
Ġph in
ĠC iv
ĠH ub
ĠTr Ãłng
ĠP on
ĠK ÃŃch
Ġsá» į
Ġkho anh
ĠKh elif
ĠI R
em b
Ġná» ĩ
ĠW oo
Ġ19 30
Ch o
ho o
Ġnhá»Ŀ n
kh Ã³
ĠEl ite
ĠInter esting
ĠAnd erson
ĠYo o
Ġ197 9
ĠArt emis
ĠIm ag
ĠVND irect
ĠAf ghan
ĠWind ows
ĠTA ND
ÄĲo Ãłn
1 30
L a
S Æ¡n
W HO
n us
r ent
v á»Ľi
Ġt een
Ġv ali
Ġl á»ĳc
Ġm Ãło
Ġm Ã©o
Ġx Ãłi
Ġr Ã¢m
ĠC ast
ĠC SG
ĠM Æ°a
ĠV es
on ia
am y
am ine
ĠTh iá»ģu
ĠK an
ĠPh ÃŃ
ĠPh Ã³ng
ĠU d
ĠW ir
th iáº¿u
ĠKho áº£nh
oll a
ann el
Ġcar bohydrate
ĠSl im
199 6
lá» ħ
ĠRub lev
II I
Ġháº» o
ĠTrav is
ĠRobot ics
ĠAfghan istan
0 5
H áºŃu
I R
b ÃŃ
b ox
i u
Ġc uá»ĳc
Ġtr Ã³c
Ġb iáº¿u
Ġm ÃŃa
Ġd áº·m
ĠN ag
Ġr iÃªu
ĠC á»ĳc
ĠH um
ĠV Æ°á»£t
Ġmá» §
ĠL Ã¡
ĠL Ã£i
ĠP ear
ĠK iá»ĥu
ĠD h
ĠnhÃł o
Ġy áº¿m
ĠF und
et ooth
Ġ10 3
Ġrá» Ľt
Ġ12 1
Ġ11 2
ub u
Ġf rom
ĠHar per
ri en
Ġmu Ã´n
Ġtá»ī a
Ġ196 8
ĠVol vo
oster one
ĠDre am
Ġblue chip
ĠManh attan
C P
M o
S pace
T á»«ng
V Æ°Æ¡ng
b Ã¬nh
r ig
r ess
Ġc Æ°á»¡i
Ġv Ã´i
Ġv áº§y
Ġb Ã¨o
Ġm áº«n
Ġchá» £t
ĠC all
ĠM áº¥y
ĠM is
ĠM ick
ĠM orning
ĠV isa
ĠS CMP
ĠL iá»ħu
ĠTh áº¯m
ĠP aper
Ġtrá» įt
Ġtu á»³
Ġ5 50
ĠThá» Ľi
ad h
ed d
ab eu
ul f
lo áº¡i
ĠChi le
thá» ©
ĠWal tz
ĠEd ward
ĠEn d
ĠCO P
ĠStan ley
ĠCas per
ĠHas aki
Ġom ega
ĠCSG T
8 7
A A
E n
L Æ°u
R af
c áº£m
c os
c ou
e f
k ai
p to
r ett
u o
Ġtr Å©ng
Ġs im
Ġnh áº£
Ġd en
ĠT Æ°á»Ľng
ĠH ard
ch an
ĠTr Ã²
ĠL eo
ĠK i
ĠD áº¡
ĠG aga
ĠU FC
or m
ĠR S
ĠF T
ĠF uk
Ġso da
ÄĲ Ã´i
th áº¥t
tr áº¡m
ĠTH E
ĠAr ena
ĠCon nect
ĠEm manuel
lá» £i
AD A
akh stan
ĠBern abeu
ĠBrad ley
ĠHK D
A B
B ox
H OCMAI
L á»±c
N inh
T Ã²a
W onder
b ul
c c
j e
n uÃ´i
v Æ°á»£t
w w
Ġc uá»ĳng
Ġb iáº¿m
Ġm áº©n
Ġn á»įc
ĠT á»ĳ
ĠT ang
ĠN ight
Ġx Ã³i
Ġr Ãªu
Ġr Ã£nh
ĠS af
ĠL H
ĠD er
Ġá» ıi
ĠGi áº£
ĠGi áº¥c
ĠJ ak
ĠO dy
Ch Æ°a
az z
az ut
ant ic
ant is
ĠTik i
ĠTik tok
ĠEx po
Ġkáº½ m
ĠStud y
ĠTho áº¡i
ĠLear ning
Mal aysia
0 9
D O
H áº§u
K há»
S c
j an
m m
t ÃŃnh
t ent
t á»ĳt
Ġ el
Ġ ab
Ġt áº©u
ĠÄĳ iáº¿u
Ġb ai
Ġs áº¯n
Ġs and
Ġm azut
Ġg áº¯p
ĠT áº¡ng
ĠN ot
ĠH áº¡o
ĠPh Ã¡i
es a
Ġná» ©c
ĠX T
ad el
ĠNhá» Ľ
ert y
ĠCo ca
Ġshow room
ĠBus an
ĠPan ama
ĠMill enn
amb oo
ĠSud zha
ĠCry stal
ĠÄĲT QG
ĠOleks andr
ĠGog h
Ġden im
. "
C ovid
D T
G B
S Ã¡ch
V iá»ĩn
V ol
b as
c áº¥p
m á»ĳi
o it
s áº¯p
Ġt al
Ġc á»Ļ
Ġtr end
Ġm áº£i
Ġm Ã¨
ĠT iá»ĩm
uy a
Ġx ÃŃ
ĠM Ãª
ĠM ens
Ġmá» ©t
au d
ĠK a
ĠK em
ĠG M
ĠR F
Ġngá» Ńi
th am
tr áº£
Ġvá»ĩ t
Äĳ Æ¡n
ĠLu Ã´n
ec om
da q
ĠAir Pods
ĠDe f
ĠPal is
ĠEd ition
ĠBet is
ĠZo om
Gal axy
ĠCorn ell
ĠOpt im
8 3
B áº£n
R X
T N
V ideo
c á»©
l ÃŃt
n Ã³ng
p in
há» Ĺ
Ġs Ã¹ng
Ġm atch
Ġh áº«ng
Ġng Ãłng
Ġx iáº¿c
ĠC Æ°
ĠH amp
ĠM Ã¹
ĠS Æ°Æ¡ng
ĠS ara
Ġngh áº¹n
ĠL Å©
ĠL á»±a
ĠÄĳÃ£ ng
ĠK al
ĠK ings
ĠPh am
Ġto an
ĠI Q
ĠW W
ĠE C
ur al
Ġ15 5
Ġgá» ĵng
ho a
ĠTu Ã¢n
ou gh
yl and
ĠMon et
ĠGal a
ind s
ĠPal m
ĠWil son
phá» ĳ
Ġnho Ã¡ng
tu áº§n
ĠChand rayaan
ĠAud i
ĠBes poke
ĠDy nam
ĠOxy gen
1 80
9 7
G roup
H Ã¬nh
H Ã²a
M áº«u
M ind
S iÃªu
U n
f eng
l ett
m Ã´n
t Ã¡c
t Ã¡i
u al
x anh
Ġ Ã¡t
Ġ uáº¥t
Ġd ay
ĠM ap
ĠM TV
Ġlá» «ng
ĠTh Ã¡m
ĠP av
ĠP ass
ĠD I
ĠG ang
Ġbá»ĭ a
ĠF TS
ĠE co
us ion
ĠO tt
Ġ11 1
19 0
ĠMar io
kh ÃŃ
Thá» ¥y
chá» ĭ
chá» ĵng
end y
ans as
199 8
att le
ĠHe avy
ĠNov a
ĠMel ania
ĠRobert s
ĠSe an
ĠVan cou
che on
Giá» ¯a
ĠÃĶ tÃ´
khá» Łi
ĠRen o
ĠBell ingham
ĠCru ise
ĠYa hoo
ĠVancou ver
' m
S D
c Ã¡n
k us
l ight
m á»¹
v Ã²ng
Ġ ur
Ġc ombo
Ġb ot
Ġs ne
Ġnh Ãºng
Ġng áºŃy
Ġhá» ĳt
ĠS ay
ĠA gent
ĠD Ä©nh
Ġ20 45
ĠI ng
ic es
us hi
ĠChá» ĳng
Ph áº£i
ĠLe av
ĠRe c
ank a
ill er
ian e
ĠSh ang
Ġtim e
ff et
ĠDu rov
ĠCl ark
ĠSer v
ĠHer mos
ĠNat ure
ĠStarlin er
ĠDom in
ĠTO EFL
ĠTal ent
ĠLex us
ĠCiv ic
Ġná»ĩ m
A s
B Ãªn
d rone
p ot
t uá»ķi
x Ã©t
Ġc Ã²
Ġtr á»ķ
Ġb ox
Ġh áº£
Ġg ara
ĠT iá»ĩp
Ġthá» ĳt
ĠN ations
ĠN umber
ĠC it
Ġ2 10
ĠTr ue
ĠS ung
ĠL em
Ġho Ãł
ĠP AC
ĠD amas
ĠG PS
ar io
ĠW riting
ĠcÃ¡ u
ok er
ed a
Ch a
ĠHy e
ĠNgh Ä©
ĠCan xi
ĠGu ide
Ġru á»ĵi
ĠMon te
ĠMed ic
ĠWal ker
Ġbl azer
amil ton
cast le
ĠYam aha
ĠJul ia
ĠMeg a
ĠTas k
ĠJen sen
ĠAsh ley
ĠGav in
Deep Seek
+ .
5 1
H uawei
J o
M B
S un
T iá»ĥu
b Æ¡i
m un
r ence
Ġm uá»ĳng
Ġh an
ĠH U
ĠH á»ķ
ĠM em
ĠV áº«n
ĠB ard
ĠB ali
Ġlá» ıi
ĠS ur
ĠL l
ĠL it
ĠL LM
ĠTh iá»ĩu
ĠP S
ĠP or
ĠD ec
Ġbá» Ľi
ĠCh iÃªu
at ia
ĠGi rl
ol an
ĠX inh
ot ton
ĠThu áºŃt
Nh áºŃn
ĠCar ter
ĠChi ang
enn a
ĠCo ffee
ĠDe an
ĠChu áº©n
ug uay
CO P
ĠSal v
ross over
ĠRam os
ĠHS BC
ĠRu ud
ĠLog istics
ĠMod i
Phi l
ĠHermos o
A X
T op
f e
r io
s Ã¡ng
s son
Ġb áº»
Ġnh Ä©
Ġch ao
ĠH Ã²n
ĠH amilton
ĠV RE
ĠB our
ĠTr Ã¡nh
ĠS ut
ĠL Ã¢u
ĠK rist
Ġná» ī
ĠJ od
ad line
tr iá»ĩu
... ).
Äĳ á»Ļc
Ch uyáº¿n
re gor
ph Æ°Æ¡ng
Ph an
ĠCar ne
chá» ĳng
ĠGl enn
ĠDeep Mind
Ġhá»ĳ c
ĠBel arus
ĠFox conn
ĠNas daq
Ġpl ay
ĠClin ic
âĢı âĢı
kai do
ĠLeav itt
B itcoin
C Ãł
b áº±ng
d ia
g Ã¢y
k á»·
m Ã£
t á»ķ
t im
u en
Ġ as
ĠÄĳ iá»ĥu
Ġv áº§n
Ġv Ã²
Ġb Ã¡i
ĠT á»ĭnh
ĠT itan
Ġx á»Ļn
ĠC ell
ĠH ag
ĠM Ã¹i
ĠB Ã¹
ĠS Ãłn
ĠA N
ĠD iá»ĩc
Ġbá» į
ĠPh u
Ġso fa
Ġba ht
ĠHo k
Äĳ á»ĵ
ak in
iv ia
ev i
ĠSp ec
ĠvÃŃ a
ip s
Ġ197 4
199 3
ĠBlack pink
Ġká»ģ nh
ĠCro oks
ĠFort une
ĠCons umer
Ġtest osterone
ĠPac ific
Ġsil icon
ĠKlo pp
ĠLop ez
ĠCarne gie
C Ã¡i
G PA
H onda
K S
M ag
M exico
S o
b Ã£o
d á»ĭch
l anh
n ess
Ġ Ãºy
á» ıi
Ġb iáº¿ng
Ġs áº§m
Ġh Ãłu
Ġnh Ãºn
Ġg el
ĠH im
á»ĭ u
ĠS D
ĠS und
ĠL ily
ĠP ur
ĠG an
ĠG Æ°Æ¡m
ar ia
al ia
ĠJ ud
ĠY ear
tr ol
up er
ĠCá» Ŀ
ĠSp ot
ĠCar e
Ġxo Äĥn
ĠEl l
ĠVin com
ĠAlv arez
ĠID P
amil y
ĠPra g
Ġmar gin
ĠTas te
ĠdÃ¬ u
Cap ital
ĠGe ely
ĠGabri el
ĠCrime a
ĠQueens land
Raf ael
2 80
B Ã©
C EO
H ong
H á»ĵi
H Ã£ng
L LM
d iá»ħn
i one
l as
m iá»ħn
m etro
n Ã¢ng
s uy
s se
y u
Ġm áº©u
Ġnh Ã¡i
Ġn ylon
Ġg ang
Ġch áº±m
Ġng á»ĳc
ĠN iger
ĠC ost
ĠM r
ĠTr o
ĠTr á»©ng
in da
ĠK ent
ĠK itt
ĠD ustin
Ġsá» ī
ĠR ick
ĠR ud
". ..
at ure
Ġ10 6
tr uck
ag h
ĠÄĳá»ĳ m
ĠAl ice
âĢ ĭ
Ġbu ffet
ĠEm ily
Ġcar om
ĠAd r
to is
ĠCr ed
uel a
ĠNo ah
Ngo áº¡i
ĠMeg an
inn ati
ĠUr uguay
ĠDim it
ĠFred er
ĠDamas cus
E E
E I
E uro
K amala
M uá»ĳn
P aris
b le
o ung
Ġ ion
Ġt áº»
nh Ã³m
Ġl Ãºng
Ġb Ãº
Ġm ÃŃ
Ġh Ã¡n
Ġch Ã©m
Ġng áº¥m
Ġthá» ı
Ġthá» Ľt
ĠC A
ĠC ath
ĠH I
ĠB á»ķ
ĠB ia
ĠB ot
ĠB amboo
Ġmá» īa
ĠÄĲ ang
ĠTr ip
ĠS áº½
ĠP SS
ĠP otter
ĠD ur
Ġbá» «ng
Ġtu á»ĵng
ĠU z
ĠR ah
ĠR outh
ĠR over
Ġnhá» Ń
ol in
ing ton
tr anh
Ġ12 2
ĠDo wn
ĠIs tan
op ia
ri que
ec ta
ĠBr itt
iz h
ib aba
itt le
Ġmen u
ĠHer ald
ĠAnton io
ĠLab ubu
ĠSchool s
ĠSus an
ĠPsy ch
ĠHot line
ĠCour tois
ĠBry an
ĠStand ard
ĠUd emy
Phil ipp
ĠIstan bul
C R
C á»©
b rah
d ong
d áº§u
m outh
p ol
s au
ng há»ĩ
nh ap
Ġl anh
Ġs áº£ng
Ġm ag
Ġn ÃŃu
Ġch an
Ġch Ãły
ĠT áº§m
ĠM Ã©
ĠV Ã©
ĠS Ã¢m
ĠS ent
ĠS car
au t
ĠNg á»ĵi
ĠK oo
ĠD Ä©
ĠNh Æ°á»£c
Ġ3 30
Ġ3 80
ĠR at
ĠGi an
ĠHo Ãł
tr iá»ĥn
ĠAn nie
ov ation
ap or
ĠTo wn
ob ile
ĠNew ton
Ġw e
ĠHu gh
ĠLá» ©c
Qu ang
Ġ196 3
inc innati
Phá» ¥
bau m
ĠBlu etooth
Ġsne akers
9 2
B Ã¢y
C á»ķ
C Ã¹ng
f oe
h ay
n ers
p ar
s hire
v Ã¬
v Äĥn
v á»ģ
w ich
Ġt Ã£
Ġc rop
Ġv áº¿
Ġv ung
Ġv Å©ng
Ġm eth
Ġh Å©
Ġkh Ã©t
Ġr e
ĠC Æ¡n
ĠB lin
ĠL iz
ĠP le
ĠK enn
ĠD ick
ĠD evel
ĠG rant
Ġtiáº¿ u
or o
at ri
ro bot
áº³ m
... ",
Ġcá»Ń u
Ġ11 3
av i
Ġo áº£i
ill s
ĠBar b
ĠEr as
ĠVen ez
cl ass
ĠBrook lyn
ĠKaz akhstan
ĠGener al
Ass ad
aze era
ĠHok kaido
! ",
/ /
2 70
D ani
M G
N O
N Ã³i
O r
P ro
b Ã¡c
c Ã¢u
c ci
r at
s hi
ng Ã´i
Ġt eo
Ġtr u
Ġb Ã¹i
Ġs tream
Ġh áº¥u
Ġn áº¡c
ĠT ar
ĠN athan
ĠV it
ĠB á»ĳi
ĠB ey
ĠTr á»£
ĠS aw
au ty
ĠP ic
ĠG VR
er on
en zo
Ġsá» Ŀ
ĠPh ill
ĠR iver
ĠF ac
ol u
ĠW ork
ĠJ ol
ra ft
ÄĲ Ãłi
th lon
... ".
Äĳ á»ĭnh
ak u
19 88
ĠLe ver
ĠNew castle
ett y
ĠGen AI
ĠYo nhap
ĠAF C
Ġtá»§ i
ĠPe nh
form ation
ĠJam ie
iat ion
ĠPrem ium
bek istan
kus en
A m
A rena
D av
T Äĥng
h Æ°á»Ľng
m entor
n b
n om
n á»£
t Ã¬m
v ai
Ã ¼
Ġt Ã©
Ġc ort
ĠÄĳ áº½
Ġv áº±n
Ġm el
Ġkh Äĥng
Ġng Ã³ng
ĠH iÃªn
ĠH ath
ĠM á»Ļng
ĠM om
ĠV itamin
ĠB h
ĠÄĳá»Ļ n
ĠS Æ¡
ĠTh Ã³i
ĠI g
ĠR em
ĠR MIT
ĠThá» ¥
is ao
ĠGi Ã¡c
id i
ĠHo p
il ity
ac ey
Äĳ Ã¡ng
Äĳ á»ĭa
Ġ11 4
og o
ĠMar ca
Ġf ile
ĠvÃ© n
ĠAm anda
ec a
In ter
ĠSam uel
Ġ197 1
Ġ197 7
ĠPhil adel
ĠEx p
agi Ãª
uck s
ĠPol y
ĠDO JI
ĠWeb site
pl ay
ĠNav arro
Ġsh orts
ĠMcG regor
ĠRet ail
4 50
C V
I U
S áº½
b Ã³ng
h ol
q ui
Ġs elf
ĠT M
ĠM A
ĠV ÄĲ
ĠTr uyá»ĩn
ĠTr á»¥
Ġtu áº¥t
ĠCh iÃªm
ĠU á»·
ĠKh áº©u
or th
as car
as aki
at ra
ÄĲ H
ÄĲ áº¡o
ÄĲ á»įc
ĠO P
ĠO ra
th uá»ĳc
Tr ang
Ġf e
iz e
ĠBe ng
ĠDe akin
ight s
ĠVI X
ĠMark et
ĠChrist mas
ĠHe ineken
ĠMel anie
ĠVal er
ĠFl ick
ĠCharl ie
ĠAM OLED
ĠJer ome
nghá» ĭ
ĠLin da
ĠKit co
ĠVÄĲ QG
B á»ĳi
B á»©c
D jokovic
E SA
c Æ¡n
c op
l ott
m Ã´
t em
Ã ©c
Ġ amin
Ġc omp
Ġl á»Ļng
Ġl áº©n
Ġg á»ĵ
ĠT áº¿
Ġtá» ħ
Ġx iÃªn
ĠC PU
ĠV AR
ĠB ent
ĠB ian
ĠÄĲ Ã´n
ĠS ah
ĠL en
ĠL otte
ĠP el
ĠK un
ĠK ane
ĠG ai
ĠG Æ°Æ¡ng
en ix
Ġto pping
ĠR á»Ŀi
ĠR IA
ĠF low
is m
um in
ĠJ ava
ad s
ĠTo áº£n
ig i
iv ert
ĠBá» īnh
gi Ã¢y
ĠSh uk
ĠCÆ¡ m
ĠSo f
ĠSo hu
Ġtrá»« u
ym e
16 00
anc y
uit ive
thá»ĭ t
ĠAut om
ĠAT M
ĠFan page
ĠShein baum
DO GE
1 60
: //
B áº±ng
F I
b Ãł
b ach
k hi
m Ã¹a
s o
y eol
Ġ Æ¡
Ġ Ã³i
Ġt áº±m
Ġc Ãµng
Ġk i
Ġtr Ä©
Ġm Ã¬n
Ġch áº¯p
Ġd áº¥n
Ġx á»ĩ
ĠC incinnati
ch áº¿
ĠM O
ĠV R
ĠA u
in ing
ĠK os
ĠG as
Ġtrá» įc
ar ma
Ġkho áº¯n
ĠNh Ãłn
ĠPh áº«u
ĠQu Ãª
Ġty pe
ĠE th
ĠE ala
ĠJ azeera
us k
il i
ad i
ĠChá» ¯
os ite
Tr uyá»ģn
ĠAl ess
ĠLo ck
ann on
aw n
ĠBr id
Ġ197 3
TE CH
ĠRo th
kho a
ĠFor est
lu ivert
ĠAtl antic
ĠZh ao
uss els
ĠIP O
ĠDem i
ĠPho enix
ĠTia foe
ĠGard en
Space X
ĠXinh ua
ĠSalv ador
ĠLever kusen
ĠHath away
" ;
3 60
C om
C ristiano
E X
M Ã³n
c Ã¡i
j o
q uá»ĳc
t iá»ĥu
v y
Ġc rossover
ĠÄĳ Ãª
Ġnh Ã¢m
Ġr i
ĠC C
ĠC L
ĠC oll
ĠC ode
ĠM áº§m
ĠÄĲ áº¯c
ĠÄĲ á»ĵn
ĠTr Ã£i
er ry
en berg
Ġkho Ã¡t
ĠCh amp
el ia
ĠF air
ĠE ast
ĠJ ae
th e
th Æ°á»Ŀng
Ġtho i
202 7
ac y
ter est
Ġ12 3
Äĳ Ãłn
Ch u
Ch iáº¿c
Ch ina
ĠAl ibaba
ig a
ph is
ĠLe ad
Ġw h
ĠâĢ ĺ
Qu Ã¡
Ho SE
Ġ196 7
Ġ196 9
ĠAD AS
akh ar
ĠSM E
ĠMaster D
ĠBin z
ĠKe ith
ĠCop ilot
ĠMot ors
ĠMang ione
ĠOff ice
ĠDall as
ĠBeat les
ĠUz bekistan
izh zh
apor izhzh
' ".
B uá»ķi
B Ã¹i
E N
E P
F P
H á»ĵng
M ich
M eta
Q ua
V Ãł
X uáº¥t
t ag
v is
z er
Ġ áº©u
Ġv áº£y
Ġb Ã³i
Ġh tt
Ġn áº¥p
Ġd Æ°ng
ĠN ich
ĠN ote
Ġx uyáº¿n
Ġr ÃŃt
ĠV uit
ĠB Ãłng
ĠB ib
ĠNh o
al em
ĠKh uyáº¿n
ĠR Äĥng
ĠF iro
ĠF riend
et on
um ar
tr Æ°á»Ľc
Tr anh
Ch Ãºc
Ng Ãłnh
ph Æ°á»Ŀng
Ġgh e
ĠMar cel
ĠMar gar
ĠMar yland
ĠRe agan
ĠSt ory
eb ras
ri ed
ĠEm il
ĠGu ill
rid ien
ĠRob in
ĠSch eff
ĠBen z
ĠChrist ine
ĠVal encia
ĠHD B
ĠAtl anta
ĠVer ge
ĠKid s
ĠFernand es
ĠVo ice
ĠGel ex
ĠBrit ish
ĠRuss ell
brah im
ĠMÃ© ridien
ĠVuit ton
B ÃŃ
C ol
I SS
M V
S O
S peed
T ÃŃnh
V áº¥n
t ap
u ce
x it
há» Ļi
Ġl áº±n
Ġb uá»ĳt
Ġb alo
Ġs áº£
Ġh ecta
Ġnh Ãºt
Ġch Ã³c
ĠT Ã½
ĠC in
ĠC and
ch amp
ĠM ix
ĠV is
ĠB á»Ļi
ĠB uk
ĠA ra
ĠA BS
ĠL Ã£
ĠTh uá»ĳc
ĠP ed
ĠD at
ĠG ur
ĠR ico
ĠR á»«ng
ĠÄĲá» ©a
le en
th iáº¿t
th rop
Th áº§y
and owski
Ng á»įc
ĠZ aporizhzh
Ġ16 5
ut iao
Ġ13 2
ab el
ĠLu áºŃn
ĠLu gan
Ġnháº¹ n
kh ai
ĠMai n
ĠSp a
aly s
ĠBr ussels
ĠMo unt
ĠFranc es
yd er
ĠEn rique
ĠRap per
ĠCro atia
ĠSteph anie
ĠVik tor
lev eland
ĠPau lo
ĠMach ines
ĠVina Capital
ĠLar ry
ĠArn ault
ĠNev ada
illi ards
ĠHAG L
ĠWom en
ĠMens ik
ĠVenez uela
ĠLugan sk
9 4
A d
G DP
M y
N vidia
h ad
s tein
« m
Ã Ķ
Ġv Æ¡i
Ġk iÃªu
Ġm Ãµm
Ġh iÃªn
Ġh el
Ġn áºŃp
Ġd Ãª
Ġd áº»
ĠT Æ°á»£ng
Ġvá» ĵng
Ġthá» ım
ĠC G
ĠC ent
ch ar
ch ool
ĠB ull
ĠL Ã²ng
ĠL áº¡m
ĠTh S
au s
ĠP L
ĠK OL
Ġsáº «m
ĠD am
ĠG lor
er os
Ġlo ve
Ġná» ĥ
ĠW r
ĠE PS
ĠHo pe
ĠX i
tr ang
re al
ĠZ hi
ĠIs aac
ah ce
ĠBá» ı
Ġ22 5
co ok
ff ord
lin ois
yl ist
ost i
phone S
ĠMc Donald
Ġ197 8
199 0
ĠNov osti
ĠAb u
ĠArt eta
uz ja
ĠInt uitive
ĠEv ans
ĠNap oli
Co M
ĠSil va
To Ãłn
ĠTeleg raph
ĠLew andowski
por ter
ĠSchol z
ĠPhone Arena
Ġcaffe ine
ĠCollin s
ĠCyber truck
ĠPhiladel phia
0 6
B e
H A
P an
R obot
b l
b á»ĳ
c in
d in
l áº¡m
m ang
Ġc ac
Ġc over
ĠÄ ĥ
Ġth Ã¢u
Ġm Ãºi
Ġm ake
Ġh ÃŃch
Ġng Æ¡
ĠC D
ĠC áº¡nh
ĠM ing
ĠB ie
ĠB eth
ĠÄĲ Ã¡n
ĠÄĲ Æ°a
ĠS em
Ġngh áº¹t
ĠK luivert
ĠD iana
ar s
al aya
ĠPh nom
Ġá» ī
á»į a
Ġ4 80
ol t
th o
Th áº¥y
ur s
tr á»¥c
un k
ok o
Äĳ á»Ļt
Ng he
Ġngá»§ i
ul ar
ĠSh annon
ram a
any e
Ho áº¡t
ĠVi os
ĠRub y
ĠNor ris
ĠRos s
Ġ195 4
Ġkhuy nh
ĠGer an
New s
ĠBS T
Vin Fast
ĠId ol
tin ental
ĠBenn u
ĠFerr ari
ĠSL IM
ĠDmit ry
ĠSpe aking
KV ÄĲ
ĠSeal ion
sse us
Philipp ines
Ġself ie
0 3
H ezbollah
T R
V Ã²ng
c áº§n
m áº¹o
n Æ¡i
s á»¯a
v ir
Ġc ent
Ġtr iá»ģn
Ġth áº³m
Ġn áº·c
Ġng áºŃm
Ġph ai
ĠN uÃ´i
ĠN ike
ĠH ans
ĠM Ã£o
ĠB á»ĵi
am o
ĠS as
ĠS martphone
ĠA y
ĠA ction
Ġbá» £
ĠKh Ã¡ng
es l
Ġ202 9
ĠR anh
is ter
ro gen
ĠY un
ĠX a
Ġ19 45
ov ac
ut s
ĠSt ew
ĠBar ry
ĠAir ways
Ġ196 2
ĠLi ang
Ġxá»ī n
ĠPat el
ĠAc c
Ġbá»ī m
ĠBern ard
ĠDen ise
Ãģ nh
ĠYe ah
ĠBut ler
tain ment
ĠSant os
ĠUP CoM
ĠInn ovation
ĠChalleng e
ĠSecur ities
ĠWes ley
ĠZaporizhzh ia
8 1
T iáº¿ng
V ingroup
g ate
p ander
s ang
t ay
z one
z he
Ġt iá»ĩt
Ġc otton
ĠÄĳ Ãłng
Ġk Ã¨o
Ġb Äĥm
Ġs á»Ļ
Ġm Æ°Æ¡ng
Ġh ip
ĠT iÃªm
ĠN ao
ĠC ass
ĠC leveland
ĠB iá»ĩt
ĠB ros
on ic
ĠK CN
ĠK pop
ĠPh ot
Ġto áº£
ĠW estern
ov en
Ch uyá»ĩn
ĠAl as
ĠAl onso
iv o
iv ate
ue z
ck er
ub le
Ġf in
ĠJo o
ĠGiá» ¯
st em
ri er
ast ing
mp t
ĠVN M
ĠGu cci
ĠSan chez
ĠRom a
ĠSal im
thi opia
MC P
US D
ĠCor olla
ĠKat ie
Phá» ķ
khá» ĳi
ĠSand ra
ĠHill s
Ġac id
ĠLeg end
ĠSolut ions
ĠOdy sseus
ĠLÅ© y
ĠPsych ology
2 60
6 50
M ai
S ai
T M
T hi
f ul
v á»ĳn
w amy
Ġ art
ng uy
Ġv áº¯c
Ġl at
Ġs p
Ġs mart
Ġnh á»ķ
Ġn áº¡o
Ġhá» Ŀi
Ġchá» Ļi
an ne
ĠS K
ĠK ard
ĠG am
ĠG et
ĠPh Æ°á»Ŀng
ĠGi Ã³
ra vel
ĠY ar
Th iáº¿t
tr ic
Ch am
ho use
ab u
gi o
ow a
ĠMan ila
ĠGu o
ĠHarris on
eek r
199 4
ĠAngel a
ĠTom my
ĠMi ra
ĠRes ort
ĠInd iana
IC E
ĠRed mi
ĠHigh er
ĠMid u
ĠFre estyle
ĠBB Q
Ġball ad
ĠLl ama
ĠCell phoneS
ĠCred it
ĠShuk r
ĠFiro uzja
B á»ĭ
C LB
H iá»ĩp
L inh
L á»ĭch
L ionel
M or
M art
V Ãµ
i ra
l inh
l am
n Ã³i
v á»«a
Ġ áº§m
Ġt we
nh an
Ġth Ãª
Ġs áº¡m
Ġm o
Ġm áº¥u
Ġm Æ°á»Ľt
Ġh er
Ġn áº·n
ĠT MCP
ĠN Z
Ġr Ã´
Ġr Ã¨m
ĠC Ã¡p
ĠC ab
ch en
ĠM itch
ĠB yr
ĠB ond
ĠTr á»±c
Ġngh Ãªu
ĠA j
ĠL ori
ĠTh áº§u
ĠP ict
ĠNg Æ°
en erb
ĠNh Æ°á»¡ng
Ġ10 9
th Æ°á»Łng
ap h
ĠAl ger
Ng uyÃªn
ĠZ akhar
iv ing
ĠLe c
ut ch
ik h
og l
ir l
ĠRe g
ĠRe porter
Ġo p
ĠSp r
ĠPro ject
qu áº£ng
chá» ¯a
ĠMon aco
ĠThÆ¡ m
ĠSe attle
ile ver
ors et
Ġser um
ĠThom pson
Al caraz
ĠRa j
ĠLyn ch
ĠIl linois
ĠMoham med
Ġres ort
ĠStarb ucks
DN SE
ĠRF EF
Ġhtt ps
ĠScheff ler
ĠBie ber
enerb ahce
A pp
D Æ°Æ¡ng
D Ã²ng
H ar
M ark
W imbledon
n á»Ļi
r ina
Ã ¶
Ġ en
ng uá»ĵn
Ġc Æ°a
Ġc ut
Ġc áº±n
Ġc orset
Ġtr Ã¡
Ġtr uáº¥t
Ġg Æ°á»£ng
ĠT áºŃn
ĠT ara
Ġgi Äĥng
ĠH appy
ch t
ĠM am
ĠB und
ĠÄĲ KVÄĲ
ĠS U
ĠNg á»§
ĠG od
Ġsá» įc
ĠCh áº¯c
ĠPh a
Ġdá»¥ m
ĠR ut
id o
ra w
ÄĲ áº·c
ap o
Äĳ áº·t
ĠTo utiao
Ph Ã²ng
ce pt
ĠRe port
art a
Ġ0 1
ĠEm my
ĠGrand e
ĠCl aire
ott ingham
ID F
Ġ36 5
ĠCap e
ĠEr in
ĠMax im
ĠPark er
ĠRom an
giá» ĳng
ull ivan
ĠAss et
ĠLat est
ĠJan et
ĠNe il
ather ine
ĠNic ole
ĠCre w
ĠPsy che
ĠHass an
ĠSud an
ĠBir d
ĠInvest ment
ĠLink ed
kel ey
ĠMillenn ials
ĠJod i
ĠHop kins
ĠOra cle
ĠStew art
0 2
2 40
5 50
9 1
? ).
B á»ĳn
D á»ĭp
I B
M Ã´
M ay
R e
T esla
X iao
i ent
j un
l áºŃp
m Ã´i
o ot
y adh
Ġ enz
á» ĥn
Ġc áº¡p
nh áº£y
Ġv Ã©t
Ġl Ã³a
Ġk iáº¿p
Ġm agiÃª
Ġn á»ĵm
Ġng Ãł
ĠT CL
Ġph ot
uy uen
Ġr oi
an on
ĠC anh
ĠB aza
am ex
ĠL ing
ĠL ak
ĠL inds
ĠP es
ĠD P
ĠD ev
ĠG b
en ch
ĠCh Æ°
ĠF O
ĠF uture
ol ine
ĠJ ab
ĠChá» ©c
tr á»£
ap a
ĠHá» ıi
iv a
ph en
ik u
ĠNghá» ģ
Ġw inner
ow ang
ĠUn it
ĠGre at
Ġsu it
ĠAF F
ĠMc L
ĠAd el
tor y
ĠMos s
ĠOr ange
ĠBu en
ĠWal mart
Ġ196 5
ĠMic ro
ĠCr uz
ĠRed d
ĠIV F
ĠFood s
ĠPo int
ĠAh med
ĠLaw rence
ĠEnter tainment
ĠOptim us
tap pen
ĠAlas ka
A L
A Bank
P OS
c Äĥn
k ey
l ife
m and
n ar
s Ã¡t
t os
Ġc áº±m
Ġb ody
Ġs áº¡p
Ġm ac
Ġm eme
Ġn atri
Ġch Ã¹i
Ġng áº¡o
ĠT ab
Ġph Æ°á»Ľc
Ġph áºŃt
ĠN y
ĠC Ã¡m
ĠC ald
ĠH PV
ĠM ul
ĠB all
ĠTh ao
ĠP ier
ĠCh áº¡y
ĠF ly
Ġbá»Ļ n
et ter
Ġ10 7
id as
ĠW on
Ġ9 46
ĠY an
ĠX pander
Ġ19 00
ĠIn cheon
ĠDo ha
ĠZ heng
Ph iÃªn
ĠVN G
ann y
ei ro
ĠTel ecom
ĠOr ion
99 9
ĠYouT uber
ĠEd gar
ĠSe a
ĠAndre y
lu áºŃt
ĠGold en
ĠKat y
ĠJul ian
gar ia
Ġse quin
ĠJen ner
ĠIB F
br ight
ĠBil ly
ĠPart ners
ĠNak am
ĠVers tappen
ĠShel ton
ĠSÃ¡n chez
3 20
C Ã²n
C amp
L Æ°Æ¡ng
R IS
S inner
c áº£i
d Ã©
t iáº¿p
v áº«n
v al
v ia
Ġ over
á» Ĺng
Ġc Ã²ng
Ġl ear
Ġl ink
Ġl Ãµng
Ġh Ã¡ng
Ġh en
Ġnh áº©m
Ġnh áº¥c
Ġn Ã´i
Ġd iá»ģu
Ġd el
Ġd áº«u
Ġp ast
ĠN ow
ĠN ara
Ġx ÃŃt
Ġqu áº·ng
ĠM U
ĠM iáº¿u
ĠV CI
ĠTr uman
ĠS GD
ĠL CD
ĠD ak
ĠG C
Ġkho Ã©t
ĠNh Ã©
ĠCh Äĥn
ĠCh annel
Ġ3 40
Ġkhá» ĳn
ĠQu ay
ĠQu á»³
ĠW en
ĠW olf
ĠJ ang
us alem
ĠY as
il s
ĠTP Bank
Ġ19 20
ad es
ad ona
Äĳ áº¿n
Ch áº¯c
ut ion
ik i
Ġ13 6
gi ai
thá» ĥ
amas wamy
ĠTikTok er
ans son
ash ar
ĠMa j
Ġrad io
ĠDub ois
ĠPin terest
ĠTor res
ĠKu o
ĠIC E
ĠLuc as
ĠGreg ory
ĠFernand ez
Ġvo an
ĠMargar et
ĠÄĥ ng
zhe imer
1 40
B Ã³ng
E l
H e
M W
S L
T ek
l áº¥y
s á»ĳt
y en
Ä Ĥn
ng h
Ġd ong
Ġng áº§u
Ġng Ã¡n
Ġgi áº»
Ġgi áº«m
Ġgi rl
Ġthá» ıi
ĠN Ã¢ng
Ġr áºŃp
ĠC Ãłi
ĠH inh
ĠH ak
ĠH ab
ĠM Æ¡
ĠM BA
ĠM andal
ĠB og
ĠB ald
ĠB Ã£o
ĠÄĲ Ã¡
ĠTr áº¡i
ĠA ce
ĠA WS
ĠK ansas
Ġtá»ĳ p
ĠCh ev
ĠU p
at form
id s
ĠW BC
it anium
ĠE thiopia
th áº»
ĠChá» ©
rai g
ed ia
ĠSt ell
eb ast
ĠSh ah
ist ening
ĠAir es
mer ce
ĠHol ger
ĠSe ung
ĠEs s
ĠTon i
ĠJer usalem
ĠTho a
ĠNV CC
Ġor gan
ĠDoug las
ĠFID T
ĠJoh ansson
ĠAirb us
ĠAirb nb
cos mos
ĠBlin ken
olu owang
ĠMA GA
ĠBaza ar
ĠRedd it
) ",
C al
F or
F DI
G reen
G rand
M á»Ľi
S er
T iáº¿p
U AE
V Ãłi
a hi
m at
t Ã¢m
á» ¨ng
Ġt Ã©t
ĠÄĳ Ã²
Ġl á»±u
Ġl Ã¹n
Ġtr áº§u
ĠN iel
ĠB om
ĠÄĲ áº¿
ĠÄĲ á»Ļt
ĠTr á»ĳng
ĠS ullivan
ĠL ittle
ĠTh an
ĠK ell
ĠK RX
ĠG Ãł
ĠG um
ĠG ot
ĠNh Ã¢m
ĠCh is
ĠR áº¯n
ĠR amaswamy
Ġ8 50
le ans
ÄĲ á»Ŀi
il is
ĠO DA
Th Æ°á»£ng
Ch uyá»ĥn
og g
op e
ĠHuy nh
Ġláº» n
Thá» ©
Chá» ĳt
ib le
ĠSch m
ĠEx cel
ĠBo ard
ĠOr gan
ĠBer keley
Ġ196 6
ĠWil more
ĠEv o
ĠFrank lin
act ic
ĠRod rig
ĠMaster card
ĠIS O
ĠEver est
ĠTA SS
ĠDI G
0 50
A ng
B ao
B Ã¡nh
G eo
L G
O ne
T om
m ai
m el
u es
y ama
Ã Ĥ
Ġ áº¿
Ġ au
Ġ ag
Ġt anh
Ġv áº¡
Ġl Ã©p
Ġl á»ĳt
Ġth iáº¿p
Ġs áº£i
Ġm au
Ġm iáº¿n
Ġh as
Ġnh Ã¡y
Ġnh áº±n
ĠT D
ĠN ord
ĠN ottingham
Ġr áº±m
Ġchá» «
an za
ĠH uyáº¿t
ch uyá»ĩn
ĠM ak
ai de
ĠV KS
ĠÄĲ Ã³ng
ĠS á»£
ĠS endo
ĠL ake
ĠP D
ĠG áº¡o
ĠnhÃł u
Ã© e
Ġsá» ¥n
al ist
ĠR áº¡ng
ĠR ow
ĠF ish
ĠF amily
is ol
ĠW ith
ĠW ADA
ĠJ or
ÄĲ Ã´ng
ĠTP B
ĠHá» ·
Ng Ã´i
ĠZ and
ho cmai
ou k
ĠCon trol
ass o
mp ic
ĠBr uce
Qu áº£
ĠCam eron
ens ity
ĠHer mes
ĠHarv ey
ĠSum mit
ĠCá»© u
Phá» ıng
ĠMarc us
ĠHas ina
Tu áº§n
ĠPlan et
uad or
Ġhack er
VCB S
Ġmag ie
Xiao mi
ĠNakam ura
B áº¿n
I X
L ee
M ong
N S
R Ãµ
S ong
V Ä©nh
b or
c áº¥m
c ell
c ola
h le
r ich
s er
á» ¦y
Ġth uyÃªn
Ġm ui
Ġnh Å©
Ġn áº¯n
Ġng Ã³i
Ġr Ã¡t
ĠC á»Ļt
ĠC PI
ĠH ad
ch im
ĠM ath
ĠB T
on c
on y
ĠTh ang
ĠP ao
ĠK anye
Ġtu r
ĠR in
at as
ol ic
ol is
ĠY eon
ÄĲ Ãºng
om et
ad er
ot s
Tr Æ°Æ¡ng
ĠZ hou
ent e
ph áº£n
ph áº«u
ut is
ĠLu ke
ĠSt artup
Ġw ill
Ġ0 6
ĠMai son
ert o
ĠVN PT
yr in
ĠJohn s
uch i
ĠFr ont
ĠFran co
ĠPhilipp e
ĠPer ez
oc co
Viet combank
Ġbo ong
RE x
Ar senal
ĠDom ic
ĠCop a
ĠLog an
ĠSec ret
âĢĿ ,
ĠSP F
gor od
ĠBai du
ĠFi in
ĠLor enzo
Ġte am
ĠCI O
ĠGyeong gi
ĠBul garia
ĠDimit rov
throp ic
ĠKell ogg
% ",
F acebook
H U
K áº¿
N a
P L
b us
s Ãłn
v ua
z es
£ m
Ġ áº¡
ķ ng
Ġc as
nh iá»ģu
Ġl áº«m
Ġb ÃŃt
Ġm et
Ġg ao
Ġg Ã¡n
Ġch Æ°á»Łng
ĠT Ã´m
ĠT enn
ĠN em
ĠN oo
ĠN ano
Ġr Æ°ng
Ġr áº©y
ĠC ir
ĠV ick
ĠL áº¡nh
au n
ĠNg á»Ļ
ĠK yo
ĠD X
ĠD j
ĠG áº¥u
ĠG ate
ĠG Ã³p
al is
ĠI owa
ĠR ou
ĠF all
as i
hi e
Ġba king
ĠE SP
ĠY oga
ĠY oshi
ĠO re
ne ws
Th iÃªn
tr i
ot ive
Äĳ Ã¡m
Tr áº¥n
ĠAl zheimer
ent ial
az ine
Ġáº ¨m
Ġ14 7
ab et
ĠSh ap
st one
ĠSo ya
ĠChi p
thá» «a
ett a
ĠUn ion
ĠCl ass
ĠMc K
ep ard
ash tag
ĠOr leans
ĠBro dy
giá» ¯a
ĠInd ustr
ĠJack ie
ĠIv anka
ĠComp any
ĠComp uter
enc er
198 9
ĠJeff rey
ĠBin ance
ĠPo uyuen
ĠViv ian
ĠVik ram
ĠKir k
ĠMoham ed
Ġli u
ĠPrem ier
ĠSev en
ĠSign ature
Ġá»Ĳ c
ĠStefan os
ĠPon zi
ĠWir eless
AX A
ĠHim alaya
ĠSpot ify
ĠPle iku
ĠLinked In
ĠBuen os
H áº¡t
b iá»ĥn
c áº£nh
d Ã¢n
f ly
g rid
h áº¡
l ia
m us
r au
r or
Ġ es
ng hiÃªn
Ġt Ã¡p
Ġv áº¹t
Ġl iÃªm
Ġn ot
Ġd Ã´i
ĠN X
Ġr uá»ķi
ĠH ero
ĠM Ã¡i
ĠV áº¿t
ĠV log
ĠB aker
ĠL á»±u
au k
ĠK am
ĠK ry
ĠD Ãłnh
ĠD ion
Ġsá» ¥c
Ġ20 40
Ġ5 20
ĠI brahim
Ġvá»¥ t
ĠQu ant
ĠJ ur
ĠJ ob
ĠHo Ã¡
ĠHo Ãłnh
Ġ19 3
ad dy
ĠVá» ı
ov ich
ĠAl bum
19 45
ph ong
ĠLe yen
ĠMar adona
Ġnhá»Ľ t
ul p
ul ing
Ġf re
ĠJo ana
sk a
ri ott
Qu Ã¡n
Ġbá»ģ nh
Ġco c
ĠPal ace
199 2
Ġhá»ķ i
ĠChrist ina
ile en
SI RIS
ĠAndre a
Ġxá»ī u
yn th
ĠMur phy
PP P
ĠSum mer
khá» §ng
bur gh
ĠLG BT
Man chester
ĠBV Bank
Xu Ã¢n
ĠAlf red
ĠSak ura
ĠTitan ic
evi ew
Ġcac ao
ĠMandal ay
D áº£i
D on
M áº·c
N E
S te
S á»©c
T Æ°Æ¡ng
Y C
c raft
k ei
n os
p ro
q uyá»ģn
r unch
s martphone
Ġl ip
Ġh áº¯t
ĠT á»Ļi
ĠN Ãłng
ĠN áº¯m
ĠN BA
Ġr áº§m
ĠC áº¥u
ĠM and
ĠV ent
ĠB N
ĠB Ã¢n
ĠB ac
ĠL áºŃt
ĠL Ã£o
ĠL PBank
ĠP ia
ĠP ot
ĠP att
ĠP DR
ĠCh Ãło
ĠCh áº·ng
is o
hi r
it or
ĠE ur
Ġkhu áº¿ch
Ġtráº» o
ĠHo ang
ĠX L
ÄĲ á»Ĺ
ot us
Äĳ Ã¢y
ĠAl ab
ui z
Ġf ull
Ġin ox
qu Ã¡n
ĠSo und
ĠCo co
ĠCo hen
aw are
ach er
ĠBr ent
ood y
ber ger
ĠRob inson
ĠDav e
ĠCap tain
ĠAP I
ĠSun s
AM A
ĠEd ge
ĠOn ana
ĠMag nus
ĠMag azine
Giá» ĳng
eng er
ĠJenn y
ĠSn ake
els ey
ĠWh at
ĠDes ign
ĠMach ine
ĠBor is
ĠTra fford
Ġcard io
ĠEc uador
ĠGall ant
ĠLux ury
ĠFul bright
ĠGon z
Ġab out
ĠNiger ia
ĠTenn ess
0 8
A g
B ay
C am
D Æ°á»Ľi
H K
K á»ĥ
M áº¥y
P ay
R ap
T á»±
T Ã¢m
U B
V F
c Æ¡m
m Æ°a
m á»Ĺi
m ec
n on
n ic
n ell
p Ã´
r Æ¡
s Ã¡ch
s á»£
v ers
y ang
Ġ uyÃªn
Ġ un
Ġ af
Ġt on
há» į
Ġk Ã¨n
Ġn om
Ġg Ãło
Ġd on
Ġng á»ķn
ĠN olan
Ġr Æ°á»£t
ĠC F
ĠC Ã¢n
ĠH ee
Æ°á»Ľ n
ĠV CCI
ĠB and
ĠÄĲ áº¥u
ĠS z
ĠS et
ĠTh iá»ĥm
ĠNg á»į
ĠK iá»ĩm
ĠK le
ĠK yle
ĠD ab
ĠD ennis
al ph
ĠCh ong
ia go
ĠKh al
ĠKh Ãºc
Ġ4 20
Ġ4 30
ĠR iv
ĠR ash
ĠF enerbahce
Ġnhá» ¡
ĠJ et
ĠY ong
ÄĲ á»Ļc
om er
ĠO IS
Ġ19 40
ĠAn t
ĠAn thropic
Äĳ au
re ads
ĠAl an
ĠZ eekr
ig g
ĠÃģ ng
ir am
ĠMar riott
ĠKho ai
ĠEl ena
Kh áº£
ip e
ip ro
ach i
ĠBe er
etro it
ĠUn ilever
ĠEr n
ĠRo an
ĠMel issa
ks hire
ĠComp osite
ĠOl iver
ĠTO D
ĠRi yadh
Ġfl ash
ĠCher yl
Tu áº¥n
ĠPrinc eton
ĠLaz ada
sch ulp
ĠFID E
Há» £p
ĠSah ara
ebras ka
esl iga
ĠPict ures
Ġenz yme
ĠZand schulp
% /
2 20
D es
F ood
H T
T á»īnh
V A
V inh
b Æ°á»Ľc
b áº¡o
b urn
c á»±c
c or
d inh
f ol
l Ãªn
l ong
l á»Ŀi
w atch
Ġ Ãºng
Ġ ...
ng hi
Ġt ao
Ġc Äĥm
Ġs áº¥m
Ġg l
Ġch uá»ĳt
Ġd ata
ĠT R
ĠT est
áº¥ ng
Ġchá» ĳc
ĠH IV
ĠM ov
ĠS A
ĠS id
ĠS earch
ĠS ebast
ang o
ĠA e
ĠL Å©ng
in ity
ĠTh y
ĠK F
ĠD art
ĠD etroit
ar at
ĠQ in
ĠKh e
im ex
Ġcá»© a
as ma
is er
ĠE to
ĠE ther
ra k
Ġ9 60
Ġdu á»Ĺi
ĠO SIRIS
ing o
ad ow
th Ã³i
tr Ãł
ĠhÃ£ nh
ut o
ĠLan c
ĠRe y
ĠRe ading
car bon
ĠDu áº©n
du ct
Ġtá»¥ i
Qu á»·
ĠCol ton
ĠAd rien
Ġ196 4
phá» Ł
ĠLou ise
ĠCor por
ĠBank ing
ĠBlo om
ĠSel tos
ĠRai si
ĠBil bao
ĠSir i
ĠBack grid
ĠOtt awa
ĠServ ices
ĠKenn eth
Ġstream er
ĠBian ca
ĠBund esliga
Camp uchia
onc Ã©
ĠNX B
D L
L ab
V C
Y Ãªu
b ay
b al
b á»¯a
b ard
b ook
f i
r ell
r ice
t ime
v es
v isa
y na
Ġv aly
Ġk V
Ġs Ã¡n
Ġs á»¹
Ġs áº·c
Ġg ala
Ġch ÃŃch
ĠÄĳá» Ŀ
Ġd Æ°á»£ng
ĠT ata
Ġph ÃŃch
Ġph Ãło
Ġtá» Ľ
Ã¬ u
ĠN an
ĠN ebraska
Ġr áº¡c
Ġr Ã¨
Ġr up
Ġchá» ĵn
ĠC rist
ĠC IA
ĠC raig
ĠH iro
ĠM ao
ĠM Ã³ng
ĠB O
ĠB io
on na
ĠTr ust
ĠS ight
ĠA SI
ĠL ast
ĠP G
ĠP ou
ĠP ab
Ġdá» ım
ĠK us
ĠK af
ĠD Æ°a
Ġsá» §a
ar en
al am
ĠCh eng
Ġ3 70
or ia
Ġngo Ã£n
ĠF AT
ĠW BA
ĠJ ust
om y
tr uyá»ģn
tr end
ĠAn aly
Ġgá»į ng
Ġvi olin
ĠZ ach
ent o
ph áº§n
Ġ14 9
ou ch
Nh u
Nh áº¡c
Ġf ood
qu ang
ip an
ber ry
Ġe Box
ĠCol in
ib e
pe ng
ĠCl air
ĠMon tr
ans ipan
VN X
ĠGeo ff
ĠAlex andra
ĠUt ah
ĠRobert o
ĠVan essa
PA Y
ĠLau rent
ĠRos Ã©
anc ed
aki ra
ĠDel aware
ĠCarol ine
ĠTa e
raph ic
ĠBal tic
ĠJi ang
ĠAlph abet
ĠCV T
Bar ca
ĠOlympia d
ĠPri x
ĠGau ff
cá»© u
ĠAlger ia
ĠTenness ee
B TC
G l
H an
H ÄĲ
O s
W P
W h
d ick
f ast
m l
m uá»ĳn
p ris
v áºŃn
± t
Ġ one
á» ¥ng
Ġc r
Ġl Ãµm
Ġth Æ¡i
Ġs ho
Ġs Ã¹i
Ġn a
Ġg Äĥm
Ġd áº£
Ġng Ã³c
Ġp er
Ġp ixel
ĠT ed
Ġph o
ĠN es
Ġchá» Ńng
ĠC CC
ĠH TS
ch ia
ĠV á»Ł
am en
ĠÄĲ á»ĳc
Ġlá» ĵi
ĠS Ã¹ng
ĠS ue
ung e
ĠL áº¡ch
ĠL av
ĠL aver
ĠTh er
au se
ĠP A
ĠK elsey
ĠD M
ĠD á»ĩt
ĠG á»ıi
en ei
Ġsá» ¡
Ġtu l
Ġlu á»ĵn
ĠF DA
em ic
as y
Ġso me
ĠY EG
ÄĲ Äĥk
Äĳ Ãłm
re z
ew ay
ĠZ e
19 80
ho c
ell ow
ĠHu áº¥n
ĠAr ms
ĠSp ring
ass i
SA T
Ġe S
Ġhu á»³nh
ĠJohn ny
Gi ao
ver ter
ĠMon ter
Ġu á»·
Ġst ylist
giá» ¯
MA RS
ĠRos cosmos
ĠMichel e
ĠMeg han
ĠBas el
ĠFu j
ĠGa etz
ĠMik el
ĠKham enei
há»Ļ p
Ġgá»Ŀ m
ĠHU TECH
Ġcort isol
ĠOre gon
ĠDart mouth
! "
I N
L C
M ua
T inh
_ _
c Ãły
c Ã¹ng
h iá»ĩu
o a
t iáº¿n
á» £i
Ġv ÃŃt
Ġl ab
Ġtr Ã¡m
Ġb Ãºi
Ġb ir
Ġn iá»ģng
Ġd ÃŃ
ĠT áº£
ĠT ank
Ġr á»ĳn
ĠC ad
ĠH uyÃªn
ĠH uman
ĠM ia
ĠM MA
ĠM oody
ĠB av
ĠB ody
ĠÄĲ Æ°Æ¡ng
ĠS qu
ĠL ump
ĠG om
Ġtrá» ĩt
ĠCh ro
Ġto il
ĠR ange
ĠF ree
ĠGi Ãłng
ĠJ av
ĠJ ude
Ġngá» Ĺng
le ep
ĠX Ã´i
á»Ń u
ÄĲ Ãªm
th áº£m
ĠTá» §
ĠIs mail
ir ates
Ġ14 8
ĠMar ine
ĠMar sh
ĠCá» ı
Ġ13 7
ĠSt at
Ġthe ir
ĠSl ot
ĠCl ar
ear s
ĠSer g
thu Ãª
its u
CA S
ĠSk oda
ĠAll ian
ĠWil d
Viet tel
ĠWar ner
enc ent
ĠDis c
bour g
ĠLouis iana
Ġmod em
ĠNic olas
ĠValent ina
ĠDim ensity
Ġfl av
ĠCel ine
Tay lor
Hy undai
ĠEconom ist
ĠVel oz
ĠNik kei
ĠAug ust
ĠPic asso
Ġlat te
Mor gan
ĠMitch ell
Ġlear ning
0 4
1 70
? )
B en
H R
b ang
b Ã¡o
c son
d own
h ong
k im
m áº¡ng
m á»įi
p ad
r Ã¡c
r Ãºt
s eo
t á»Ļi
u ar
ng á»§
Ġc Ã¹
Ġb eta
Ġth áº£nh
Ġch Ä©a
Ġkh Ã¢m
Ġd Äĥm
Ġng Ã¹ng
ĠN ancy
Ġr ou
ch enko
ĠM Q
ĠV áº»
ĠB Ãłnh
ay uki
ĠTr ao
ĠA re
ĠA ct
ĠL enn
ĠTh Ãº
ĠP ul
ĠPh Ãłm
ĠR áº«y
ĠF un
ĠF ansipan
ĠGi ll
Ġba ck
ĠW ag
ĠE du
ĠJ es
Ġrá» ¥t
om i
ĠO t
ĠO la
tr áº£i
ĠNhá» ±t
ed ad
re at
ĠZ en
ie u
ĠTu cson
Ġ13 4
Ġw hen
ant s
ĠCN A
uk e
ver de
land s
ĠTay can
elen a
ĠSch w
Ġu á»ĥ
ym astic
ĠMad am
ĠHol mes
ĠBro ad
ĠSal ah
han ouk
EC D
ĠVF F
enc y
low een
Ġgam ing
ĠGh ost
ĠTer ry
ĠRi h
ĠWat er
ĠSub oi
ĠFil ip
bi ot
ĠBrian s
AF TA
of i
ĠLib erty
ĠDynam ic
ĠAdr ian
ovac s
ĠStell antis
ynth ia
Ġlip id
ĠRash ford
ĠPab lo
ĠArms trong
8 50
D anh
F ly
G M
L eb
L á»Ŀi
L Ã£nh
P E
V ID
a quin
l á»ĭch
l id
n an
n Ãłng
w auk
y i
y Ãªu
¥ m
Ġ %
Ġ Ã¡ng
Ġ est
áº ¨m
Ġv Ãªnh
Ġk il
Ġs áº£y
Ġm on
Ġm á»ĭt
Ġnh am
Ġnh á»Ļng
Ã´ tÃ´
Ġg out
Ġch Ã²m
Ġng áº¥y
ĠN Ã©
ĠC av
ĠH áº¡ng
ch Æ¡i
ĠM Ã¬
ĠM áºŃu
ĠM ine
ĠM BS
ĠM eh
ĠV il
ĠB iá»ĩn
ĠÄĲ am
ĠA TC
ĠL ac
ĠL ine
ĠL TP
ĠÄĳÃ³ m
ĠK ris
ĠD anny
ĠG ad
ar ay
Ġdo wn
Ġtu Ã½
ĠCh ild
ĠPh e
el in
ĠF ig
Ġvá»¥ ng
ic ut
ĠGi Ãły
id t
ĠW el
ĠJ os
ĠJ oker
ÄĲ á»Ļng
os i
... ),
Ġ12 4
Äĳ áº¹p
ak es
Ng Ã´
ob i
ph Ã¡
ĠThu á»·
ald o
ĠLu k
gi áº¥c
ĠAr m
op s
ĠCon an
ĠSo y
ĠAs c
ĠSin d
Ġco in
Ġpro mpt
ĠPr es
ĠMed ical
ĠAb ram
ĠCom mun
CO N
ĠBer kshire
me ir
app ell
ĠRub en
ĠAD B
ĠDN A
ĠAc utis
ĠAss ange
ĠGra ce
Ġpl asma
ĠGh áº¿
ĠIm age
Ġgu á»ĵng
ĠPu erto
ĠDem b
ĠRad io
ĠVill age
ĠHall ie
fer ence
ĠLeon ardo
ĠHelen e
ĠLH Q
ĠSpec ial
ĠCin ema
ĠUnit ree
Ġpast el
ĠDak ota
Leb anon
wauk ee
ĠLTP O
A SEAN
C Ã¢y
O ppo
S uper
T iáº¿t
T á»ĳt
a ff
d Æ°á»Ľi
h em
k an
l iÃªn
p ost
s w
t áº¡m
t Ã¹y
Ġ á»ĳ
á» ©a
Ġt áº·c
Ġc ol
Ġc ap
Ġc asting
Ġv Ã¡nh
há» ĵi
Ġl iÃªng
Ġb ut
Ġs áº£o
Ġnh Ã£ng
Ġn i
Ġg Ãłi
Ġg et
Ġp H
ĠT ester
ĠT iff
ĠT encent
Ġph áº¥t
Ġph Ã¬nh
ĠN ub
Ġx iáº¿t
Ġr Ã´ng
Ġr Ã¬nh
ĠC ynthia
ĠH id
ch in
ĠM oy
ĠV A
ĠL Ã¡ng
eo k
ĠP ers
ĠK il
ar ov
ĠCh ua
ĠCh ap
ĠCh Ã¡u
ĠPh Ã¡o
ĠPh el
Ġ4 60
ĠR Ãµ
ĠR est
ĠF ol
ic ano
is oo
ĠGi Ãłu
ĠJ eep
ra g
ra de
Ġ9 10
ĠY i
ĠX ÃŃ
ÄĲ áº¥t
ÄĲ Ãło
ÄĲ á»ĭa
il m
ur g
Ġgá»į t
Ġ15 4
Tr ÃŃ
Tr á»ĭnh
ew e
te ur
Ġáº ¢
ir i
ĠHy per
Ġi Con
ĠViet bank
ĠViet ravel
ĠMai ne
ĠSh akira
ĠSp ark
ĠGr ay
ĠBl an
ĠUn der
ĠMon de
ox ide
ĠCam ry
ĠHe art
ĠMel inda
ĠWal sh
he ed
ĠDon na
ond ers
ĠMil ton
ĠEn zo
ĠKar oline
ĠMor occo
ĠWar s
ĠBy bit
ĠRam s
ĠVCB S
Ar gentina
ĠAC V
ĠSub aru
ĠHi ros
ĠLes lie
Ġpoly p
oth y
ĠCore y
ĠDun can
ĠKath leen
edd ing
rett ini
ĠJak arta
ĠJol ie
ĠCC TV
eros pace
ĠWr ight
ĠKard ashi
ĠRut te
ĠESP N
ĠSight ings
ĠGeoff rey
A ir
A ura
C up
C á»¥
H TS
K á»¹
M ad
R P
S uá»ĳt
a j
b ol
b ak
b áº«y
c á»Ŀ
e a
f ica
f ils
k iáº¿n
l av
p ire
t une
v iet
x áº¿p
y net
Ġ @
Ġ eth
Ġt ÃŃa
nh áºŃn
nh Ã¬n
Ġtr Ã²ng
Ġth iá»ģu
Ġs i
Ġm Ãºt
Ġh Ãº
Ġh ashtag
Ġn á»Ļm
Ġng áº©n
ĠT Ãły
ĠT uyá»ĩt
Ġhá» Ŀ
ĠN FC
Ġqu Ãłng
Ġqu á»ĩ
Ġr uá»ĳc
an u
ĠC ong
ĠV n
ĠB ong
ĠB áº¿p
ĠB urn
ĠB ashar
ĠTr ev
ĠS áº§m
ĠA erospace
ĠL ives
ĠTh Ã¡ch
ĠP ad
ĠP HEV
ĠG uy
ar in
or ah
or ca
ĠR as
ĠW EF
ĠW emb
ĠE X
ro e
ĠY ann
ĠX V
ĠX Ã¡
ĠO z
Ġ19 46
ag es
ap est
ie g
ik o
Ġgh Ã¬
Ġ17 9
ald i
amp ing
ĠViet lott
ry go
lin d
omb at
ĠAm s
ĠAm ie
Ġláº» o
ĠVin mec
Gi Ã¡m
ĠBl ing
ĠIT IA
ĠRo os
ks how
sh u
gh Ã©p
ĠVi enna
ĠMi y
ull ah
ĠMor ris
olog ies
ĠID C
IM F
ĠHal f
ĠSol ar
ĠSi em
press o
ĠBob by
ĠJac qu
ĠChin at
Lo áº¡t
tour ist
Bl ack
ĠElec tric
ĠHamp shire
ĠFTS E
ĠHugh es
Com merce
ĠPes kov
ĠJab bar
ĠCorpor ation
Ġtoil et
ĠTiff any
ĠWemb ley
4 35
C á»Ļng
H ealth
K iÃªn
L evel
M ic
W EF
c áº§m
c á»Ńa
e co
f in
p ers
Ġl á»ĳ
Ġs Ãłi
Ġs Æ°a
Ġs atin
Ġs ushi
Ġh Ãºng
Ġnh en
Ġp re
ĠN E
Æ°á»£ m
ĠC i
ĠcÃ³ p
ĠH it
ai ts
ĠB Ã²
iá»ĥ ng
ĠÄĲ Ã¨o
ĠL ag
ĠL PB
ĠTh is
ĠD ark
ĠG ua
Ġtu i
ĠKh uáº¥t
ĠKh erson
el ine
ĠR T
ĠR Æ°á»£u
ĠF lo
ĠF usion
Ġsá»Ń ng
at su
ĠJ ill
ĠChá» Ŀ
ot ion
ag ra
Äĳ Äĥng
ĠHá» Ľi
ĠTo wer
ik ov
Ġ13 8
ab is
ĠSt ate
Ġf iller
ĠHy brid
Ġi S
Ġ0 9
kh Ã¡
st ar
ow ell
ĠEm irates
ist ic
ĠCo x
ach an
thá» ıa
ĠDe p
199 1
ĠMad ison
ĠHol y
ĠJe ong
ĠBer g
ĠMil waukee
ĠVal verde
ĠEng land
ĠGS M
ĠWil es
ons eca
ss ID
ĠRog ers
Phá» Ł
ĠColle en
ĠLab s
ĠMid d
ĠKu ala
ĠJun ior
ĠMatt eo
ĠHil al
Thu áº¿
ĠHass abis
ĠKey mer
ĠCoun ter
ĠAlbert o
ĠSy stem
ĠCat al
enh agen
ĠJP Morgan
ĠCA HN
ĠHI MARS
ĠBey oncÃ©
ĠBent ley
ĠAutom otive
ĠLock heed
Ġtwe ed
0 7
B Æ°á»Ľc
G R
H áº¡
I F
L iá»ĩu
M iss
N áº±m
P al
S acombank
b ro
d áº¥u
h Ã¬nh
m ons
n áº±m
n á»ģn
s uit
x a
Â °
á» ©t
ĠÄĳ ao
Ġnh áº¡o
Ġg áº¥m
ĠT et
ĠT at
ĠT alk
Ġhá» £t
ĠN T
ĠN á»£
ĠN FT
Ġr Æ°á»Ŀm
ĠC Ãłnh
ĠH P
ch Ã¢n
ĠM iáº¿n
ĠM oll
ĠM RI
ĠV as
Ġmá» Ńa
ĠL uyá»ĩn
in ce
ĠTh und
ĠP age
ĠNg uyá»ĩn
Ġ( +
ĠD áº¡y
ĠG Ã¡i
Ã© dÃ©
ĠNh am
al es
ĠCh am
ĠCh ÃŃn
ĠCh appell
Ġto Ãł
ĠÄĳo m
um ma
ĠW o
ĠE ye
ÄĲ an
om an
Tr áº»
ig e
ig or
ĠThu áº§n
eb ank
ĠKim ber
ĠSp ir
ĠCar r
ath am
ĠSc ient
iz ation
ĠCN Y
our i
Chá» £
old ova
ĠUn i
ug h
ĠMo Mo
Ġde adline
ĠBer rettini
Ġmá»ı m
SI P
anc er
Viet inBank
Ġ195 9
ĠDel ta
ĠGer ard
ĠSab rina
ĠHal loween
ĠMetro pol
uc ci
ĠSi ph
ĠTe a
ĠRod rygo
ĠStr aits
ĠVik ki
Ãģ p
Ġoff line
ĠCel eb
ĠRh ymastic
ĠSing h
ĠBud s
ĠBow l
ĠSev illa
ĠUP COM
Hu á»³nh
ĠCool ray
ĠPitt s
Ġsc andal
Äĳo áº¡n
ĠImag ine
ĠConnect icut
Jo hn
ĠScar lett
ĠQuant um
ĠCCC D
ĠLump ur
ĠGom ez
ĠJes us
ĠDemb ele
ĠKardashi an
1 10
2 30
? '.
B L
B iáº¿n
I L
M á»Ł
N Ã¢ng
N á»ģn
c Ã¡nh
k áº¿
k iáº¿m
l Ã´
l at
s áº§u
t áº¡i
x Ã³a
y on
Ġ Ãºp
ng uyÃªn
Ġt áº¯n
Ġth ey
Ġn iÃªu
Ġch erry
Ġd Ã´ng
Ġng a
ĠvÃł n
Ġgi Ãªng
ĠN PR
ĠM omo
ĠB ee
ĠÄĲ áº£m
ĠTr áºŃt
ĠTr Æ°a
ĠS ul
ĠS ens
ĠS á»§i
ĠL iá»ĩt
ĠL ad
ĠL if
ĠL otus
ĠK ok
ĠNam i
ia thlon
ĠI ce
im an
ua ge
et er
as ter
ĠÄĲá» £i
it ar
ĠE st
Ġ7 20
om nia
th áº§y
Äĳ Ã¨n
ĠLe h
ĠMar in
av en
ly a
ĠSt ock
ris ban
ĠBá» ģn
gi áº¥y
ĠHu Ãª
lo p
ĠSh epard
ĠCon n
ĠLo w
ĠEl li
ĠMan uel
Ġmu á»Ĺng
Chá» ĵng
ĠAd idas
ĠGl ass
ĠPr ivate
se ille
ĠMad onna
ĠSw e
ĠSyr sky
Há»į a
ĠMay bach
ĠMiss ouri
ĠMag rit
ĠAg assi
ES T
ĠHal al
ĠWh ats
evel t
Ġhydro gen
ĠBrand on
ĠMir anda
ĠPop yrin
ĠBud apest
Ġcard igan
ĠBol ivia
ÄĲo áº¡n
ĠAth let
Ġball et
ĠKas per
ĠCast ro
je ong
ĠPalis ades
ĠMap s
ĠGang nam
ĠPrag ue
Dav id
ĠAdel aide
Ġrup ee
ĠAbram s
ĠiCon tent
ĠRoos evelt
Ã©dÃ© ric
risban e
ĠMagrit te
% );
B iáº¿t
D ai
J ack
L ink
L NG
P D
V M
V CCI
f u
f Ã©
h Ã³a
h áºŃu
i i
q i
r ik
v iáº¿t
w ha
Ġ Æ°
Ġ 00
Ġ ev
Ġt Æ¡i
Ġv Æ¡
Ġl im
Ġh Ã¢n
Ġh on
Ġh is
Ġn ai
Ġch áº§u
ĠÄĳá» į
Ġd r
Ġd Ä©a
Ġng Ã³
Ġng an
ĠT Ã²ng
ĠT ig
ĠN G
ĠN Ã´m
Ġr Ã¡ng
Ġr ua
Ġr eview
ĠH ello
ch at
ĠB is
ĠB ing
ĠS ac
ĠL ov
ĠNg áº¡n
ĠK Ãª
ĠK end
ĠD iá»ģu
ĠD id
ĠD iÃªm
ĠG ran
ĠG ust
Ġ3 10
Ġ3 90
Ġlo anh
ĠF V
ĠF rid
ĠF our
ĠF ried
ĠF onseca
at ed
ĠGi Ãºp
ĠW ard
il ly
ĠO COP
ing a
th or
os te
ag le
Ġnhu áº§n
Ġ15 3
ie f
ent a
Ġ16 6
ph iÃªn
ly cer
ĠNghá» ī
âĢ ĵ
gi Ãºp
Ġchá»Ŀ n
op ment
ĠLá» Ĺ
ĠSh aron
qu Ã¢n
SE C
ĠSo ci
ry pto
ĠDu ke
ĠVN PAY
end i
ĠMon fils
ĠFr esh
ĠAd obe
ĠPr ime
ĠGeo g
ĠBen fica
ĠAngel ina
sh ine
ĠHer it
ĠMi u
MA s
ĠAss ist
thi ng
Viet jet
ĠSim one
ĠBel gorod
ĠBeau t
ĠTer rit
ĠCop enhagen
ĠMu ham
ĠLim o
Ãģ o
ĠIB M
ĠRai ze
ĠDeb orah
ĠErik sson
ĠPeg ula
ĠSá» £i
HD Bank
ĠShang hai
ĠValer ie
nar umma
ĠSchm idt
ĠRodrig uez
ĠSerg ey
ĠAsc end
bak ina
ynet h
B ID
C Å©ng
N Æ¡i
V Ãłng
V ui
V ND
V á»«a
W ang
b á»©c
c áº£
c Ãº
l áº§n
l ah
l ess
r ine
t áº¥t
v as
x u
z ania
§ i
É ª
Ġ Ã¡ch
ng á»Ļ
Ġm il
Ġh un
Ġn ude
Ġd ep
ĠT ao
ĠT oshi
Ġvá» «ng
Ġthá» ī
ĠN DT
Ġx ui
Ġr et
Ġr Æ°á»Ľi
ĠC au
ĠH VN
ĠM es
ĠM ig
ĠM atch
ĠM oldova
ai jan
ĠV ssID
ĠB á»Ļt
ĠB Ã¹ng
ĠB rain
ĠB á»Ńu
ĠÄĲ á»ķng
ĠTr acey
ĠA x
ĠA TA
ĠTh ink
Ġho áº¡
ĠP rab
ĠK ash
ĠK ush
ĠD oll
ĠD ance
er ano
Ġsá» ĩt
Ġtu á»Ļt
ĠPh en
ia c
ĠR ab
ĠF rom
ĠQu Ã£ng
it on
ĠE t
ĠE arth
ĠX o
ĠX Ãºc
ĠO f
ĠO ng
ĠNgo isao
Th iáº¿u
and t
ĠIn formation
re w
ĠDo w
19 54
Ġ16 2
Ġ14 1
ĠRe view
AI C
est an
gi áº£
sk ever
op hie
ĠCon vers
Thá» ķ
yl er
ĠNews om
ĠDe ad
ĠDe Aura
ĠMon ash
ĠFr Ã©dÃ©ric
ĠSun i
ĠBer ry
ĠTV B
ĠCO VID
ĠAc cent
que z
ĠSim mons
ĠTy pe
ĠDragon s
198 6
ĠSil ver
ĠSH S
erb aijan
ĠMedia Tek
ĠEconom ics
ĠIM F
ĠPas teur
ĠIshi ba
Mas an
ĠJar ed
ĠImag es
ĠSut skever
ĠCath y
ĠSent osa
ĠPhill ips
ĠExp lor
tem ala
Ġfin tech
phen ol
Cal ifornia
ĠJor ge
Ġcoc aine
Des k
ĠChinat own
Mic rosoft
A CB
B V
B ang
C PI
K áº»
S Ã¢n
T I
b s
b iá»ĥu
g as
g un
k á»ĥ
p ack
s Ã´ng
v áºŃt
v Ã©
y ong
É Ļ
Ë Ī
ng hiá»ĩn
Ġk Ã©t
Ġb Ã¡ng
Ġb est
Ġs ex
Ġh Ã¡
Ġn ao
Ġg lu
Ġd Æ¡i
Ġng Ã¡y
ĠT Ãłn
ĠN on
ĠN US
Ġx Ã²e
Ġqu áº¹t
Ġchá» £p
ĠC iao
ch áº¯c
ai a
ĠB ak
ĠB etty
ĠTh at
au gh
ĠP M
ĠP etro
ĠD Æ°á»¡ng
ĠG az
ĠG á»Ńi
ĠNh áº¯c
Ġbá» ĩt
Ġbá» §a
al ie
Ġká» ģn
ĠI ga
ĠR ank
em on
ĠGi b
Ã¨ s
id ol
ĠW TO
it er
ro und
CM S
ÄĲ inh
ĠO h
Ġ15 1
Tr áº£i
ak s
ent iane
ub lic
ĠHar mon
man e
ry lic
lin i
ast a
ud a
ant z
ĠCo urt
ĠBr ett
thá» ©c
ĠVin Speed
yl an
uk a
ĠÄĲo an
ind y
ĠGar eth
BS F
ĠFran ce
ĠSan z
ĠGreen wood
ĠBu ck
ĠPet ers
ĠUl l
ĠVi entiane
giá» Ľi
ĠMer ino
ĠMat s
ĠHun t
ĠSi hanouk
198 2
ĠtÃº m
ĠCas ey
ĠNep omnia
Nghá» ģ
ĠTechn ologies
ĠMir ror
ĠRy bakina
ĠAbd ullah
ĠAdam s
Ex imbank
ĠOk lah
ĠJoh ann
ĠHack man
ĠRoll ing
Pl ay
ĠPear son
Vol odymyr
ĠOP EC
ĠLen ovo
alys is
cht chi
atas aray
Ġcas ino
ĠKimber ly
ĠSoci edad
ĠGeog raphic
ĠNepomnia chtchi
B r
B al
B áº¯t
C E
D r
H P
M á»ĳi
M ax
R ob
S martphone
S he
V PBank
Y Ãªn
b ury
c u
c ul
d anh
h on
i ya
j our
k ar
k es
k awa
p ho
r ard
u ard
w h
z an
Ġt á»Ļt
nh áº¥t
Ġb ass
Ġs l
Ġs uyá»ħn
Ġnh Ã²a
Ġn á»±c
Ġch áº¥u
Ġd ec
Ġp ate
ĠT axi
Ġph ung
Ġgi Å©
ĠN Ãºt
ĠN ode
ĠN elson
ĠM ut
ĠM und
ĠM ake
ĠM oney
ĠM á»ı
ĠTr Ã¡ch
ĠTr Ãło
ĠS áº¯t
ĠL O
ĠL á»į
ĠP E
ĠNg Ã£
ĠD á»įc
ĠG in
ĠG Ã¢y
ĠNh Ã£n
ĠCh or
ĠCh lo
ĠPh Ã¡n
im et
ĠF ok
at us
ol n
ĠW an
ĠE IB
le ar
Ġkáº¿ p
ĠX á»Ń
tr ick
and one
ag ascar
ĠNhá» ±a
ĠIn verter
Ch áº³ng
Ph Ãºt
og en
ir d
ill o
ris c
Ġi Mac
TP A
kh am
ĠCon cert
Ġxá» Ľi
ff ic
ri z
ĠAs us
Thá» ĳng
chá» £
ĠMy VIB
ĠGen e
land o
ĠPr ess
ĠMess enger
ĠWal t
ĠKur d
ĠMil k
ĠVal ley
ĠCho ice
ĠCho pper
agi oli
ĠSk in
ĠMor ata
IM E
ĠDJ IA
ĠRen Ã©
ĠLyn k
ĠLyn lee
ush ima
ĠLim ited
Ġngá»¥ m
ĠMall orca
ĠCoun try
ĠFel ice
ĠLil ly
ĠJas pers
ĠVes pa
Ġtal kshow
ĠDef ense
Ġbox ing
ĠBard ella
ĠCost a
ĠBarb ara
ĠNich olas
ĠAlab ama
ĠMontr eal
ĠSiph andone
ĠTerrit ory
ĠConvers ation
B ron
C un
G hi
H ung
H Æ°á»Ľng
L T
L ao
M e
M on
P r
S oft
T Ã¡o
U H
U ni
V ic
V AT
W B
Y ou
f urt
h ua
k ac
o ther
p ir
t ÃŃch
t áº¥n
Ã §
Ġ uyá»ĥn
Ġ á»ĳi
Ġ odo
ng he
Ġc om
Ġc ur
ĠÄĳ ong
Ġb illiards
Ġm ore
Ġh áº±n
Ġg áº·m
ĠT i
ĠT TX
Ġtá» ³
Ġtá» ģ
ĠC á»±
ĠH Æ°á»Łng
ĠH áº¯c
ch Ã³
ĠM Äĥng
ĠM Ã¨o
ĠM iá»ħu
ĠM ile
ĠV áº£i
ĠV Ãłm
ĠV oi
ĠV EC
ĠB RI
ĠÄĲ Ä©a
ĠS yn
ĠA ki
ĠL ÃŃnh
ĠL inc
ĠD A
ĠD awn
ĠG AC
ĠG Hz
Ġtu Ã´ng
ĠCh ai
ia tor
im on
ĠF at
Ġ6 80
as ia
is son
ĠW y
ĠJ isoo
ÄĲ Æ¡n
tr u
Ġ12 9
ĠÄĳá»ĳ n
Ġca fe
Äĳ á»Ļ
re c
PT E
up e
ĠAl m
ĠBan ks
ĠLe Cun
Ġ18 6
Ġ14 3
ĠMar vel
ĠRe id
Ġo ur
Ġf olate
ĠNgh Ã©
ĠSh ark
ĠDu ong
chá» įn
Ġcar ton
ĠGre er
ĠMon o
ĠSte el
ott en
ĠDi Cap
ĠSun shine
ĠGB U
tor ia
âĢĻ ),
ĠAb bas
ĠPer p
ĠDon narumma
Ġ195 7
ĠCha e
ere um
iff e
ĠHil ton
ĠLuc y
ĠKn ight
ĠAz erbaijan
ĠEc ovacs
ĠVill ar
chu áº©n
ĠPam ela
ĠBad osa
ĠEnd rick
ĠPalis ade
ĠAless andro
oven ia
Sai gon
ĠCald erano
ĠVlog s
ĠMarsh all
ĠGua temala
ĠOklah oma
ĠDiCap rio
C runch
L P
M D
M CA
P aul
R onald
S how
S hop
T iÃªu
V i
V Ã¹ng
b ra
c á»¥c
d á»ħ
h Ã£y
j andro
l Ãłn
l Æ°á»£t
o use
p us
t áº¡o
u oka
w i
x Ãª
x á»Ń
Ġ áº£
Ġ Ã³
Ġ Ã³ng
Ġ um
áº ©ng
Ġc Ãłn
Ġk iá»ĩu
Ġm Ãºc
Ġn Ã¡n
Ġch áº¡c
Ġkh am
Ġp ass
Ġp ool
ĠT au
ĠT á»įa
ĠN áº¯ng
Ġqu áº·c
an tha
ĠH is
ch el
ch uyáº¿n
ĠV ung
ĠB risbane
ĠnÄĥ n
Ġ2 12
am oto
ĠTr áº£ng
ĠS O
ĠS BS
ĠA U
ĠL ap
ĠTh or
ĠTh Ã©p
Ġho p
ĠP O
ĠP ap
ĠP TPA
Ġthu á»·
ĠK its
ĠD ell
Ã© al
al ur
ĠCh ern
ĠPh arma
ĠU K
Ġlo Ã¡t
ĠI LO
ĠI CON
ĠR id
ĠR á»§i
ĠÃ ī
ĠF agioli
Ġnhá» ī
et ch
ĠW onder
it i
ĠE S
ro t
Ġngá» Ľ
Ġ9 50
ĠY eo
ĠX Ã¹a
Ġdu á»ĩ
and re
ot el
ok i
Tr áº¡m
Ch ung
re ct
Ġtrai ler
ĠAl ban
ho áº¡t
ah an
ĠMar seille
ĠKho ang
ton ia
ĠSt ation
Ġw eek
Ġw ww
Ġf ashion
all ium
st ant
ev ic
ĠCar bon
ĠCar ney
enn y
ĠAs ahi
ant ar
ĠSl ovenia
á»· u
ĠInst it
ĠPhil ip
ĠMo z
ĠUy á»ĥn
ĠEx per
Ho uthi
ĠTom as
ĠTom ato
ĠJack pot
ĠPra da
ĠLand mark
ĠWin ter
ĠBrook s
ĠFar ah
ĠKid man
Ġac rylic
ĠSchol ar
ĠNS ND
ĠAdv anced
ĠCoin Desk
Ġcaffe in
ĠAB Bank
ĠKent uck
ĠMount ain
Ġop era
Ġorgan za
ĠVKS ND
ĠErn est
ĠSebast ian
ĠtuÃ½ p
ĠWhats App
ĠTTX VN
1 35
5 60
A mer
C uá»ĳn
F ree
L iverpool
M etro
M ade
N C
N I
V ÃŃ
X Ã¢y
f lu
g irl
n ipro
p ower
q lo
t á»Ń
t uyá»ĩt
Ã ¤
Ġ oi
Ġc áº¥n
Ġc re
Ġc Ãµi
Ġl ight
Ġb in
Ġb Æ°ng
Ġth Ã³c
Ġs áº§n
Ġn ÃŃn
Ġn áº¥c
Ġg ar
Ġg roup
Ġch Ã¬nh
Ġd áº±n
ĠT F
Ġph Ã¨n
Ġvá» ¯a
Ġhá» ħ
Ġx áº¯n
ĠC e
ĠH au
ĠH and
ĠM Å©
ĠM ell
ĠM LS
ĠM Hz
ĠB CM
ĠS ag
ĠS uÃ´i
ĠS ald
ĠS amp
ĠS tern
ĠA ur
ĠL ay
ĠL is
ĠL um
ĠL á»Ĺi
ĠL ille
ĠTh áº£m
ĠTh aco
ĠP OS
ĠP aint
ĠK BS
ĠD W
ĠD uyá»ĩt
ĠNh Ã¹
ĠNh áº¡n
al op
ĠPh anh
Ġá» ¶
ĠR us
ic ia
is ton
id ar
ĠE D
Ġkhu á»·u
le g
ĠY ah
ĠX IV
il ates
ur ch
tr Ã²
tr á»±c
un is
Äĳ áº£o
Ch Ã¡u
19 64
ig u
Ġ18 3
ĠThu áº¥n
Ġ14 6
ĠMar ina
Ġ17 4
ue v
ĠJo han
ĠAr row
ax o
ĠSh ar
ĠCar n
ĠCar pen
ĠPro p
ĠPar c
ĠAm way
ec no
aw att
SA M
ĠBr ut
ĠSc reen
ĠAnd ri
ĠRob usta
ĠDav os
ĠTech Crunch
ĠMc M
any ang
ĠAP EC
ĠSan ofi
Ġst ent
ien ces
ĠHan ayuki
ĠKar ik
Ġj azz
ĠMb ps
ĠAg utt
erg us
ĠFrank furt
ngo Ãłi
ild ing
ĠFil m
ĠBor g
ĠAcad emic
ika a
ĠGw ang
ĠGw yneth
ĠSher pa
ĠInn ova
ĠChalleng er
Hu áº¿
Æ¯ T
ĠVie ON
ĠFuk ushima
Ġmatch a
ĠMedic ine
ĠMem phis
ĠFlow er
vis or
ĠChis ako
ĠKle in
Ġrou ter
ĠHoly field
ĠMuham mad
kac z
ĠBRI CS
ĠAgutt es
2 90
3 70
6 80
E IC
F BI
G T
K iáº¿n
N Q
S TE
W D
c Æ°á»Ľp
h áº¡nh
l uyá»ĩn
m ini
m ade
z ou
z man
Ġt áº¥y
nh az
ĠÄĳ áº§n
Ġb ÃŃch
Ġth ong
Ġth Ã¬nh
Ġs Ãªn
Ġs á»¯ng
Ġh áº¥t
Ġch ÃŃt
Ġkh ÃŃt
Ġd áº·t
Ġd áº«m
Ġp ol
ĠT Æ¡
ĠT Ãºc
ĠT ina
ĠN eo
ĠN er
Ġr á»įi
Ġr Ã¬u
ĠC áº¯t
ĠC AS
ĠC urt
ĠC indy
ĠH eo
ĠH em
ĠH oll
ch áº¿t
ĠM uan
ĠM á»¡
ĠV B
ĠB AFTA
ĠÄĲ Ã©c
ĠS áº§u
ĠS AF
ĠL Ã¡t
ĠL eop
ĠL istening
Ġho me
ĠP and
ĠP og
ĠP izza
ĠK umar
Ġ( -
ĠD ylan
ĠG ay
ĠG ao
Ġtrá» Ľ
Ġ20 31
Ġhá»Ļ c
ĠCh as
ĠCh atham
ĠKh Ã´n
el ly
ĠR el
Ġlu áº©n
ĠF ram
ĠF ergus
at ing
ĠGi ven
um ors
ĠW ei
ĠW endy
ĠW uling
ra ham
ĠHo on
ĠY uri
ÄĲ áº£ng
om on
ĠO ai
ac i
Tr Ãł
ob a
az aki
Ġgh Ãª
Ġgh áº»
ĠMar tha
Ġ17 6
ĠRe v
Ġ13 3
12 5
ĠJo ong
ĠJo aquin
kh Ã³a
ĠCon ference
ĠCar s
Ġxo ang
ĠLo ewe
SE P
ri os
ĠVN VC
ĠKhu Ã´n
end ra
ĠRob o
ĠMc D
ĠMc En
ha a
ĠOr lando
ĠAb oluowang
ĠAv anza
ĠMe nhaz
ĠHal ey
let on
ĠIS RO
ĠTod d
ĠBrook e
ĠNep tune
otter dam
ĠKey s
ĠInf inity
ĠAle jandro
ĠHav al
Ġur anium
ĠDomin ic
ĠJud y
ĠSaw aco
ĠBenz ema
ĠSpr int
ĠHad id
ĠFranco is
ĠBav aria
BID V
ĠPhen ikaa
ĠUll ring
ĠLinc oln
% -
A lex
C Ãłng
D ata
E M
G áº·p
H C
L au
M er
M ess
P GS
R a
R oy
R oland
S w
T el
U á»ĳng
V iáº¿t
V AC
b Ã©
c ol
c ore
d om
f it
g á»Ńi
g á»įi
g á»¡
h áº¿t
h ar
j j
k ÃŃch
m Ãłu
m á»¥c
m Ã¨s
n ight
p an
v iÃªm
v accine
á» ¥y
Ġc all
Ġl Ã¡c
Ġl uá»ĳng
Ġnh á»ĳi
Ġn eed
Ġg Ã³a
Ġd is
Ġp or
Ġcá» £t
Ġqu áº¡
Ġqu Äĥng
ĠH áº¡c
ĠH wang
ĠB ÄĲ
ĠB ella
ĠB ever
on ment
ĠTr ÃŃch
ĠTr ail
ĠS G
ĠS IM
ĠS ophie
au x
ĠP ET
ĠNg á»įn
ĠK aw
ĠD áº¿
en i
ĠQ CG
ĠCh op
ia ss
Ġy á»ĥ
ĠF it
ĠF ro
ĠF oot
ic ron
Ġso cola
ĠGi áº½
um e
Ġba by
ĠW ol
ĠW ick
ĠW ord
ĠE ug
ĠJ ha
us ter
Ġngá» £m
Ġchu n
ĠHo áº±ng
ÄĲ ang
ÄĲ á»ķi
ÄĲ Æ°a
Ġ19 2
tr á»Ł
Ġta b
ok u
Äĳ á»ĳt
Ġtá»ĭ nh
up ta
19 85
Ġ16 9
Ph Ã¡o
ut an
Ġ18 2
og n
Ġ13 1
kh Ã¡m
ĠSh an
eg ov
Ġxá» ı
son ian
lin k
Ġ29 9
Kh áº£o
ann i
ĠGr ie
ĠSam antha
ĠMy ung
ĠchÃ³ p
tre k
ĠCam ero
ind er
Ġ37 5
ipp i
eth er
ĠMad agascar
Ġst art
ĠAb b
Ġ196 1
ren e
ĠHer mÃ¨s
ĠMart a
ĠÆ ¯ng
ĠRos a
ĠAmer icano
ĠMC H
ĠSab eco
Al iass
enz en
ĠCen tre
ĠTur ner
ĠTur bo
ĠHealth care
ĠFil s
ĠDre w
Mar athon
red it
ĠUs ha
ĠRat ings
ĠDevel opment
Col ombia
ĠMix ue
ĠAce cook
ĠEvo que
ĠDX G
Vinh omes
ĠRey es
HÄĲ QT
ĠRih anna
agra ve
ĠDoll ar
ĠHarmon y
ĠTomato es
ĠMell on
ĠBÄĲ S
Aliass ime
" ?
A t
B YD
D á»ĭu
G em
H ub
L on
L isa
O n
T uyÃªn
V al
V áºŃy
V á»ĩ
W F
W onders
a a
d an
g n
h el
l en
l ene
n d
s berg
t iÃªm
t ide
w orth
µ m
Â ²
Ġ us
Ġt ÃŃt
ĠÄ ©
Ġv Ã£i
Ġb áº¹p
Ġb een
Ġth Ã©t
Ġh anh
Ġnh Ã¡m
Ġnh áº¥m
Ġn Ãºm
Ġg r
Ġg Ãłu
Ġch áº£nh
Ġkh áº½
Ġp art
ĠT ol
ĠT áº·ng
ĠT ecno
Ġvá» ©c
Ġchá» Ľm
ĠC od
ĠC MC
ĠV E
ĠV M
ĠV iÃªm
ĠB un
ĠB Æ°á»Łi
ĠÄĲ Ã³n
ĠL Æ°á»£t
ĠP aw
ĠNg Ãł
ĠK in
ĠK ost
ĠK FA
ĠK elli
ĠK obe
ĠD nipro
ĠNh Ã¡nh
ĠPh ys
ĠKh Ã¢u
ĠR ic
ĠR is
ĠR á»įt
ĠR otten
ĠR otterdam
ĠF is
ĠF oster
Ġná» ¡
et own
ĠW as
ĠW BO
ĠY uan
ĠO TP
ĠO per
th ong
th ai
Th Æ°á»Ŀng
tr áº¯c
tr áº¯ng
Ġ15 9
Äĳ Æ°a
Ch ia
Ġdi va
ak ura
ĠAl aw
Ġ16 4
te x
Ġ18 8
Ġ18 9
ĠRe p
ĠSt yle
ĠHu d
Ġ21 4
Ġ0 5
amp ton
co w
ĠSh aw
ĠSp ears
iden ce
io us
Ġ29 0
ĠGr iff
ĠGr igor
thá» Ń
ĠBra dy
ĠGen eva
ĠBl ake
af Ã©
ies on
ĠHe ather
ĠAv iation
ĠTV C
sh in
ĠVi ew
ĠShi eld
á»§ a
ĠJenn a
Ġ73 7
ĠEv ening
ĠFeder ico
ĠRaf a
An d
uss ier
erm o
act ive
ĠCro wn
198 4
ĠTa j
ĠSTE AM
Bá» ı
197 4
ĠKy ung
ĠGab bard
ĠAC T
ĠJam ieson
ĠCons ult
MS B
ti had
ĠGor don
ĠCX A
ĠHur kacz
ĠJoy ce
bu Ã´n
ĠFab io
umb ai
rol imex
Ġmeth ane
ĠDevel oper
ĠPoly tech
ĠBeng io
ĠEth ereum
ĠPL X
ĠFO MO
ĠMcL aren
VF M
Ġbir die
ĠChro me
ĠPhel ps
ĠGust av
ĠHerit age
Ġdep ot
ĠBrut alist
2 10
A TP
B ill
D á»¯
D á»ĭch
E H
E s
F TA
L Æ°á»£ng
L ife
N V
N Ã´ng
N Ãªn
R es
S yr
T uyá»ĥn
T iÃªm
V ladimir
W e
b ell
c Äĥng
c Å©ng
c áº¯m
c ini
h in
n Ãºt
p le
q uyáº¿t
t ion
t ama
t row
Ã įt
Æ ¯u
Ġ ace
ĠÄĳ iáº¿c
Ġv Ã¡t
Ġl á»±
Ġl em
Ġl Ã¨o
Ġm áº¡t
Ġh at
Ġh igh
Ġch Ãłm
Ġng uyá»ģn
Ġtá» µ
Ġcá» ¯u
Ġr Ãłnh
Ġr eal
ĠC ollagen
ĠC DC
ĠC afe
ĠH Ã¡t
ĠH at
ĠH amb
ĠM áº£ng
ĠM ol
ĠM ICE
ĠV Ã¡y
ĠB I
ĠB R
ĠB uch
ĠÄĲ iÃªu
ĠTr ent
ĠS ic
ĠS elena
ĠTh áºŃn
ĠP os
ĠP ink
Ġdá» Ĺi
ĠK ra
ĠG AS
ĠCh ad
Ġ5 60
or ies
ĠF ai
ĠF ur
ĠF ield
ic y
ol ingo
ĠE b
ĠE SA
ro c
us a
ĠHo mes
ĠX III
ĠO man
Ġ19 1
ad ar
ad al
th Æ°
202 8
ag uchi
Ġnhu á»ĩ
Äĳ a
Äĳ á»ķ
Tr iá»ģu
od ie
ĠZ ai
ĠZ oe
ig l
ph a
ph Ã³ng
oi r
Ġgh áº¹
Ġtrá»¥ i
Nh iá»ĩm
Ġf ly
Ġ21 5
ĠAr ch
kh uyáº¿n
ĠViet cap
eg o
ĠCon f
ĠCon t
Ġ27 5
ĠGo ur
Kh Ã³
ĠCo ach
ĠAnd res
af er
ĠRob bie
ĠReal me
ĠFr ame
lex ity
ĠArab ia
ĠBen oit
Ho Ãłn
ĠAt t
ĠSai tama
ĠMiss iss
ĠHD R
ĠPat ric
ĠShi b
ins ey
ĠGeorg etown
ĠJenn ie
ĠComp et
uc anu
ĠDis play
ĠHS K
ĠNe u
ĠVCB F
cl iffe
ĠHealth line
ĠNav ig
ĠWat son
mark et
Bar celona
ĠJay oung
ĠAug er
ĠDol by
ĠAth ens
Há» ©a
Ġghá»ģ nh
ono id
ĠTro ussier
âĢĭ âĢĭ
Euro pa
Ġfe el
ĠPed ro
ĠGlor y
Os car
pris e
Ġest rogen
ĠWars aw
ĠCong o
ĠThund erb
ĠElli ott
ĠATA CMS
ĠKush ner
ĠExplor er
Ronald o
ĠKentuck y
ĠPog ba
ĠFergus on
Lon don
ĠPolytech nic
7 80
F S
G á»Ńi
G rab
K iá»ĥm
K ur
L E
M Æ°a
N eo
N ap
P i
Q R
S M
U P
V Æ°á»Ŀn
d Ã¹ng
f un
f ort
f ood
h áº¡n
h or
h iá»ĥu
h Ã²a
k Ã½
n at
s et
t Ãºi
v ÃŃ
v on
x Ã¡c
y thing
Ġ á»ķi
Ġ áº¯ng
Ġ et
Ġ idol
á» ī
Ġc áºŃt
nh Æ°ng
Ġl Ã³ng
Ġtr áº¥u
Ġth ere
Ġs hip
Ġs he
Ġm á»ĭ
Ġm Ã³p
Ġm Æ°á»Ľn
Ġch Æ°
Ġd iÃªm
Ġd áº¹t
Ġng áº©ng
ĠN CA
Ġx y
Ġr Ãºng
Ġr Æ°Æ¡i
ĠC áº£o
ĠH á»Ļ
ĠB Ãłu
ĠB reak
Ġmá» Ľ
ĠÄĲ áº¡m
ĠÄĲ áº©u
ĠTr ai
ĠS apa
ĠL ip
ĠK ol
ĠG á»įi
ĠNh áº«n
al ine
ĠCh au
ia h
or g
or ph
ĠI U
ĠI ron
ĠI MO
Ġ4 40
ĠR and
ĠF ant
ĠF PV
ĠE o
ĠJ AXA
ĠJ BL
ĠHo cmai
ĠO ak
ing le
th ÃŃ
th áº©m
Th Æ°
Th ÃŃ
Th am
Ġtho áº£
and haa
ag ship
Ġ15 2
Ġ15 7
ed o
ĠdÃ¹ i
ĠZ ulf
Ġgá» £n
Ġáº µm
Ġ18 00
ĠThu á»³
Ġcam ping
Ġ17 2
Ġ17 7
ĠSt u
ĠSt orm
ĠSt acy
est a
gi Ãłu
ĠHu go
ĠAr yna
Ġthá»¥ t
Ġly cop
qu áº£
ri pt
ĠDu Ã¢n
enn es
ec amex
aly mpic
ĠGr imes
ix on
chá» ĳt
iz er
ca fÃ©
Ġma f
ĠDe ux
ĠMon s
ĠGal atasaray
ĠSer um
ĠSer ena
ĠPal trow
ug ge
BS CL
ĠHe ath
ĠFor ester
lá» Ľn
ĠHan wha
ĠSeo k
ĠEs tonia
une i
ĠKat z
els berger
erm in
198 1
ĠBur iram
ĠJer ry
ĠJer emy
Ġpl ug
Lá» £i
ĠBos s
ĠDen is
ĠKy oto
ĠHel io
ĠBet sy
ĠTan zania
ĠYu anta
log ger
ĠBir kin
gg nan
ĠGun ma
Ġá»Ĳ ng
ĠBoy s
ĠNhá»ĭ p
Khá» Łi
Ġsand als
Ġbot ox
ĠRud iger
Ġsmart watch
ĠVick y
ĠMcK insey
ĠSqu are
ĠStat ista
hong shu
ĠWag ner
ĠCounter point
ĠPitts burgh
ĠFrid ay
Ġglu c
ĠFis cher
Syr ia
ggnan andhaa
D e
H ope
I Q
L A
R at
S UV
T uyáº¿n
T Ã¬m
c Ã¢n
d Æ°á»¡ng
e ong
h ee
j k
k n
k or
l Æ°á»Ľt
m u
m Ã¹ng
r Æ°á»£u
s ay
s or
t áº§m
v iÃªn
y g
z z
¨ n
Å į
Ġ Ã¹a
Ġ ed
Ġt one
Ġc rypto
ĠÄĳ Ã¡u
Ġl iÃªu
Ġk Ã¬
Ġk iá»ĥng
Ġb á»Ł
Ġb áº¿t
Ġm Ã¡ng
Ġnh Ã¡
Ġnh Ã¡p
Ġnh á»į
Ġnh áº½
Ġn u
Ġch Ã¡t
Ġch áº»
Ã³ e
Ġp eople
ĠT ong
ĠT ats
Ġx Ã¹
an te
ĠC E
ĠC ran
ĠC ES
ĠC atherine
ĠM Ã¢u
ĠV iÃªng
ĠV erg
ĠV Ã²m
ĠB áºŃt
ĠB ed
on in
ĠTr áº¡ng
ĠS Ã¡t
ĠS ym
ĠA w
ĠL Æ°á»Ľi
ĠL ion
ĠL DP
ĠTh Ã´i
au rant
ĠP ir
ĠNg á»±
ĠK BC
ĠK ei
ĠG antz
ar han
Ġhá»Ļ t
ĠCh un
ĠPh áº¥n
ĠU BS
Ġ5 80
Ġ4 10
ĠR alph
im t
im ov
Ġnhá» «
et o
ic le
ĠkhÃ³ e
ĠY ellow
ÄĲ á»ĵ
ÄĲ Ã¡nh
ÄĲ áº·ng
ĠO ur
Ġ19 48
ad ium
ur ger
tr Ãºng
Ġta ke
ov al
ag ne
ap olis
ed er
Äĳ áº£ng
Äĳ áº¥u
Ch Ãº
Ch Ãło
Ng hi
ir c
av es
ĠNew dick
Ġ13 9
ĠLu Ã´ng
ck y
if ul
Ġ24 7
ers h
ĠmÃª nh
ri x
ĠDu olingo
ast in
ud i
ĠBr on
thá» §y
Qu áº£n
old s
ek o
ĠGar min
ha q
ĠSun ny
Con nell
ĠHe ad
ĠWe ng
ĠPaul ette
ĠGS MA
ĠIns ide
ins tein
Ġ195 8
ĠEs c
ĠGer rard
ĠUnivers al
erson al
Ġhot line
ĠAM VNX
ĠPra ggnanandhaa
we ight
ĠSouth ern
ĠKy iv
ĠSel ect
ĠMach ac
ĠJoseph ine
ĠKir in
ĠEconom ic
ĠAth ena
ĠRang er
Mas ter
ĠIR CC
ĠPear l
ĠBritt any
ĠtrÄ© u
My anmar
Ġhel i
vir onment
hle igh
Ag ribank
Ġcr Ã´m
ĠeS ports
ĠVillar real
ĠMcEn roe
ĠPatric ia
ĠZulf arhan
Rat ings
3 80
7 90
B iá»ĥn
D H
F N
H uyá»ģn
L and
N o
P ost
R F
S á»Ń
S afe
T e
T im
T uá»ķi
c á»¥
h áº¡t
l Ãª
l á»Ĺi
n ik
p at
s ol
t am
t it
u f
v á»ĭ
w oo
Ġ áº¯p
Ġc Ã¹i
Ġc ook
Ġc ase
Ġl áº£
Ġl iá»ģm
Ġth ink
Ġs Ãł
Ġh uyá»ĩt
Ġnh eo
Ġkh áº¥n
ĠT ung
ĠT iá»ĩc
ĠT ah
ĠT yler
Ġph Ã¡ch
ĠN O
ĠN Ã©t
ĠN ut
Ġx Ãºi
ĠC Ãłn
ĠC á»į
ĠC ris
ĠH ao
ĠH TV
ĠH ernand
ĠM ack
ĠM ish
ĠM ode
ĠV all
ĠV US
ĠB á»ĳng
ĠÄĲ áº¡p
ĠS á»ķ
ĠS iam
ĠS ime
ĠL á»ĳp
in ol
ĠTh ong
ĠNg ai
ĠK iss
ĠD G
ĠD ana
ĠNh áº¥n
al ina
ĠCh iá»ģng
ĠU H
ĠI BA
ĠR á»Ńa
Ġná» ©a
as sky
ĠÄĲá» ģn
id ent
it as
ĠJ W
ĠJ ai
ĠJ CB
Ãµ a
Ġrá» £p
ÄĲ á»ĭnh
il o
il t
th al
un Ã©
... "
ot or
Äĳ áº£m
Äĳ á»«ng
Äĳ á»§
Tr á»Ł
Tr iá»ĩu
ĠIn c
re am
ĠDo ge
Ng h
ĠZ ur
ph áº¡t
Ġ18 5
Ġ14 2
á»ĩ ch
ĠTu l
ul ife
if a
ich ai
ĠPro tein
ĠDu al
mp ho
ec tor
ĠMan cini
ĠSin aga
ĠVin ac
ĠIt o
iz ed
igh ton
ĠCol d
ĠGD PT
Ġmai l
ĠBl air
ail ash
ĠDe ng
ĠhÃ² m
ĠSte f
ĠPl atform
ĠMad ame
Con tinental
Ġa er
ĠHe in
ĠMin io
lá» ĩnh
ĠEuro pe
over y
ĠZh u
ĠThom son
Ġ195 6
ĠEs p
ĠTw o
ĠTa ek
ĠPra d
ĠDr ive
ĠOm ni
ĠKel ce
fl av
ĠEver g
ĠHigh lands
ĠBM I
ĠHill ary
ĠUr s
ĠClau dia
ĠSav ills
ĠMah al
Ġpoly phenol
ĠTia hleigh
ĠFel ix
ĠDal ia
Car lo
encia ga
ĠKham tay
ĠWom an
ĠHamp ton
ĠTrip ad
ĠBh utan
ĠNao mi
Ġfre el
Ġaf ter
ĠCrist ina
ĠKus haq
ĠLac ote
Hung ary
ĠMile i
ĠKits unÃ©
ĠSald a
ĠCarpen ter
ĠThunderb olt
3 40
6 30
B áº§u
B ike
C F
F al
H uy
H ay
H Ãłm
M a
N Z
N e
N ÄĲ
O P
P SG
R A
R ub
S áº¯p
b ara
b lad
c ess
d il
d otel
m Ã¬
n á»Ĺi
n Ãºi
p y
r igo
u ana
v erse
y uki
Ġ Ã¹
Ġ ass
ķ n
ļ t
á» Ľ
Ġc Æ°á»Ŀm
Ġv Ãºt
Ġv ery
Ġv áº¹o
Ġtr Ã¡o
Ġb áº·m
Ġs chool
Ġm Ã¡ch
Ġm ash
Ġh al
Ġh áº¡c
Ġh Ã¨n
Ġh atch
Ġnh áº§y
Ġnh áºµn
Ġn ight
Ġn eu
Ġg anh
Ġch Ã£i
Ġng uÃ´i
ĠT ED
ĠT IME
ĠN áº¥u
ĠN ur
ĠN ish
ĠN FL
Ġqu áº§ng
ĠC Ã¡o
ĠC ed
ĠC ul
ĠC raw
ĠH Ãłi
ĠM iá»ħn
ĠM entor
ĠM endy
ĠM umbai
ĠV MAs
ĠB ert
ĠB orn
ĠB rist
ĠB QT
ĠS Ã¡c
ĠS ee
ĠA xi
ĠL uyáº¿n
au me
ĠP ie
ĠK Ã©o
ĠK ier
ĠK abu
ĠD ag
ĠD á»ħ
ĠG at
ĠG PBank
Ġtrá» ı
Ġsá» ĵi
ĠQ ing
ĠCh Ã¡y
Ġá» Ķ
ĠKh Ã¢m
el ka
ĠÃ ģn
ĠF SB
is u
at eg
Ġtrá»£ n
ĠQu áº¡t
ĠQu eb
ĠE B
ĠkhÃ³ m
ĠHo m
ĠY ao
ĠY oko
ĠX Ãł
ĠO pp
ĠNgo an
202 9
ur ance
ĠZ am
ob yl
iv ol
ĠLe Bron
ir m
ly s
ĠRe yn
Ġo x
ul can
ĠHai ley
ess en
ĠJo on
Ġ0 3
ers t
ers in
st ick
ĠSp eed
ĠSp assky
Thá» ĥ
ach ine
und olo
ge i
ĠAnd r
Ġhu á»·
pe are
oy a
Ġvá»ı n
ĠYou th
ron t
ĠBill ie
ĠSon et
ĠWe iss
ĠXiao hongshu
ĠMer z
ĠLam ine
Ġj ust
oc us
ĠZh ong
IC EF
ĠGer man
pr ing
ĠPa et
ĠSmith sonian
ĠNe ural
ĠOm ega
197 3
197 7
ĠTO EIC
ĠMate Pad
ĠNic ola
ĠCre am
ĠMcC art
âĢĿ .
ĠKn ox
ĠFu ji
CK I
ĠAk ita
oni q
ĠPrinc ess
ĠNS Æ¯T
ĠWeek ly
ĠWay ne
ĠVui hoc
ais al
ĠStarb ase
ĠRoll s
ĠRun ner
ĠWW D
As ia
ĠPS V
ĠKitt y
ĠBrid ge
ĠMain ichi
ĠGlor ia
ĠLinds ay
ĠPier re
ĠBog ota
ĠFish er
ĠVent ures
ĠRiv era
Ġtul ip
Ġflav onoid
biot ic
akes peare
ĠRams ey
ĠMoll ie
ĠPerp lexity
ĠLeop ard
Ġyá»ĥ m
ĠPaw el
ĠSic ily
ĠMississ ippi
Kur sk
Ġmaf ia
ĠHernand ez
ĠSime one
ĠTripad visor
9 50
D a
D i
D á»±a
G old
H Ã³a
L áº¡ng
M ake
M BA
N adal
P op
R os
S m
T am
T alk
b iá»ĩn
c umin
d r
f ire
g rade
h áº£i
h iáº¿p
k at
k áº¹o
m ara
n Ãªn
s am
s á»Ń
t á»ĳc
t Ã´m
v ie
w ald
z ar
Ġ Ã¬
ng on
nh a
nh iá»ĩt
ĠÄĳ Ãºt
Ġl Ã¬nh
Ġl Ãºt
Ġl áº¡p
Ġl Ã¹m
Ġtr Æ¡
Ġth Ã¡n
Ġs am
Ġs ÃŃnh
Ġm om
Ġn ail
Ġn áº»o
Ġg raph
Ġch Ã¹n
Ġd Ã£i
Ġp iston
ĠT C
ĠT all
ĠT urn
Ġph áº£
Ġgi Å©a
ĠN iá»ĩm
ĠN om
ĠN anyang
Ġx á»ĳt
Ġr áº¡
Ġr em
ĠC II
ĠC AR
ĠH ank
ch ant
ĠM T
ĠM end
Æ°á»Ľ m
ĠB Ãª
ĠB ast
ĠB lock
Ġmá» ĵng
Ġ2 19
ĠTr ack
ĠS ÃŃnh
ĠS OS
ĠA ff
ĠA ero
ĠL A
ĠL ed
ĠL ara
ĠNg Ãłi
ĠNg á»¥y
ĠD rone
ĠD á»«a
er i
Ġtrá» ĵi
ar ly
ĠQ i
Ġ20 6
Ġbá»ĭ u
Ġbá»ĭ ch
ĠNh áºŃm
Ġtu á»ĵn
ĠCh Ãł
ĠCh áº¿t
Ġcon cept
ĠKh ao
ĠKh Ã¡i
ĠR TX
ĠF ut
et e
et y
as berg
is tr
ĠTheo d
ĠW iz
it ano
ĠE P
ĠE is
ro u
us at
Ġ9 30
ÄĲ a
ÄĲ áº·t
Th Ã¹y
tr á»©ng
un way
ĠTá» ģ
ĠTá» §a
Ġ15 6
Äĳ áº¡t
Äĳ Ãºng
Tr Æ°a
Ch im
19 70
ĠLe ica
Ġai r
ui re
ĠLan e
og ey
ĠMar i
ĠBá» ģ
art z
Ġf lo
Ġ24 5
co urt
ĠSh ane
ev o
ĠCar uana
ĠPar ag
qu áº§n
ĠGo th
ri es
Ġ35 5
ĠVin Wonders
Qu Ã½
ber ia
ĠMas on
net te
ĠDe port
ox in
ĠGal actic
ind h
ĠLy nette
ĠSun ak
ĠMos cow
ĠEU R
ĠBo om
go zou
ĠHD MI
MA RT
ĠAss oc
ĠShi ite
uz zo
ĠSaigon tourist
Kho áº£nh
Ġbo a
qua t
ĠWall ace
ĠAnton ella
ĠDa e
ĠStud ios
ĠJan eiro
Ar n
Ar t
ĠBal enciaga
ĠWin Commerce
ĠAf r
ĠRay mond
ĠRad ucanu
ĠAbd el
ĠGor unway
ĠChand ler
ĠReb el
ĠCer undolo
ĠPep si
Bl ue
aac ute
ĠWhit ney
ĠLiv elsberger
ĠHow ery
sp ital
ĠDh abi
ĠFreder ik
ascar a
ĠFriend s
ĠEss ex
ĠLenn on
ĠSoy uz
ĠSwe et
alur onic
ĠTats uya
ĠQueb ec
) ".
3 30
5 70
7 60
B Ã¡n
B enz
C Äĥn
C áº·p
C ash
F DA
G P
H I
H AG
K á»·
M L
M Ã´i
M il
N ov
N ATO
P er
S tr
U R
b áºŃt
c ung
d n
d Ã¹
d ale
h all
h ail
k ÃŃnh
l ai
l ives
l ava
n em
p i
p ic
s á»ķ
s ha
s ide
s áºµn
v et
Ġ inh
Ġt Æ°Æ¡m
Ġc á»Ļm
nh u
Ġv Ã£ng
Ġl áº·t
Ġl ast
Ġl ife
Ġtr iathlon
Ġb áº§n
Ġb iáº¿c
Ġth Ã¹y
Ġs iÃªng
Ġm id
Ġm Æ°á»Ľp
Ġm ascara
Ġh áº¯c
Ġh Ã©o
Ġnh Ã£o
Ġg Ã¡p
Ġg ra
Ġkh Æ°á»Ľc
Ġd ance
Ġng á»ĳn
ĠN un
ĠN ation
ĠN á»§
ĠN ishi
Ġr Ã¹ng
Ġr Ã´m
Ġr ob
Ġchá» Ļ
ong tar
an in
ĠC ay
ĠC á»ĵn
ĠH O
ĠH ua
ĠH az
ĠH ik
ĠH á»±u
ĠH ale
ĠM ÃŃ
ĠM andy
ĠV a
ĠV ive
ĠV SIP
ĠB it
am our
ĠÄĲ BSCL
ĠTr áº§m
ĠTr iton
ĠS ad
ĠA A
ĠA K
ĠA ileen
ĠL P
ĠL ie
ĠTh Äĥm
ĠP Ã©
ĠP om
ĠP oi
ĠP ath
ĠP SA
ĠP ura
ĠK ot
ĠK ub
en istan
Ġ20 3
Ġ20 7
al ez
ĠCh uá»ĳi
ĠCh ase
Ġká» īnh
Ġlo e
or es
ĠI z
im is
ic ester
ol ution
ĠW iki
ĠE a
ĠE y
Ġ7 80
Ġ9 999
ĠX en
ĠX á»©
ne a
Th áº§n
Th áº±ng
tr ao
tr á»įng
ĠAn field
Äĳ un
up ai
ĠAl p
ion al
ĠTo uch
Ġ18 1
ul i
ĠHai ti
Ġ21 7
ĠAr k
ĠThe y
ĠSh am
ĠSh im
ĠSh adow
ĠPar alympic
qu Ã½
qu ar
aw an
iz u
ib u
ĠQuy en
sky i
ĠMon a
ĠVietnam ese
po or
ug ar
ĠPr est
ĠEx cell
Con nect
ier ra
SS C
ĠHe at
ĠCom ac
ĠSe ong
ks poor
ĠCai ne
ĠMil a
ĠMil o
ĠMer chan
ĠMat er
ĠNor man
ĠGold berg
km enistan
Ġ195 5
ĠHa e
ĠPa j
ĠJim ny
men ia
198 7
enz el
let e
ĠWh en
ĠWin Mart
Ġxáº» ng
ĠYu en
ĠRy zen
CK II
IV F
met ry
ĠBol t
ĠPri ze
ĠPrinc es
JI CO
cam era
ĠSho igu
ĠDiaz ien
ĠPeg gy
Ġgo ing
ĠSL NA
ĠKer gozou
ĠLiv ely
ĠSix th
ĠVes ak
ĠRec ord
Ġmeth anol
hol m
ĠTM T
ĠRoth ko
ĠCG V
ĠNiel s
ĠOrgan ization
Ġtur bo
ĠFiin Ratings
ĠGonz alez
ĠTher esa
Ġkil omet
ĠMiy azaki
ĠSpir it
ĠScient ist
oste bol
ĠAssist ant
ĠPeters burg
ĠSihanouk ville
ĠChern obyl
Ġfashion ista
ĠInstit ute
axo phone
ĠCarn ival
ĠGrie kspoor
ĠHud son
ĠShib uya
ĠDoge coin
Ġhatch back
ĠBrist ol
ĠDeport ivo
Arn old
ongtar n
4 60
5 40
7 40
8 90
A GI
B o
B iÃªn
C DC
D uy
D Ã¹ng
H iá»ĩu
K H
K ai
L Ãłn
M el
M áº¡ng
N ic
P ark
P ower
S á»¯a
T W
V D
W I
b iÃªn
d el
g r
g ian
g ow
k r
k ed
l á»±c
m ay
m ag
m ir
n ow
o or
s á»ĳc
t ics
v ideo
x em
y uan
Ġ av
Ġ if
Ġ end
á» £t
Ġt w
Ġt art
Ġc áº³ng
Ġc ad
Ġb anh
Ġs Ã´
Ġm axi
Ġh áº¥n
Ġch arm
Ġkh iÃªn
Ġkh Ãłn
Ġp a
ĠT áº¥u
ĠT ian
ĠT itanium
Ġph áº©y
Ġhá» ī
ĠN á»ĳi
ĠN az
ĠN eg
Ġx áº¹p
Ġr uble
Ġchá» «a
ĠC ua
ĠC ra
ĠC ot
ĠC ob
ĠH á»ĵn
ĠH SA
ĠH end
ĠM ech
ĠM eng
Æ°á»Ľ u
ĠV Ã¢u
ĠV áº½
ĠV CK
ĠV ulcan
ay ama
ĠÄĲ au
ĠÄĲ á»ķ
ĠS ylv
ĠA J
ĠA V
ĠA po
ĠL ÃŃa
ĠTh iá»ģn
Ġho odie
ĠÄĳÃ³ a
ĠK v
ĠK ap
ĠK od
ĠK av
ĠK ara
ĠK ailash
ĠD ew
Ġphá» ī
ĠG O
ĠG Ã¡nh
ĠG áº¯n
en bau
ĠCh Ã¬
ĠPh arm
Ġto Ã¡i
Ġá» £
Ġ5 10
ĠI oniq
Ġ4 90
ĠR Ãºt
ĠR ivers
ĠR aven
im oto
ĠF ah
ĠF ore
ĠF itch
as oy
ĠQu á»·
ol ai
id es
ĠE un
ĠE iff
ĠJ ag
Ġ8 10
Ġchu á»ĵn
ĠX C
ĠO ECD
Ġ19 37
ac ing
ĠAn k
os un
ov an
ok h
od on
ĠZ i
ent in
Ġ16 1
ĠLe icester
Ġ18 7
ĠMar jor
av ia
ĠRe ad
eb e
Ġf riend
co o
ĠSh akespeare
ĠMus ang
ĠChi ba
ud ential
ram er
In ternet
Kh Ã¡c
ĠBr unei
ĠGu an
ain s
ĠMy ers
ib ia
Gi áº¥c
ĠCl ara
ĠChu á»Ļt
ym er
ĠAlex andre
ĠBo asberg
ĠKhá» ķng
ĠWill is
FA CA
ĠKar im
Ġfor m
ĠMag gi
ĠFl ash
phá» ¥c
ĠRichard s
ĠCharl otte
ĠGer ald
ĠYam aguchi
TH CS
erm ont
ĠTon ya
ĠBur g
ĠNat alie
we ather
ĠDar ren
ĠChampionship s
unt down
ĠNorth w
ĠMod ern
ĠMod ric
biz a
ĠBai ley
ĠLor enzen
ĠBrit ney
ĠSign al
aton in
Ġmin imis
IP O
ĠChar ter
ĠNar endra
ĠElec tron
oit te
Mag ic
ĠPrag yan
ĠFac tory
ĠChamp a
ĠPao lini
ĠMine craft
viet nam
ĠCi ara
ĠLad akh
ĠAthlet ic
ĠKend all
Ġtab let
ĠCamero on
Ġlycop en
Ġgluc ose
ĠZur ich
ĠUrs ula
ĠReyn olds
ĠPaet ongtarn
ĠPÃ© rez
ĠEiff el
ĠMarjor ie
1 12
7 70
9 60
? .
A FC
B á»¯a
C Äĥng
C ross
D AR
E SG
H ol
L áºŃp
L ove
S áº¯c
T ai
T imes
V Æ°á»£t
W C
e imer
f ish
l Ã¡
l Ãłng
l eo
l á»ĳi
l Ã£nh
l ash
m áº¡nh
m ingham
r á»ĳi
r áº¯n
r ates
s ong
w eg
y áº¿u
Ġ Ã¡y
á» §ng
Ġt ar
Ġt Ãºp
Ġt itanium
nh anh
Ġl Ã¹a
Ġtr Æ°á»Ľng
Ġb ogey
Ġm idi
Ġh and
Ġn Ãºc
Ġn Ã¡y
Ġg ood
Ġg ames
Ġd em
Ġd rama
ĠT áº¯c
ĠT it
ĠT able
Ġph iá»ĩt
Ġvá» ī
Ġvá» ±a
Ġcá» ıi
ĠN ina
ĠN ice
ĠN HK
ĠN ixon
Ġr Ãª
Ġr áº§y
ĠC K
ĠC ut
ĠC yr
ĠH Q
ĠH r
ĠH SG
ĠH ep
ch Ãº
ĠM á»±c
ĠM ei
ĠM ult
ĠV ass
ĠB E
ĠB au
ĠB á»ĵn
ĠB ose
ĠTr am
ĠTr oss
ĠS ey
ĠS AM
ĠS aka
ĠS afe
ang er
ĠL un
ĠL unch
ĠL FP
ĠTh áº¥u
ĠTh ani
ĠTh reads
ĠP R
ĠP f
ĠP VN
ĠP VI
ĠP ichai
ĠK ip
ĠD Ã¢u
ĠD áºŃu
ĠD ame
ĠD á»¥c
Ġphá» Ľ
ĠG upta
Ġ20 4
ĠCh es
ĠCh Ã¨
ĠU MB
Ġá» ¦
ĠKh Ã³i
ĠI AE
ĠI biza
es ar
Ġ4 70
ĠR Ã¹a
ĠR ie
ĠR ost
Ġlu á»¹
ĠThá» £
20 31
ĠGi r
ĠQu inn
ol s
id el
ĠW ake
ĠW ash
ĠE CB
us se
ra z
ĠHo áº¡ch
ĠHo spital
ĠY uk
ĠY ersin
Ġrá» ¥m
il ience
ĠO ver
Ġphá»ĳ t
th an
ĠNhá» ķn
Äĳ Ã²n
Ch rist
od ay
Ġ16 7
ĠLe i
ut in
Ġáº ¨n
ĠThu á»Ł
ex us
Ġ17 3
Ġo xit
Nh a
gi Ãł
Ġi BT
Ġ21 3
TP HCM
ĠAr menia
op ol
ĠLá» «a
Ġly mpho
eg rine
ĠSp ac
ĠCar ibe
lin s
ĠEm ery
ĠâĢ ĭ
ĠBar n
aw k
rid e
Ġ33 3
ĠSer gio
ipp on
ĠPr im
ĠPr ince
ĠArab ica
ĠEr d
ĠFran z
com a
ĠGreen e
ĠChrist a
FA A
ĠMer ck
esh k
Ġj ack
ĠDel oitte
ishi ng
Ngo isao
dro p
ĠDr or
ĠMarc os
ĠBook ing
197 2
ĠDom mara
ĠDen ver
raph y
ĠTur kmenistan
ĠLyn n
ĠAT O
ĠKo h
ĠIC T
ĠKir by
ĠWind sor
CL A
ĠKaz uo
ĠAbd ul
Star ship
ĠBir mingham
lyn n
ĠVel ma
ĠGener ation
ĠMen ard
won do
ĠAst ro
enh eimer
ĠSecur ity
ĠJacob s
ĠHack athon
ĠDor othy
ĠHum bert
Ġsand wich
bas ed
Ġtal uy
ĠNova World
Ġur ic
ĠLit va
Mag nus
ĠSund ay
ĠEll en
ĠFreder ic
ĠBritt an
Or Ã©al
tho Ã¡t
ĠBarry more
ĠByr on
ĠWen feng
ĠMaj eed
Geo metry
ĠIndustr ies
Ġes presso
ĠQin wen
ĠLanc et
ĠUni qlo
ĠStock holm
ĠNG AD
ĠToshi ba
ĠMig uel
ĠMund o
ĠAki ra
stant in
ĠScholar ship
flu encer
ĠHau te
ĠGwang ju
ĠChas ov
ĠPrad esh
ĠGat eway
ĠPrest ige
ĠTross ard
ĠDommara ju
0 80
4 80
7 10
9 90
B á»ĵ
B el
C ell
G erm
I CC
J oy
K ylian
L ear
N iá»ģm
Q ue
S a
S p
S Ãłi
T Æ°á»Ŀng
U SA
W ar
b Ãªn
c ic
c Æ°á»¡ng
l á»Ļt
l Ã£o
m ine
n ch
n á»Ĺ
p amine
r iev
r umors
t uyáº¿n
v an
v Ãłnh
y bara
Ġ und
Ġc Ã¢m
Ġl áº¡y
Ġl and
Ġl Æ°á»£m
Ġk cal
Ġb oy
Ġs ee
Ġs axophone
Ġh uyÃªn
Ġnh Ã³c
Ġnh Ã²e
Ġg áº¥c
Ġch uá»ĳc
Ġkh a
ĠT áº¡m
ĠT ake
ĠT oney
Ġcá» Ĺi
Ġr áº£
Ġr ed
an or
ĠC BC
ĠC ake
ch ol
ch iáº¿c
ĠM iÃªn
ĠM Ã¹ng
ĠM uá»ĳi
ĠM ore
ĠM eth
ĠM endo
ĠV ey
ĠV ital
ĠB TS
ĠS á»©
ĠS AB
ĠA PT
ĠL Ã´i
ĠL á»³
ĠL á»ĭnh
in en
ĠTh Ã¡c
ĠTh orn
au st
Ġho en
ĠP end
ĠK ill
ĠK arl
ĠK aci
ĠD á»ĭu
ĠG V
ĠG ross
ĠG uev
Ġtrá» ĵ
ĠQ ian
al Ã´
ĠCh ao
ĠU C
Ġlo ang
Ġ5 30
ĠtÆ° ng
ĠI PS
ĠR ain
ĠR uiz
im ate
Ġngo áº¡m
ĠF ad
ĠF itz
Ġ6 30
is k
Ġso met
ĠGi Ãł
ĠQu oc
Ġ7 90
ĠJ al
ĠJ ens
ĠY ak
ĠX ong
ĠX Ã³m
ĠX EC
ÄĲ Ã¡m
Ġ19 36
Ġ19 47
Ġ19 43
ne z
th áº¡c
th Ã©p
th ers
Ġcá»ĳ m
tr á»ĭ
tr áº§m
tr and
ĠAn to
ap t
Ch áº¿
Ch Ãłng
ĠZ an
ig ame
ig lycer
ard i
Ġ25 5
ĠKho Ã¡i
ab ad
ab aby
ill on
ee v
Ġw ere
gi Ã¡m
ĠHu ff
Ġf irst
ĠAr ne
ich t
ĠNgh inh
ĠCan on
Ġ22 6
st ell
st ance
Ġ23 6
Ġxo ong
ĠLo a
ĠAm elia
ĠvÃŃ u
ĠEm ail
ant ino
ĠCo uture
ann ix
ĠGu zman
rid ge
Chá» įn
Ġhu Ã¢n
ib as
con i
af ia
ust ic
ĠMal ta
ens ori
ĠStar s
per o
ĠTS T
ban a
ĠChu ck
ĠMac rumors
ĠGl as
ĠAng ola
Ho Ãłi
ĠOr ch
ĠFor ex
ĠPer f
ĠPer egrine
ĠMel vin
ĠÄĲá»ģ u
lá» Ĺ
oc ia
ivers ity
ĠRos ario
ĠSport mail
AC V
ps os
ĠKat o
ĠMS D
ĠPan am
ĠMe et
ĠHal le
ĠHal ep
GA P
ĠBeck er
oe ing
ĠWeb b
Ġcl oud
ĠOm icron
ĠKe ir
ever ance
ĠColum bus
ĠDra ke
ĠId zes
ĠRock y
mon ella
ĠMet als
ĠPas cal
ĠLaz io
ĠAle ks
Ġnano e
ĠAlf onso
ĠCollin son
ĠMont ana
ĠDmit riev
Ġder by
ĠCle an
ĠDef ender
ĠMap le
ĠPav el
tim ate
Ġmel atonin
ĠSof ia
ĠEmil ia
ĠGuill aume
ĠXi ang
ĠHans i
Ġboong ke
ĠOla f
Rob ert
Amer ican
Ġgar age
ĠLis bon
ĠYah ya
ĠMcD owell
Roy ce
ĠGour mand
Nap as
ĠStu art
ĠMcCart ney
ĠParag uay
Nov aland
nem outh
Ġrob usta
ĠSAM P
ĠBrittan ee
Germ ain
ĠMendo za
' ll
6 60
C á»ĳ
C áº©m
C are
F r
H Æ°Æ¡ng
H Æ°ng
M áº¥t
M Ã£
M PV
N ick
N á»¥
O CB
Q atar
U y
b á»ķ
b el
b oy
c á»Ĺ
d Ãłnh
f ess
f ree
f riend
h ang
h áº§m
h ui
h áº¹n
h elia
k em
k Ã©o
m Ãłn
m iá»ģn
m ut
p rom
r ia
s Æ°
t own
t ango
v ig
w ick
w orld
w ear
w yn
w ave
x ung
x Ã¢m
Ġ away
ng ay
ng á»įn
Ġt Äĥn
Ġt áº¡nh
Ġc á»Ļc
Ġc redit
Ġv áº©y
Ġl áº¡ng
Ġl ed
Ġl Ã¢ng
Ġb áºŃp
Ġb ol
Ġs kin
Ġs ingle
Ġm iáº¿u
Ġh ealth
Ġn Ã¡ch
Ġn oi
Ġn áº¥ng
Ġg áº¡c
Ġg reen
Ġd id
Ġp oster
ĠT Ãºi
ĠT ori
Ġgi Ã£y
Æ¡ ng
ĠN el
ĠN ou
Ġx iÃªm
Ġqu Ã¡ng
ĠC SI
ĠH A
ĠH uá»ķi
ĠH art
ĠH BO
ch on
ch áº¥m
ch io
ĠM D
ĠM Ã²n
ĠV O
ĠV Ã¡n
ĠV PS
ĠB ab
ĠB iz
ĠB aka
anh a
ĠÄĲ áº¥y
ĠTr á»ĵng
ĠTr ib
ĠS anh
ĠS ek
ĠS tream
ĠS ierra
ĠL al
ĠL ott
ĠL VM
ĠP ew
ĠP ack
ĠP ages
ĠK au
ĠD ing
ĠD aw
ĠG ui
ĠG á»Ĺ
er man
en ue
en sen
Ġdo pamine
ĠCh Æ¡n
ĠCh Ã¨o
ĠPh Ãª
ĠPh Ã¬
Ġcon dotel
ĠU go
Ġlo ok
Ġ4 99
ĠR ong
ĠR andy
ĠF ern
em i
ĠGi áº£n
ĠGi uá»Ļc
ĠGi gi
ĠQu ick
ĠQu á»Ľi
Ã¨ res
ĠW A
ĠW ins
ĠW edding
Ġ7 70
Ġchá»ĭ t
ĠJ ian
Ġchi Ãªng
Ġ9 90
ĠHo ff
ĠY ass
ump h
ĠO ri
ad ze
ĠChá» Ĺ
ac ity
os se
ov ax
ov ern
ap e
Äĳ iÃªn
Tr á»Ŀi
Ch Äĥm
Ch áº¡y
ĠAl ba
ĠAl isson
ew on
ĠZ ell
19 69
ob el
ig ai
ig el
iv ier
ph Æ°á»£t
ph abe
ĠLe vel
ard in
og an
ah l
ĠMar lene
av erse
ĠLu ang
ĠLu la
Ġ24 1
Ġ0 7
sk helia
ĠNgh Ã¨
op y
ĠXu an
ĠMai ka
ĠSh en
ĠSh awn
Ġ23 2
ĠCar Play
Ġxo Ã¡
Ġ26 5
ĠPar ibas
ez e
ĠSo phia
du ction
ĠEm bra
ĠMan ulife
Kh Ã¡n
da e
ip a
ĠBar nes
ann ou
aw i
ach ing
ĠSc al
yl ene
ĠAnd ye
Ġmu á»Ļi
CS IS
Ġweb cam
ett ner
Gi áº£m
ĠDav ao
ĠFr ench
ĠDi rect
ĠPal mer
ĠMac an
ĠGl ad
mi le
ĠEr ling
ĠRo cc
ĠTN T
ĠHe ung
ĠBu ettner
ĠJe on
he ad
ĠUl timate
ĠSe ine
ĠVan ngo
ĠBill i
ĠSu arez
ĠMi rai
ĠLau rie
ĠMat hi
ĠSal e
ĠShi lie
ĠSport ing
ĠMichel sen
gen y
TH E
ign ment
yan ua
enz ie
ĠWeb ster
Ġcl ostebol
ĠDar yl
ĠDar win
197 1
197 9
Ġbe auty
ĠFer din
ĠFound er
ĠSus ie
ĠKai ty
ega ard
ĠMoham mad
ĠCos mo
ĠTCB S
ĠPho ebe
ĠSant iago
ĠDeb bie
Ġsil ic
ĠOd essa
ĠNu tr
ĠNu uk
ĠCur ie
ĠHin du
ĠSá» ĥn
Ġad ren
ĠHub ert
ĠMick elson
ĠDomin ica
ĠBour nemouth
Ġki wi
ĠYar os
ĠNiel sen
ÃĤ u
ĠAlfred o
ĠBac on
fol k
arat skhelia
ĠGad ot
ĠCatal onia
Ġsl ide
ĠHoll and
Ġpor ter
ĠKv aratskhelia
ĠNorthw estern
ĠGuev ara
ĠTori yama
ĠRocc uzzo
% ...
' re
) /
8 40
A v
C Æ¡n
C hip
D J
E d
F ord
G Ã³i
H B
H áº±ng
J enn
K ia
M itsubishi
S k
S u
S ail
T B
T iger
V ÄĲV
b Ãłn
b ok
b ase
c il
c reen
d ra
d á»«ng
g ers
h ima
j am
j orn
l áº±n
m g
m á»
m áº¯c
m ing
m ac
m afia
p ay
s ur
t áº¯c
u ff
v áº¿t
v ing
v á»¡
w al
w atra
x áº¥u
x ing
ı e
ng Ã£
Ġt p
Ġt en
Ġc lo
ĠÄĳ uá»ĳc
Ġv illa
Ġl áº¯t
Ġb ra
Ġb ik
Ġb Ã¨n
Ġb ec
Ġs ale
Ġs ize
Ġn Æ¡m
Ġg Ã£i
Ġch áº¡nh
Ġd ining
ĠT Ã²
ĠT TC
Ġgi áº¿m
Ġtá» ĥ
Ġcá» įng
ĠN Æ°Æ¡ng
ĠN ippon
Ġx Ã¹m
Ġx yanua
Ġr Æ¡
Ġr Ã¡y
ĠC ÄĲ
ĠC áº¥m
ĠC ensori
ĠH Æ°u
ĠH re
ĠH ague
ĠH orn
ch ai
ch iá»ģu
ch áº³ng
ai ng
ĠV e
ĠB ran
ĠB ivol
on n
ĠÄĲ Ã²n
ĠS B
ĠS Æ°á»Ľng
ĠS AIC
ĠA hn
ĠL Ãłi
in ter
ĠTh uyáº¿t
Ġho use
ĠP od
ĠP UB
Ġdá» ģn
ĠD Æ°á»Ŀng
ĠD ee
ĠD EI
ĠG P
ĠG is
ĠG olan
Ġtrá» ©
Ã© s
ar es
ĠCh Ã¡o
ĠCh Æ¡i
ĠCh anc
ĠCh urch
ĠPh Ã¨o
ĠU g
áº¹ m
Ġ5 40
ĠI OC
ĠI lya
ĠF le
ĠF ey
as tern
ĠGi Ã¡n
ĠW B
ĠE k
ĠE instein
Ġ7 40
ĠY ur
ĠX X
ĠX IX
ĠO g
ĠO il
Ġ19 4
ne d
th áºŃt
th áº¥y
ac ter
ĠAn phabe
os hop
Ġ15 00
Äĳ Ã³
Äĳ áºŃu
one x
ĠAl ps
ĠAl ison
ĠDo uble
19 63
ob ar
ĠHá»į ng
ph ÃŃ
te k
ĠIs abel
Ġgh Ã¬m
ĠCá» Ĺ
ĠtÃ¹ m
Nh áº¥t
Nh áº±m
Ġw hi
Ġw ant
ĠHy o
ina watra
ĠSh inawatra
Ġ23 3
ĠCar News
Ġ26 9
ĠLo omer
ĠPro ton
qu et
ass em
ĠEl i
ĠBr un
ĠInter Continental
ĠAnd ers
ĠBH TN
ĠTim oth
ĠTim eless
ĠMas h
ib a
ĠMon itor
ĠYo unis
ĠCap pad
ug a
ĠChat bot
ĠLon nie
ĠRo che
ĠRo oney
alo a
Ġ48 5
17 5
ĠTour ist
ĠKhá» §ng
ĠNov os
ĠAv enue
Ġ43 7
ĠAngel ababy
ile e
ler c
ĠRom eo
ĠWe Chat
uck land
ĠRes ilience
ĠPi que
ĠNor m
ĠSE C
ĠWil ander
ĠEs ports
ĠSn ow
An dro
itz er
ĠBel grade
ĠJul ie
ĠSi beria
osh ua
ĠUN ICEF
ĠOl ivia
ĠNat apo
ĠFood mark
Bá» ī
nghá» ģ
ĠNick y
itch en
ĠLang uage
ĠValent ino
phi te
ĠYe ong
oss ible
ĠFernand o
SP C
ĠCry pto
ĠBenn ett
ĠDeb ra
ĠHur ry
ĠLev ine
Ġmin igame
ĠPort o
ĠKer r
ĠFire fly
ĠVang uard
ĠWir ed
chá»ĭ u
qui pe
ĠVR G
ĠGur man
ĠByr ne
Rap per
ĠASI AD
ĠAnaly st
ouch ard
ĠClar ence
ĠFig ure
ĠCommun ic
ĠKil mer
Ġhá»Ŀ n
ieg el
jour ney
risc illa
ĠExper ience
alop ay
ĠAndri y
Gem ini
ĠShield s
NV L
ĠDeng ue
Ġneu tron
Ġgraph ene
ĠTheod ore
ĠMater ials
ĠCharter ed
Ġsomet hing
ĠPUB G
ĠCarNews China
ĠCappad ocia
ĠNatapo hn
' ve
+ +
/ :
8 30
? ',
B us
F O
J am
K on
K en
N K
N ell
N CA
P O
P VN
Q uyá»ģn
R ich
S eo
T a
V á»ĭ
V ie
W ire
X em
b á»ĵi
b áºŃc
c á»Ļng
c á»§a
d le
f r
f ore
g Ãł
g Ã¡nh
g ing
g Ã³c
h m
h uy
h iáº¿n
h Æ¡i
h Ã£ng
k áº¹t
l ang
l Æ°u
l us
l á»±a
l ab
l und
m áº¯t
p on
p ur
p aper
q in
r Ã¹a
r ation
s á»Ł
v Ãł
v Ãło
v re
w est
x Æ°Æ¡ng
Ġ Â
ĥ nh
Ġt Ã³t
ĠÄĳ Ã¡c
ĠÄĳ Ãły
Ġv ed
Ã¡ r
Ġl ÃŃ
Ġl áº¡ch
Ġl uyáº¿n
Ġl áº¥m
Ġl iáº¿ng
Ġl eg
Ġth Ã²
Ġth áº¯m
Ġs can
Ġm iáº¿t
Ġm Ã²i
Ġh Äĥm
Ġh iá»ģm
Ġh Ã³t
Ġh cm
Ġn áº¡m
Ġn Ã©p
Ġkh áº¥t
Ġkh eo
Ġp le
Ġp ilates
ĠT áº£o
ĠT ennis
Ġph áº¿t
Ġgi áº·c
Ġgi Ã£i
ĠN akh
ĠN YT
Ġchá» ım
ĠC ER
ĠH ist
ĠH BC
ĠM á»Ļ
ĠM ie
ĠM ey
ĠM BC
ĠM á»ĩt
ĠM FN
ĠV ander
ĠB Ã´m
ĠB ath
ĠB UV
ĠB ase
ĠB aba
ĠB CG
ĠTr end
Ġlá» įi
ĠS F
ĠS á»ĳt
ĠS SB
ang or
ĠA uckland
ĠL E
ĠL ord
ĠL DL
ĠTh iá»ĩt
ĠTh iago
ĠP ai
ĠP anda
ĠNg u
ĠK yl
ĠD Ã¢y
ĠD ut
ĠG low
ĠG LS
er r
Ġ20 5
ĠNh ai
ĠCh Ãłm
ĠCh Ã¬a
ĠÄĳá»ģ m
ĠU krai
ĠKh Ã¡t
el an
Ġ5 70
es i
es is
es ian
ĠR ol
ĠR ot
ĠR ak
ĠR ory
ĠF UN
em s
is ure
ĠW or
ĠW ave
ĠE TS
ĠE PA
ro ck
le hem
ra p
ĠHo man
ĠX VI
il da
Ġ19 39
ad an
th áº£
th Ã¢n
Th áº£o
Ġtho áº¡t
Ġmá»į t
tr ee
tr á»¥
tr ait
Ġtra vel
Ġ15 8
rai den
ed u
ĠIn am
ĠTo uar
ard u
av or
if ood
ĠSt acey
Ġw ay
est in
art ment
ĠJo ur
ĠJo anne
Ġ21 6
Ġ0 8
ĠAr c
lo ok
Ġ22 7
ĠLá» £n
co unt
Ġ23 5
man ce
ĠLo ok
ĠBa ek
Ġ28 8
ĠSo on
ĠSo ok
ĠPhá» ĳi
ĠDu c
ĠDu ck
ĠEl isa
ate ur
ord er
ant o
ĠSin aloa
Thá» ıa
thá» £
chá» ¥p
iz on
ĠBra ve
uk et
ĠMy o
ĠÄĲo Ã²ng
ĠBl og
ĠBl ade
oy e
ĠMal aga
ĠTech X
xy nos
com e
ĠChrist y
ĠHol t
ĠCom m
ĠEd na
ĠSe ng
ĠBro mo
13 3
ĠMay e
lu Ã´n
ĠAll ie
ĠArt s
ĠBay er
ĠAg ain
ĠFl em
US AID
Ġ195 2
Ġ195 3
uz u
ons ai
Kho áº£n
ĠLat inh
ĠSM S
ĠFI RE
ĠOl ive
Ġgam ma
ĠBern stein
ĠTrav ers
cl ave
ĠGood man
ĠnhÃŃ m
Ġmark et
ĠEngine er
ĠTur k
ĠSoc iety
ĠSand y
ĠKore an
ĠAf ter
ĠSnap chat
ĠDig i
Ġsh ort
Ġfl agship
ĠRh yder
be auty
ĠAk una
ĠOp era
aver ick
ĠDol ce
ĠEnter prise
ĠVers ace
ĠAlpha Geometry
Cl oud
Pl us
ĠMick ey
ĠHard ware
ĠSaf ari
Vol kswagen
ĠServ ice
ĠPor ter
ĠKrist i
ĠSD M
Chu á»Ĺi
Mich ael
ĠGuill ermo
ĠKCN A
ogl ou
ĠLinds ey
ĠGb ps
ĠMoss ad
ĠIndustr ial
ĠJur gen
ĠMonter rey
ĠJav ier
ĠAllian z
ĠAugust ine
Fly er
ĠGib ran
cul es
STE M
Mess i
ĠFoot ball
ĠAlaw ite
Ġnu Ã´ng
Ġmash up
ĠCraw ford
ĠAfr ica
ĠExcell ence
enbau er
ĠAnk ara
ĠCyr us
ĠIAE A
ĠGir ly
Ġbol ero
ĠEmbra er
Andro id
Ġved ette
ĠTouar eg
0 60
0 90
4 30
4 40
B os
G F
G Ã²
H E
H appy
M usk
M otion
N á»Ĺi
N US
N ote
P SS
R ace
R ock
S i
S aw
T em
V an
V en
W TO
b ig
b ee
b ike
c Æ°á»Ŀi
e an
f eld
g al
g hi
g ard
g ital
h Ã¡t
k iá»ģu
k Wh
l Ãºc
l Å©
n s
n áº·ng
s era
v da
Ġt el
Ġc Æ°u
Ġc ould
Ġl ine
Ġl act
Ġb ina
Ġb io
Ġth Ãºng
Ġth iáº¿c
Ġth áº¹n
Ġs ulf
Ġnh Ã³t
Ġn áº»
Ġn á»ĭnh
Ġn ow
Ġn iu
Ġch um
Ġch Æ°á»Ŀm
Ġd Æ°á»£t
Ġd eb
Ġng Ã²
Ġng ao
Ġp it
ĠT Ã¡
ĠT Ã¡t
Ġph iáº¿m
ĠN EO
ĠN use
Ġr áº·ng
Ġr amen
ĠC EP
ĠH anh
ĠH áº§m
ĠH ir
ĠH Ã£n
ĠH igg
ch áºŃm
ĠM ald
ĠM Ãºa
ĠM averick
ai ca
ĠB ug
ĠB agh
am el
ĠÄĲ Ã¢u
Ġlá» ¥ng
ĠS V
ĠS áº¡c
ĠS ap
ĠS ou
ĠL Ãłnh
ĠL Ã¹ng
in z
ĠTh uyá»ģn
Ġho e
ĠP ersonal
ĠP riscilla
ĠNg annou
ĠK ud
ĠD ang
ĠD Ãłi
ĠD ÃŃnh
ĠD iÃªu
ĠD á»¥ng
ĠG ag
ĠG ut
ar ian
ĠQ LED
Ġ20 8
ĠNh an
ĠNh iá»ħm
ĠCh alam
ĠCh osun
ĠPh áº©m
ĠPh uket
Ġá» ·
Ġá» ļt
ĠI K
ĠI k
ĠI ll
ĠR X
ĠF ast
ĠF ico
ĠF ive
ĠF TA
ĠF ocus
em ann
Ġ6 20
ic ine
ĠGi ov
ĠW ealth
ĠE BC
ĠE uc
ĠE xynos
us ing
Ġngá» Ľt
Ġ9 70
ĠHo j
CM O
il ia
ĠO raiden
Ġ19 32
th Ã¡ch
Th Ã´i
tr um
tr á»ĵng
ot onin
Ġnghá»ĭ t
Äĳ u
Äĳ áº§y
Äĳ á»©ng
Ġdi oxide
Ġdi gital
ĠZ ir
19 65
ho Ãłng
ĠIs ab
ik on
Ġgh Ã©m
av inga
ĠRe pl
ul d
Ġf ast
ĠGiá» ıi
Ġro om
ĠSh y
st ad
ĠCon or
ĠSp ider
ff ect
ĠBa e
ry na
ass ic
ast ro
ec af
ĠMan e
ĠMan s
ĠMan power
ĠBr ighton
ĠVin Uni
Qu áº§n
Ġe ng
ĠLa Nell
end ol
oy ama
ley sha
ĠCl ip
ei ra
ĠCam avinga
ct ive
Ġco upe
to Ãłn
ĠFed Ex
ĠLy dia
ĠEr nie
ĠCarl sberg
ĠAlex ia
ĠUt tar
ger u
ĠFlor ence
ors air
ĠVal ue
ĠHer man
ĠHer cules
Ġ57 3
ĠMer kel
Ġ>> >
MA GA
ĠNor folk
ĠPol o
top en
ĠMag uire
for mance
Viet lott
ĠNi ro
ĠHun za
ĠHa jj
ĠJul iet
ĠNap ole
ĠNap les
ĠPra vda
ĠBeck enbauer
ĠNat ural
ĠGh Ã©p
ĠBi ology
ĠDes ert
54 1
ĠTas man
ĠUnited Health
ĠNav ara
ĠMid journey
Vin amilk
ĠBuff alo
ĠSub stance
ĠAh mad
ĠHass el
ĠCub an
NX B
be ck
ĠCos met
ĠOp ta
ĠAle ppo
ĠYout uber
ĠAst ra
WA CO
ĠIshi kawa
ĠImp act
ĠKor da
ĠJas mine
Äĳo Ãłn
ĠDh ar
ĠSaf i
ĠDynam ics
ĠDec ision
ĠGirl s
ĠSut ton
ĠRah man
ĠDick inson
Dani el
ĠOP ES
ĠLead ers
uts che
ĠAcc ord
ĠGet afe
ĠAj ax
ĠLec lerc
ĠPartners hip
Ġag ree
ĠCir cle
alis co
ĠBN P
ĠSz c
ĠMov ie
meir as
ĠHiros hima
Ġeth anol
ĠChlo e
riz io
ĠNer io
ersh ey
ĠEsc obar
ĠHein rich
ĠOpp enheimer
ĠAssoc iation
ĠPepsi Co
ĠVive k
ĠApo phis
ĠPanam era
ĠPages ix
ĠBilli ards
ĠChanc ay
ĠFoodmark s
ĠChalam et
! ).
4 20
7 20
7 30
9 20
? '
B E
B Ãłn
B Ã£o
B aby
G ame
H L
H NX
J S
K iá»ģu
L R
M r
M at
N á»Ńa
R o
R áº¡ng
S tream
S antis
S chool
T y
T Ã¡i
T ra
V áº«n
X Ã¡c
b iáº¿t
b Äĥng
b Ã©o
g ram
g ari
h ak
h annah
m ie
n á»ĳi
t áº¥m
v ens
y ot
z Äĥng
Ã ¦
ng á»«ng
Ġt áº±n
ĠÄĳ ay
Ġv is
Ġv Ã³n
há» §y
Ġtr iglycer
Ġb Z
Ġth au
Ġs Ã¬nh
Ġs Æ°á»£t
Ġh ad
Ġg Ã¹i
Ġd B
Ġd áºŃt
Ġp olo
ĠT T
ĠT Ãª
ĠT amp
Ġph uá»Ļc
Ġph Ãłm
Ġhá» ·
ĠN ash
ĠN ile
Ġx á»ĳi
Ġr áº±n
ĠC Ãºng
ch Ã¬a
ĠM M
ĠM Ã©p
ĠM ost
ĠV l
ĠV áº¡c
ĠV accine
ĠV BSF
ĠB ÃŃnh
ĠB ury
ĠB EST
am ada
ĠÄĲ á»ĭch
ĠÄĲ Ä©nh
ĠTr á»¥c
ĠS ense
ĠA ch
ĠA oi
ĠA oki
ĠL X
ĠL ah
ĠL ena
ĠTh iet
ĠTh ib
au ra
ĠP JICO
ĠK up
ĠK áº¹o
ĠK aur
ĠK YC
ĠD eal
ĠG TS
ĠG á»«ng
Ġcáº£ o
Ġsá» §i
ar ies
ĠQ Q
al og
al ly
ĠCh anh
ĠCh ak
ĠCh ief
Ġá» ¥
es hi
ĠR áº¡p
Ġngo i
Ġngo áº¡c
ĠF RT
Ġnhá» £t
Ġ6 70
ic ot
is evic
ĠÄĲá» Ľi
ĠGi ant
ĠW ho
ĠW ey
ĠE F
ĠE u
ro chi
ro ugh
le an
ÄĲ Ãłn
ne x
Th áº¥t
ur ing
tr áºŃn
tr eo
ac onda
ĠAn abel
Ġban d
ed e
Tr Æ°á»Łng
one ws
ak ia
ak ov
od om
ĠAl d
ĠDo ub
ew ell
ion a
ĠTo ul
19 50
19 66
ph Ã¹
ph Ã©p
Ġ25 8
ut es
ut ing
ik en
og er
og erm
ir at
ah n
ĠKho Ã¡ng
Ġ17 1
av io
10 1
ab ility
ck man
ell as
Ġw orld
Má»¹ Sau
Ġf ine
11 4
op us
all adium
ĠMus e
ĠCon tinental
ĠCar rie
Ġ26 2
Ġ26 6
ĠPro duct
qu ay
ĠlÅ© a
ĠPhá» ī
ec on
In d
ach o
ĠVin asoy
Ġcan vas
iz a
Ġláº½ o
ĠAnd es
Ġmu ch
ĠDe Santis
ĠIT A
ĠPal meiras
ĠAd en
ĠAd ele
ĠAd vent
ĠBen ed
ĠTN CS
Ġkhá»© u
ĠHe idi
ĠAb el
ĠPet rolimex
ĠMel oni
Ġ43 3
ĠBer trand
ĠSe ABank
ĠHer e
ĠMay weather
ĠKar i
ĠKar ak
ĠRes iden
oc ial
Ġser otonin
ĠSk ardu
ĠInd us
ĠInd ie
ĠShi geru
Ġvu á»Ļt
Ġ195 1
uz ia
ĠGra v
Ġbar ie
IM O
ĠVen om
ĠGem ma
ĠJul io
ĠRap tor
ĠNob land
ĠJer meir
ĠOl ivier
ĠCT O
ĠOm oda
ĠHen ri
ĠDen za
ĠVer rier
Olympic s
ĠAf D
ĠCá»§ a
ĠLuc ia
ĠSus ann
ĠMcC arth
ĠKir ill
ĠWind Free
ĠSing er
ĠKn ow
ĠAbd usat
GC SE
ĠMik hail
ĠSher ra
ĠSher aton
St ate
ĠArn old
hy brid
ĠGW M
ĠSuk ho
ĠHin ton
ĠGard ens
ĠGolf er
oul os
ĠIvan isevic
ĠSpe ak
IR GC
ĠMick i
cc ess
Ġel astin
ĠKem p
ĠOtt oman
ĠAN C
ĠPhill ip
Ġmel anin
ĠCand ice
ĠBuk it
Ġhel p
ĠBeth lehem
ĠSem i
Ġbody suit
Ġmac ro
ĠHak amada
zes ny
ĠKry stal
ĠJob s
ĠHiro yuki
ĠJiang da
ĠAllian ce
ĠBroad way
ĠNub ia
ĠFol ie
ĠBlan co
pack ed
Ġsex y
ĠFok ina
ĠPO W
ĠSag aing
ĠGriff in
And re
ĠNavig os
ĠGSMA rena
ĠGoth ic
lives tream
Ġdem o
ĠVass ilis
Ġá»¦ ng
ĠKyl ie
ĠUkrai n
ĠFUN IX
ĠInam ori
ĠSzc zesny
ogerm ina
ĠMcCarth y
ĠAbdusat tor
! ,
3 25
5 20
5 90
6 20
6 40
6 70
B G
B er
B oeing
C Ãº
C or
C á»Ń
C á»Ńa
E r
F in
F uture
G Æ°Æ¡ng
G aza
K YC
L Ãªn
L Ã¡i
M ed
M BS
M ike
S um
S ME
U I
U MP
V áº¡n
V á»ĳn
V atican
W ill
Y am
a ewon
b Ãºn
c Ã²
c áº£ng
c alo
c ode
d á»ĭ
d ain
f ee
g am
g art
h áº¡ng
k ng
m Ã©t
n áº¥u
o flav
s un
v ell
x o
Ġ ol
Ġ act
Ġt ank
Ġc áº§y
Ġc old
Ġv int
Ġl áº¿t
Ġl ÃŃu
Ġb Ã´
Ġb Ã¹a
Ġb ook
Ġb onsai
Ġs áº¿u
Ġs Äĥm
Ġs it
Ġs ur
Ġs elen
Ġs uper
Ġs quat
Ġm Ã³
Ġm Ãº
Ġh Ãºc
Ġh enna
Ġnh áº£m
Ġg áº¡
Ġkh em
Ġd Ãł
Ġd áº¥m
Ġp ot
Ġph ui
ĠN ab
ĠN our
ĠN ino
Ġx uyáº¿t
ĠC art
ĠC ody
ĠH á»ĳc
ĠH ap
ĠH ershey
ĠM ylon
ĠV ermont
ĠB C
ĠB Ãºt
ĠB ecamex
ĠB ouchard
ay o
ĠÄĲ iáº¿m
ĠTr uy
ĠS AP
ĠS ema
ĠS IU
ĠA xit
ĠL ung
ĠL ite
in ay
ĠTh al
ĠP ez
ĠP app
ĠP ias
ĠP EN
ĠP ublic
ĠK H
ĠK op
ĠK itchen
ĠD et
ĠD ry
ĠD ays
ĠG ael
ĠÄĳá»ĭ u
er l
er v
en ne
ar ed
ar oo
ĠNh Æ°á»Ŀng
ĠNh iÃªu
Ġbá» Ŀi
al t
ĠCh Ã³
ĠCh av
ĠCh ub
ĠCh ain
Ġ3 25
Ġcon s
ĠU WA
ĠKh uyáº¿t
ĠR Ã¡c
ĠR á»ķ
ĠR Ãło
ĠR im
ĠR ica
ĠF og
ĠF lynn
Ġná» Ľp
ic z
as co
ĠQu áº§y
ĠW er
ĠW id
ĠW ald
ĠW TI
ĠE T
ĠE agle
Ġ7 60
ĠJ alisco
ro k
Ġ8 30
Ġngá» Ŀi
ra cha
Ġcháº¿ ch
ĠY G
ĠX Äĥng
ĠX Æ°á»Łng
ÄĲ áº£o
Ġan ime
ĠO ct
ĠO mar
ĠO TT
ĠnghÄ© nh
ne ider
th ÃŃch
ur st
ac ific
os k
os z
Ġta ek
ov ers
ag on
ag awa
ed ian
Äĳ Ã¡p
Äĳ Å©a
ine a
up p
ĠZ alopay
19 30
19 60
19 68
19 67
ho ut
ho ff
ob an
ph on
Ph Ãºc
az ing
Ġ25 1
ĠMar g
ĠCá» «
ĠRe ports
ald eh
ill ac
if ilm
Ġw ell
Ġw ould
Ġ21 1
ĠAr man
Ġrá»§ a
co ck
ĠCar ey
ovic o
ĠAm ateur
ĠEm hoff
Kh ung
ath y
ath ann
ĠCo ast
Ġ31 5
Thá» §y
thá» ķi
ĠGu inea
ĠIt aewon
Ġmu á»ĵi
ĠKhu áº¿ch
ĠCol os
ĠCol oss
Ġhu á»ĩ
Ġcar amel
ĠSong k
ĠGD ÄĲH
Gi ai
Ġ32 2
land er
af a
ĠUn packed
ĠPl ace
ĠYo av
ens tein
ight ing
ek ic
VN eID
ĠChu Ã´ng
eth e
CC C
ĠOs lo
Ġa qua
ĠDavid son
ĠHe ng
ĠMin er
ĠBer k
app ing
Ġeuro zone
ĠAndre essen
ĠCai ro
ĠHer z
ĠHer io
Ġcu á»Ļi
ĠMi G
ĠJon athann
CA R
ĠPol aris
ĠMur ati
ĠNi emann
ĠEv an
ĠGra c
ĠMill on
ĠMob ility
amb ique
Fed er
ĠShe ikh
ĠTa ew
ĠRod ri
ĠRod rigo
ĠACB S
ĠDr iver
ĠSouth ampton
ĠGood reads
ĠBi olog
ĠDar ia
ĠBS R
ĠNav er
ĠKu w
ĠHil da
ĠGro q
ĠRy man
ĠHold ing
Ex press
ĠGw endol
Ġpoly ester
ĠKl um
sch ool
ĠBV H
ĠAdv ance
Æ¯ á»Ľc
ĠFul ham
ĠFuk uoka
ĠCath olic
Ġfe et
ĠMira ge
ĠNZ D
ĠHab ib
ĠBald win
Green land
Tom inay
ÃĤ m
Ġau topen
ĠSuns creen
ĠAdrien ne
ĠKaf ka
Gl obal
ĠMonter ey
ĠLuk aku
ĠSind arov
ĠPers everance
ĠUnder wood
Black pink
GR DP
ĠNT U
Ġev ery
ĠRank ing
ĠMoz ambique
ĠCurt is
ĠRobo F
ĠHamb urg
Ġfly cam
ĠNut ifood
ĠTaek wang
weg er
ĠâĢĭ âĢĭ
eshk ian
ĠZell weger
Ġadren aline
ĠChurch ill
Saw aco
ĠAbdusattor ov
Ġvint age
ĠPez eshkian
ĠPias tri
Ġtaek wondo
ĠGwendol yn
4 70
8 20
8 60
A U
B áºŃt
B á»Łi
B est
B OC
C T
D Ãłn
H Ã¹ng
J ul
J eff
K T
L Ã£i
P o
P at
R V
R om
S pe
T Ã´n
U OB
V B
V P
W ell
W eb
b en
b itol
b ird
c á»±u
d Ãłi
d á»įn
f acebook
g ang
g áº¡o
g ame
h atsu
j c
j ung
k ip
l Ã½
m Ã¬nh
m ax
m oud
n á»ķi
s áº¡c
s and
t áº·ng
v ui
x Äĥng
Ã ±
Ã ±a
ng áºŃp
ng Äĥn
Ġt Ã¬
Ġt linh
Ġc y
Ġc Ã¡ng
nh e
nh á»±a
Ġl iáº¿c
Ġl evel
Ġb ig
Ġb alÃ´
Ġth áº±n
Ġnh Ã¡c
Ġn ong
Ġg Ã²n
Ġg rand
Ġch ar
Ġd iáº¿t
Ġng Æ°á»Ľc
Ġng Æ°á»£ng
Ġp r
Ġp ir
ĠT ot
ĠT ag
ĠT usk
ĠN K
ĠN Ã¹ng
ĠN ast
Ġx áº©m
Ġqu áº«n
Ġqu áºŃy
Ġr Ãº
Ġr iáº¿t
ĠC U
ĠC ine
ĠC ow
ĠC andy
ĠH ew
ĠH eb
ĠH ick
ch ida
ĠM s
ĠM Ã¡u
ĠM Ã¨n
ĠM Ã³t
Ġcho áº¡ng
ai se
ĠV ekic
ĠB áºŃc
ĠB ild
ĠTr Äĥn
ĠTr ek
ĠS od
ĠS oi
ĠS leep
ĠA rist
ĠA leysha
ĠL Ãºa
ĠL ike
ĠL ager
ĠTh Æ°á»Ľc
ĠTh Ã´n
ĠTh ings
ĠTh ere
ĠP ool
ĠP EG
ĠP ais
ĠK B
ĠK Ã´ng
ĠK ao
ĠK ob
ĠK PI
ĠK won
ĠD enzel
ĠG os
er an
en da
Ġsá» ©t
ar est
ĠCh ew
ĠNam ibia
ĠPh áº£
Ġto te
ĠU don
ĠKh achan
ĠI N
ĠI O
ĠI GCSE
Ġ4 15
ĠR C
ĠR an
ĠR á»ĳi
ĠR acing
ĠF market
em ans
Ġnhá» ¥y
Ġso Ã¡n
Ġso up
hi an
ĠGi or
um ann
Ã¨ ng
ĠW ed
it es
ĠE g
ĠE ileen
ĠE CMO
Ġ7 30
Ġchi ld
Ġ8 70
us mane
ĠHo f
ĠY ul
ĠY ings
ĠX á»ķ
ĠX per
ĠX peng
ÄĲ áº¯k
Ġan aconda
om en
ĠO S
th ang
th áº¯ng
ĠChá» īnh
tr á»ĳn
ĠAn ipa
ap per
ed s
Äĳ á»įc
Äĳ áº¡p
Tr Äĥm
Ch áº¥t
od en
ĠAl ire
ĠAl tern
ĠLe xi
Ġ25 7
ĠCá» §ng
Ġo zone
ck e
ĠSt am
âĢ Į
gi es
Ġin to
Ġin fluencer
lo Ãłi
kh Ã¡t
all a
Ġ23 7
Ġkim ono
ff in
ĠPar ad
ĠPar edes
qu ette
Ġáº¤ u
Ġ28 3
Ġ28 5
ick et
ow itz
ud y
ip er
ĠGr en
ĠGr uzia
hn ik
ĠSc iences
ĠBe ast
ĠBe ij
Ġcar b
ĠDe adline
ies el
ĠMc Tominay
ek i
ith ick
ĠSpace Sail
any a
ug er
ĠInst ax
ĠPr udential
ĠAlex ei
24 5
âĢĻ ,
ĠTour s
ĠWill ow
ĠPer th
ĠWal ter
ĠRub in
ĠMart ina
ull i
ĠMiss ion
CA HN
ĠTop CV
ĠLau nch
lu x
ĠNor odom
ĠEng els
ĠWar hol
by e
ĠJenn ings
ĠBlack well
ĠKr Ã´ng
Ġngu á»ĩch
ci us
ĠRod ney
ĠMaster ise
Lá» ĩnh
Lá» «a
ĠBook s
ĠTer ra
oly mpic
Le aks
ĠBal mer
ĠJen nea
ĠAndrew s
Gen er
ĠIC J
77 7
ĠId ecaf
ĠPop ular
ĠChe f
Ġkn ow
otter ia
ĠGall up
ĠAlbert a
ĠPre p
Lo áº¡i
ĠCour sera
ĠLev ante
ĠWu han
ĠJong rak
illi ard
ous ov
ĠCu Ã´ng
ĠImp ossible
ĠCB P
ĠBat dong
ĠCle ar
ĠHard y
ĠLH P
ĠSD F
ĠMom ent
Inter national
ĠEth an
ÃĶ i
ĠCent ury
Pan asonic
ĠMira e
ĠBond ar
Har ry
ĠInvestment s
He ineken
ĠShap iro
ĠClass ic
ĠLGBT Q
ĠPia get
ĠPatt y
ĠEur onews
ĠKhal il
ĠBO J
alam ove
ĠNes cafÃ©
HTS A
ĠTrev ithick
ĠRas mus
ĠFlo yd
ĠiS MART
ĠCeleb mafia
ĠLeh mann
ĠConn ors
BV Bank
ĠBever ly
egov ina
ĠAtt al
ĠOak land
ĠStef ano
Ġfreel ancer
ĠAxi os
ĠDag estan
ĠFrederik sen
Ġchá»Ļ p
ĠArk ansas
quar ie
ĠDew ey
ĠPf izer
ĠHuff post
ĠLVM H
ĠGlad iator
lus coni
ĠNuse irat
ĠGiov anni
ĠHassel blad
ĠThib aut
ĠChief s
ĠMuse um
ĠUkrain ska
oflav one
Ġpir anha
ĠKhachan ov
ĠYings ha
ĠXper ia
ĠAlire za
ĠBeij ing
ĠBatdong san
8 70
C Ã¡n
C áº¥m
E Q
G PU
G MP
H ome
J AXA
K ÃŃnh
K ar
K á»ĭch
L et
L á»¥c
M ob
N N
P in
P ep
S Ã³c
S ec
S ham
T hing
V áº»
V EC
b li
c ur
c ÃŃa
d á»¯
d ad
g ov
g Ã³i
g ether
h isa
j ong
k u
l Ã£ng
n áº¯ng
p ect
s te
t Ã¢n
t ro
t Ã²a
t ing
t áº©y
t á»§
v ar
w ire
z stan
Ġ ap
Ġt Ãło
Ġt Ã³p
Ġc Ãºt
Ġc it
nh áº¹
nh iá»ħm
nh ouse
Ġv in
Ġv Race
iá» ĳt
Ġtr y
Ġtr Ãłm
Ġth allium
Ġm any
Ġh annix
Ġnh áº¡i
Ġn áº¡ng
Ġch Ã²i
Ġkh áº£m
Ġng ai
Ġng áº£i
Ġp ep
Ġp yg
ĠT z
ĠT one
ĠT Ãºy
ĠT CH
Ġcá» ¯
ĠN ang
ĠN IC
Ġr el
Ġr Äĥm
ĠC orts
ĠC esar
ĠcÃ³ i
ĠH Æ¡i
ĠH ear
ĠM P
ĠM ina
ĠM ind
ai ra
ĠV on
ĠV Ã³c
ĠV JC
ĠV ely
ĠB ung
ĠB ass
ĠB ale
ĠÄĲ Ã£ng
ĠTr ain
ĠS C
ĠS is
ĠS ter
ĠS ie
ĠS ovico
Ġ" ,
ĠA ustral
ĠA pr
ĠL Ã¹
ĠL Ã¬n
ĠTh Ã¬
ĠTh ier
eo t
ĠP P
ĠP MI
Ġthu Ã´n
Ġgiá» ¥a
ĠK re
ĠK amp
ĠK atherine
ĠK antar
ĠD Æ¡i
ĠD iff
ĠG ong
ĠG le
er ia
er ve
en y
ar az
ar si
ĠQ N
ĠQ AI
ĠCh iÃªn
ĠCh ery
ia k
ĠU ber
ĠU EH
Ġlo áº¡ng
or f
ĠI ris
es o
ĠR yder
im p
ĠF ong
ĠF aisal
ĠF osse
em ir
em bourg
Ġ6 40
as an
at ic
ĠGi z
Ġtrá»ĭ a
ĠE il
ĠE ps
ĠE aton
ĠE SO
Ġ8 40
Ġ9 99
ĠHo ch
ĠHo zo
ĠY en
ÄĲ á»©ng
il ar
Th áº©m
ĠVá» «ng
ĠHCM C
tr id
tr á»Ļm
ac on
un ter
ov ski
Ġ30 4
Äĳ á»Ŀi
Äĳ á»īnh
Tr Ã²
Ch Ã¹a
od es
ĠZ in
19 22
19 44
Ġ18 4
ĠThu Ã½
ah on
ĠMar tre
ĠLong champ
ĠRe gan
Ġo ther
ian i
ĠBá» ĵng
ran c
Ġ24 4
Ġ0 4
ND P
ĠAr d
ĠAr iana
lo ad
ĠCan alys
11 5
ina wa
ĠNha Tiá»ģn
ĠViet QR
ĠViet GAP
co ops
ĠSh u
ĠSh ay
st en
ĠMus t
ff s
ĠPro s
ĠPro duction
Ġ27 3
ĠEl mer
ĠEl sa
ist ano
ant an
Qu á»³nh
ĠBe h
our ce
Ġcar ot
Gi Ã¡ng
15 5
ĠDe utsche
Ġ33 6
ĠPl ac
ĠMal i
ham a
ĠFr aser
ct ions
ĠDi aries
ĠMac quarie
ĠGar cÃŃa
ĠMo h
ĠSun light
ĠRo h
ĠMad e
thu áºŃt
ames h
Ġ55 5
ĠOr es
ĠOr cel
ĠFor um
ĠNov ikov
ĠJe ann
ĠWal ters
ĠBer lusconi
ĠEd dy
ĠEd ison
sh an
lá» Ńa
ĠFin al
Ġ57 8
IT IA
lad e
ĠKar ina
ĠEuro Cham
ĠLau der
ĠSal es
Ġj ob
ĠSk ills
ĠRos alina
ĠIns ights
ĠIns pir
ĠAg ency
for mer
ĠHay es
ĠCor p
qua dra
ĠLat akia
ĠSM U
ĠIP X
ss ey
ĠRog an
AR S
ĠShe ila
ĠMaster class
Lá» Ľp
let ico
ĠWh is
ĠStr ait
ĠAsia d
197 8
gy zstan
ĠLyn da
ĠWell ness
Gen AI
ĠFort un
ĠUr ban
ĠBah amas
ĠSus hi
ĠTru ong
ĠBor ing
ĠChang an
ĠCub arsi
ĠBut ton
ĠCR J
Ġz ona
ĠMet ric
ĠFi ennes
ĠEQ S
ĠSri racha
ĠLux embourg
Ġyear s
ĠLev y
ĠCru iser
NT COM
PB OC
Äĳá»ģ u
ĠDer ek
ĠOdy ssey
ĠDec lan
robot ic
ĠWork s
ĠGai a
ĠMO OC
ĠSas co
ĠSas ha
ĠCass ie
ĠMoss os
ĠPD D
ĠFall s
ĠPG WP
ĠAnaly tics
Ġsome one
ĠZe iss
ĠCad illac
ĠChild ren
ĠWel sh
ĠRest aurant
ĠJacqu es
ĠMomo a
ĠKash mir
ĠGaz prom
ĠMcM ahon
ĠCars coops
At letico
Es quadra
ĠCoach ella
ĠHeath row
ĠWeng er
ĠSalda Ã±a
ĠCul kin
ĠHik aru
ĠPaj ero
ĠElectron ics
Ġgames how
ĠRost ov
War ren
ĠGlas gow
ĠScal oni
ĠFerdin and
ĠFlem ing
Tem u
ĠHoj lund
ĠTasman ia
Ġtriglycer ide
ĠIndie Wire
ĠChav ez
ĠThier ry
0 10
2 35
3 65
4 90
5 30
6 10
8 80
9 10
A eon
C X
C ard
D is
E ng
I SA
J P
J ose
L ai
L áº¥y
M Ãłn
N uÃ´i
P ort
P HEV
Q ÄĲ
R oger
S áº§u
S mart
S port
T á»ĳc
T Ã³c
V Ãłnh
V Å©ng
V IC
V FF
W hi
X Ã£
Z en
b áº¿n
b áº¯n
b á»ĳn
c ua
c Ã³n
c od
c ial
c ase
c edes
g Æ°Æ¡ng
g es
h Ãºt
k iá»ĩn
k az
k orn
l ay
l Ã²ng
l ut
m Ã¡u
r ir
r á»Ńa
s Æ¡
t ung
t est
w ill
x uyÃªn
y ar
y de
Å ¡
Ġ Ã©m
Ġt ip
Ġt alk
Ġc ity
Ġc Ã¹n
nh iá»ĩm
ĠÄĳ áºŃn
ĠÄĳ Ã¹ng
Ġk ay
Ġb itcoin
Ġs k
Ġs n
Ġs Å©ng
Ġm Ã³i
Ġm ix
Ġm apping
Ġnh Æ°á»¡ng
Ġn anh
Ġn Ãºng
Ġn eon
Ġn ext
Ġn avy
Ġg uá»ĳc
Ġg áº«m
Ġch Ãªm
Ġd iáº¿p
Ġd ays
Ġng Ã¡c
Ġp ap
ĠT uáº¥t
ĠT áº¯t
ĠT ill
Ġthá» Ľ
ĠN áº¥m
ĠN ok
ĠN PU
ĠN isha
ĠN umb
ĠN LG
Ġx á»Ļc
Ġx áº»o
Ġqu áº»
Ġr Æ°á»Łi
an th
ĠC Ã²
ĠC ramer
ĠcÃ³ ng
ĠH Ã´
ĠH áº¡m
ĠH ing
ĠH áº¡p
ĠH áº¹n
ĠH ind
ĠH ors
ch ao
ch em
ch ert
ch ange
ĠM áº£nh
ĠM Æ°u
ĠM ays
ĠM SI
ai d
ĠV C
ĠV G
ĠV or
ĠV ad
ĠB áº¡i
ĠB áº¥y
ĠB Ãºp
am ar
ĠÄĲ áº¹p
ĠÄĲ áº©y
ĠTr ading
ĠS uáº¥t
ĠS ain
ĠS CG
ĠA it
ĠL uiz
in er
ĠTh áº±ng
ĠTh uyÃªn
ĠTh uá»Ļc
ĠTh ua
ĠP Ã¹
ĠP ing
ĠP oll
ĠP eng
ĠP ickleball
ĠK iáº¿p
ĠD Ã£
ĠD as
ĠD RO
ĠD estin
ĠG Q
ĠG row
er om
en ter
Ã© l
Ġbá» įng
Ġtu tor
ĠCh áº£
ĠCh áº©n
ĠCh iáº¿m
ĠCh ester
ĠPh oto
Ġ3 99
ĠU m
el yn
Ġ5 90
ĠI a
ĠI f
ĠI da
ĠI NG
Ġ4 75
ĠF IT
ĠF endi
Ġ6 10
Ġ6 60
Ġ6 25
Ġ6 90
as te
is try
Ã¨ re
ĠW ai
ĠW ada
ĠW ifi
ĠE L
ĠE com
ĠE RP
ĠE lys
Ġ7 99
ĠJ ann
ĠJ ain
ĠJ edd
ĠJ sol
Ġchi u
Ġ8 90
Ġ8 88
ra c
Ġ9 400
ĠY app
ĠX ing
ÄĲ Ã¨n
il er
om oto
ĠO usmane
Ġ19 26
Ġ19 49
Ġ19 42
Th áº¯ng
Th áºŃm
ĠChá» ¥p
ĠAn ora
ĠAn ti
ter o
ĠNhá» ©t
Äĳ Ã´
PT PP
od ge
ĠAl c
ew ork
ĠZ eg
ie ce
ob ank
ob agi
ob ooth
ent ine
ĠIs uzu
og ne
Ġxu á»ĥ
ĠRe cher
ĠLu d
ĠLu ka
ck a
iet h
ell an
ĠSt ra
ĠSt ella
Ġf ol
ĠHy dro
Ġ24 9
ĠAr i
lo yd
kh áº£
ĠCan aver
Ġ22 2
Ġ22 9
11 3
op mart
ĠLá» Ńa
st ack
eg al
ĠSp encer
Ġ23 1
ĠCar a
Ġ26 3
Ġ26 8
ĠLo unge
qu id
ow o
ĠAm b
ĠAm p
ĠDu o
ĠDu champ
pen beck
ec cons
ĠcÃº n
Thá» Ń
ech n
ĠVin ci
ĠVin asa
chá» Ŀ
ĠIt tihad
end an
ĠCol e
ĠCol ogne
ĠMy ster
25 5
ĠUn ity
ĠCl are
ĠDe pp
ĠMal ik
ens or
uch ikh
ĠMc Connell
ith a
ĠChu qin
ĠMac au
ĠGar m
to Ã¡n
ĠAP AC
ĠEr ika
ĠRo om
17 6
do ch
imb lett
ĠOs ho
ĠRonald inho
ala j
ĠHe ard
ĠBu zz
ĠAb e
ĠAb raham
ĠPet erson
ĠCom mon
ĠPark inson
app iness
che ck
ĠHer bal
ĠOn ly
ĠMay o
Ġlog istic
CA F
ĠDN C
ĠAc id
MA D
ĠShi z
anc es
ĠArt ist
ĠBay esian
ĠPol ly
ĠDai sy
ĠDai hatsu
AC T
An dy
ĠSab ella
ĠBel ousov
ĠJul es
Al l
ĠAM G
ĠRa ff
ĠBur ch
ĠDub lin
ĠStud ent
ĠColle ction
VI P
ĠJeff erson
ĠVCB Neo
ĠBos ch
ĠDar rell
ĠDes c
ĠDes champ
ĠKy odo
ĠRu Nam
duc er
ĠÆ¯ Æ¡ng
ĠGrab Bike
ult ure
ĠHil der
Ġsal on
TF CAS
ĠNass er
ĠEle anor
ĠTrans l
ĠMah uchikh
ĠLeg ion
ĠLeg amex
ĠFerr er
ĠFerr ero
ĠMSN BC
ĠGhi bli
ĠOd d
ĠAst robotic
ĠRang ers
ous ine
ĠHav en
ĠCB Bank
ĠYour tango
ĠKay lee
ww w
ĠCit ig
EE E
ĠBot ic
ĠPSS I
ĠJol ion
ĠIg nat
ĠGas cÃ³n
Ġwh ere
ĠFrances co
ĠPhot og
Ġmac OS
Geo r
Ġton er
cor p
ĠKris h
ĠSind hu
ĠCommun ity
Vic toria
Ġcur cumin
ĠShar p
ĠJoong Ang
Mer cedes
Tel eg
ĠChop in
ĠOper ator
ĠBuch arest
roc co
Ġnháº½ o
ĠVerg ara
ĠTah rir
ĠZam bia
ĠHurry kng
Rich ard
Seo ul
Ġple ase
Ġlact ose
ĠMald ives
ĠEuc lid
Ġeng ine
ĠSukho thai
aldeh yde
Thing s
Ġpyg my
ĠEil ish
Ġkay ak
ĠJedd ah
ĠRecher che
ĠCanaver al
2 75
4 12
B B
B y
B á»įn
B rien
C IA
D E
D F
D ink
E CB
F E
F u
F und
G e
G rok
I CA
J e
J PL
J ensen
L y
M M
M en
M us
N ova
O ECD
O IL
R ank
R ose
R adar
S HS
T Ãº
T Ã¹ng
T iá»ĩm
T Ã¹y
W ashington
W ADA
Y oung
b ong
b iá»ĩt
b áº¡ch
b uk
b lockchain
b ilt
c áº¡nh
d Ã²ng
d ur
g om
h er
h ens
i in
i ers
i esta
j en
k V
k Ã©m
k owski
l ak
l ike
m ob
m ain
n iá»ģm
o j
o Äĥng
r ang
r Ãµ
r á»«ng
t uyÃªn
t one
u um
Ê Ĭ
Ġ Ã´i
Ġ áº¯t
Ġ Æ°Æ¡i
ĠÄĳ Ã¹m
ĠÄĳ Ã¹n
Ġv Ã¨
Ġv Ã¢ng
Ġl áº£ng
Ġl áº©m
Ġl Ã³e
Ġl Ãµa
Ġk iá»ģng
Ġtr Æ°á»£ng
Ġtr áº¯m
Ġtr ans
Ġb áº¹
Ġb ob
Ġb lo
Ġb lind
Ġs áº¥p
Ġm oi
Ġh ong
Ġh áº¿n
Ġh ero
Ġnh áº·n
Ġnh áº¿ch
Ġn e
Ġg ot
Ġd áº¿
Ġd Ã³
Ġd ress
Ġng Ãºt
Ġp ei
Ġp enny
ĠT I
ĠT áº¯m
ĠT art
Ġgi oÄĥng
Ġthá» įc
ĠN A
ĠN ana
ĠN uno
ĠN iva
Ġqu áº©y
Ġr Ãªn
Ġr iá»ģng
Ġchá» Ľ
ĠC Ãºp
ĠC lo
ĠC orsair
ĠH ama
ĠH VAC
ĠH umph
ch áº·t
ĠM á»
ĠM áº¡n
ĠM á»«ng
ĠM Lee
ĠV AS
ĠV QG
ĠV á»įt
ĠB P
ĠB ion
ĠB ike
ĠB SI
ĠB Æ°á»Ľu
anh ai
on enko
am ide
ĠÄĲ áº¡
ĠTr áº¯c
ĠTr Ãºng
ĠTr istano
ĠS S
ĠS app
ĠS ide
ĠS ome
Ġngh iáº¿n
Ġngh Ã©n
ĠA Q
ĠA ub
ĠA gi
ĠA ilee
ĠL U
ĠL áº¥p
ĠL áº½
ĠL ada
ĠL end
ĠL Ã¨ng
ĠL loyd
ĠP ax
ĠP ele
ĠP HP
ĠP imblett
ĠNg áº§n
ĠK C
ĠK Ã¬nh
ĠK een
ĠD v
ĠD Å©
ĠD ip
Ġphá» ħu
ĠG X
ĠG ul
Ġ20 32
Ġlo i
ĠKh au
ĠI F
ĠR d
ĠR áºŃp
ĠR um
ĠF eng
ĠF ami
ĠF adi
em er
hi l
ĠGi ron
ĠW he
ĠE va
ĠE MA
ĠE NT
ĠJ S
ĠJ a
il ka
Ġan other
om ing
Ġ19 12
Ġ19 35
Ġ19 24
Ġ19 38
Ġ19 44
Ġ19 41
ad ena
ĠChá» Ń
tr uy
tr áº¡i
tr Æ°á»Łng
tr ich
ac io
os ology
and in
ag hi
Ġ30 1
Äĳ Ã¡
Äĳ Ã´i
Tr ao
Tr á»įng
Tr á»£
re g
ĠphÃ¹ n
ĠAl y
ĠAl to
Ng á»ĵi
ĠZ ee
ĠZ ilis
19 5
19 62
19 61
ĠBan obagi
ob ic
ob ook
Ph ÃŃa
ut ter
ĠMar kham
ĠMar vell
av al
10 3
ĠRe ev
ian ne
ian to
ĠSt op
ĠSt utt
ub l
Ġf low
ĠHy uk
Ġ24 2
ĠJo ao
Ġ0 2
ĠAr on
sk aya
ĠKim mel
st ra
eg u
Ġ23 9
Ġ26 4
ĠPro b
son s
Ġáº¤ p
ĠAm ber
ass e
ĠChi bi
ast en
ico id
Ġ29 8
ĠAs ma
ant ra
ant age
Thá» «a
aw rin
hn an
ĠVin ton
iz en
ber l
CS C
uk ov
ett o
iss at
Ġ32 4
ĠUn kn
ĠSte vens
ĠCam illa
ĠStar gate
Ġco at
ĠInst yle
ĠAng kor
se ng
ĠAlex is
ĠSw in
ĠSw ee
Ġst ick
ĠOr t
ĠOr ban
ĠMel chert
tra ct
ĠDon ovan
Ġbl ack
ĠLi DAR
ien ne
Ġ54 3
ĠLam br
EF R
AD B
ĠFl ight
ĠNo tre
Ġbar ista
ĠSn yder
An ton
TT Q
ĠVen us
ĠVen ue
air es
ĠMob i
ĠSol omon
amb u
ĠNap a
ĠRa ja
198 3
ĠSteph an
ĠBur ke
ĠKon onenko
Ġis pace
ĠCross trek
197 6
ĠRen ault
able coin
Vin pearl
ĠWin mart
ĠSel angor
ĠGab bana
ĠBet ter
tu al
ĠAz ure
ĠBon cha
ĠTrans formation
ĠSav an
ĠHá»Ĺ n
ĠMah moud
ĠDong feng
ĠCoun cil
ĠAug usta
ulin um
ĠKl imt
ĠOk inawa
ĠArn aldi
ĠPre et
ĠKyr gyzstan
ĠLear ner
jin omoto
ĠCur ran
ĠPeg ye
ĠPort land
ĠFab iano
led ge
ĠGyeong ju
eno ord
ĠCast le
ĠCall io
ĠMis tral
Khá» ĳi
Ġab oluowang
Ġsand box
ĠBour dain
shi pper
ĠÄĳáº½ o
ĠAu ction
ĠAra v
ĠLÃ£ m
Pan th
ĠFly ing
ĠBald oni
ĠShah ed
Ser ies
ĠSA WACO
ĠÄĳá»Ŀ m
ĠDisc overy
Ben jamin
ĠZen book
ĠSchw ab
ĠVA SEP
ĠTig uan
ĠDid dy
ĠPrab ang
Bang kok
ĠConsult ing
ĠYellow stone
tit led
ateg y
ĠFut ures
ĠAnto ine
Ġbec ause
ĠHre ng
ĠFey enoord
ĠTimoth Ã©e
ĠNovos ilka
ĠHist ory
ĠVander bilt
ĠRol ex
ĠJour ney
ĠManpower Group
ĠBened ict
ĠBiolog ique
ĠOres hnik
ĠMays aa
erom one
ĠZeg ler
ĠDeschamp s
Dink el
ĠStutt gart
awrin ka
ĠUnkn own
3 90
4 10
9 40
A WS
B M
C Ã¡nh
C as
F est
G u
H G
H áº¡nh
I m
J im
J ustin
J oker
K az
K ee
L an
L á»¯
L Ãłng
L PBank
M áº¯t
M obile
N ot
N eymar
O cean
P ier
R un
R ed
S an
T áº§m
T ag
T ee
T á»©
U ng
U EFA
V áºŃn
Y oon
b Ã£i
c re
c ovax
d ue
d rama
h Æ°u
h uyáº¿t
i Pad
j al
k ata
l áº¡c
l ov
m inh
p u
r t
r Æ¡i
s c
s Æ¡n
s tream
t iÃªn
t iá»ĩc
v ey
v oucher
w anda
x x
x áº£
z in
z hou
Ġ $
Ġ Å
Ġ áº¡ch
Ġ old
ħ nh
ı âĢı
ng á»ĵi
Ġt Ã²ng
Ġc od
Ġc oli
Ġc oban
ĠÄĳ Æ¡
Ġv Ã³t
Ġl Æ°
Ġl áº¡t
Ġtr áºŃp
Ġtr áº±n
Ġb áº±m
Ġb omb
Ġb Æ°Æ¡n
Ġb etter
Ġb urger
Ġth Ã³p
Ġs m
Ġs iro
Ġs Ã©c
Ġm Æ°á»Ŀng
Ġm as
Ġm ain
Ġm obile
Ġm otor
Ġh Ãºp
Ġh ere
Ġnh Ã²m
Ġn et
Ġg á»Łi
Ġch Ã¹ng
Ġch áº§m
Ġkh Ã¹ng
Ġd iá»ĩp
Ġd Ãºi
Ġp en
ĠT is
Ġph Ã¹ng
Ġph áº£ng
Ġph oto
Ġph eromone
ĠN ia
ĠN ine
ĠN ie
Ġx Ã¬nh
Ġx Ã¢u
Ġr Ãºc
Ġchá» ı
Ġchá» ±c
an z
ĠC áº¥n
ĠC á»ĳt
ĠC ASA
ĠH á»ĳ
ĠH ÃŃt
ĠH ana
ĠH ano
ĠH els
ch Æ°ng
ĠM iÃªu
ĠM á»ĳc
ĠM ecca
ĠV D
ĠB Ã´i
ĠB áº¡o
ĠB omb
ĠB ain
ĠB WF
on ing
ĠTr Ã¡ng
ĠS I
ĠS ed
ĠS ÃŃn
ĠS hip
ĠS aga
ĠS GI
ang a
Ġkhi Ãªng
ĠL Æ¡
ĠL áº¯ng
ĠL ob
ĠL Ã£ng
ĠL akers
in bank
in burgh
ĠTh inh
ĠP BA
ĠP odcast
ĠK A
ĠK S
ĠK iÃªu
ĠK ui
ĠK art
ĠK ishi
ĠK OC
ĠD w
ĠD iv
ĠD BC
ĠD illon
ĠG I
ĠG ent
ĠG astro
er u
ĠPh Ã¡c
Ġ3 12
ia q
ĠKh áº©n
áº» m
el u
or ock
ĠI PA
ĠI feng
Ġ4 35
ĠR Ã´
ĠR up
ĠF ra
em ont
ĠThá» ı
et ic
ic ial
at z
at om
at ov
20 35
ĠGi ri
ĠQu entin
ol et
ĠW I
ĠW a
ĠW ow
it ech
it sky
ĠE arly
Ġ7 68
ro g
us an
ĠHo st
ĠY ing
ĠY os
ĠY ir
ĠY ola
ĠX ports
Ġmang ut
ÄĲ Ã¡ng
ÄĲ Äĥng
ÄĲ Ãłm
il ic
om in
om ed
ĠO ry
th Ãº
tr Ã¬nh
tr Ãło
Ġban king
ter res
and i
ag les
ap y
ĠNhá» ĩn
ed onia
Äĳ Ã²i
Äĳ á»©a
Tr ip
ĠIn iesta
Ch in
ak ase
od ua
Ġcá»¥ i
ĠHá» £i
ĠAl b
ĠAl aves
ĠZ v
ĠZ ia
19 57
Ġ16 00
ph an
ph ÃŃa
ĠLe he
ĠLe eds
Ġ25 2
ĠIs lam
Ġ18 88
og lu
Ġgh im
ĠMar rocco
10 7
10 9
ly wood
ĠRe ap
ĠRe ed
ank e
ank ai
ab les
Ġo pen
ĠLu ca
ĠLu cius
Nh iáº¿p
ul lin
Ġ40 5
Ġw ater
ĠBá» ¥i
Má»¹ Má»Ļt
art o
Ġf r
Ġ24 6
ĠJo ey
lo on
ĠSh eng
eg an
ĠSp ur
ĠCar son
ff y
car is
ĠPro cess
ĠPro Motion
qu Ãł
qu es
Ġ27 8
ĠSo áº¡n
ĠAm ra
ri be
Ġ29 6
ĠMan bo
ĠâĢ ıâĢı
ĠVin son
ĠVin school
ĠGu er
ĠGu terres
AT L
ĠBra via
ĠTim o
ĠMas k
Ġcar o
uk esh
ĠGen esis
15 9
ĠUn titled
ĠCal vin
eep ee
ĠMon thong
Ġ33 7
ft s
ĠNad ia
ĠCam ille
ens is
ĠSch ia
ĠSer gei
ĠDi ogo
ug eot
ĠGl amping
ĠGl amour
ep t
ĠEr penbeck
ĠSw an
ĠOs age
ĠDeep State
ĠDavid ovich
ink i
ĠCom edian
ger ald
ĠRobert son
ĠEd inburgh
ĠSe on
Ġ39 5
sh are
che ng
13 7
ĠSon ic
ĠEn sa
ĠThi el
ĠÆ ł
ĠMiss osology
ĠbÃ¬ u
ĠJon as
ĠLam sam
28 5
ĠAc er
IS RO
MC G
ĠMur n
ĠNi hon
ĠSuper man
ĠRed Magic
ĠSab at
ĠComp lete
ĠOb ser
ĠYam amoto
TH UH
ĠBy un
EU THUH
ĠWest life
ĠBur berry
ĠDub ov
ĠNat alia
ĠWh ere
ĠSar itha
ĠOm aira
ĠIm m
ĠGood wyn
ĠTO PS
ling ton
ĠTur ing
ĠAp ax
Ġhydro x
ĠSel f
Ġcai man
ĠIC EF
ĠLim a
ĠJam aica
ĠCons ani
ĠMcC l
ĠChe ong
ĠChe ck
ĠInvest or
mas ter
ĠPart y
ĠDC VFM
ĠBenn y
HN N
atin um
ĠWay mo
ĠDal ot
ĠEnter ogermina
ĠStefan ik
ĠKath y
rol et
ĠHor izon
ios k
ĠPon te
ĠEdward s
Ġel ec
ĠPass u
ĠShang ri
ĠDec umar
ĠHag ari
ĠSund ar
ĠJud son
ĠKenn y
ĠPel tz
ĠAless andra
ĠCG TN
Ġmake up
ĠMul ler
ĠChev rolet
ĠOrgan ic
ĠTD H
ĠRow ling
ĠJur assic
ĠSuns port
Ġtul le
ĠFuj ifilm
__ __
ĠEdu ardo
ĠMeh ta
ĠHit achi
ĠTet ra
ĠKasper sky
Ġlim ousine
ĠSac chi
Ġmil imet
ĠPrab owo
ĠFrom me
Dr ive
tru ction
Shop ee
Ġgr unge
ĠField s
ĠKiss inger
ĠTall on
ĠBoom ers
HAG L
Ġtw o
ĠSylv ia
ĠHr eo
ĠErd ogan
ĠFitz gerald
ĠJal il
ĠYass in
ĠTTC K
ĠUg anda
ĠCommunic ations
Ġbio char
ĠShy nh
ĠResiden cy
ĠPapp achan
Ġaqua thlon
ĠVely ka
ĠJeann ette
ĠFortun er
ĠSain z
ĠElys ee
ĠHerbal ife
ĠKrish nam
Ġhero in
ĠProb andt
ĠLambr etta
ĠKishi da
ĠLehe cka
EUTHUH AI
" ).
3 10
3 13
8 10
B Ã¡ch
B MW
C ÄĲ
C ool
C zech
D s
E du
E PA
E PR
G G
G N
G O
H er
I oT
J O
K RX
K leen
L á»±a
L ady
L istening
L yon
M Ã´ng
M osk
N Äĥng
N est
N CB
N issan
P orsche
S Ãłn
S uz
T our
U K
V ina
W T
W GC
b Ã²
b Ã¹ng
b ett
b illiards
c anh
c Ãłng
c as
d ai
d áº«n
d ez
d ition
e us
j ang
j eon
l áº¡
l Ã²
l ap
l aw
m Ã¢u
m á»ı
n al
p iece
r era
r ico
s z
s ion
t d
t Ã´n
t es
t áº¯m
v iá»ĩn
v Ãłi
v est
v ili
w ig
w ater
x Äĥm
z ig
¡ n
¾ ch
Ã Ĭ
Ë Ĳ
į ch
ng Ã´n
Ġt Ãłnh
Ġt Ã©p
Ġt áº¥c
Ġt ester
Ġv Ã´ng
Ġl áº¥u
Ġl Ã²a
Ġl Ã¬a
Ġl idar
Ġb as
Ġb rand
Ġb illiard
Ġth Äĥn
Ġth Ã³t
Ġs te
Ġs tre
Ġm Ã¡nh
Ġnh Ãº
Ġg áº£
Ġg ran
Ġch amp
Ġd evel
Ġp alladium
ĠT era
ĠT Æ°Æ¡i
ĠT ensor
Ġph en
Ġtá» Ł
Ġtá» £n
uy en
ĠN ico
ĠN une
ĠN ever
ĠN áº·m
ĠN AB
Ġx iÃªu
Ġr Ã´n
Ġchá» ¥m
an ak
ĠC M
ĠC oi
ĠC ert
ĠC ec
ĠC afÃ©
ĠH uyáº¿n
ĠH ey
ĠH af
ĠH MO
ch Ã¹a
ch uan
ĠM E
ĠV ert
ĠV ery
ĠB áº¿
ĠB áº¡
ĠB áº¯p
ĠB Ã¡u
ĠB ou
ĠB otte
ĠB ooth
am u
ĠÄĲ ÃŃnh
ĠÄĲ Å©a
ĠTr eo
ĠTr Ã¢u
ĠTr ade
Ġlá» īnh
ĠS áº¿p
ĠS lo
ĠS GS
ĠS ole
ĠS ardin
ĠA o
ĠA ichi
ĠA AA
ĠL LO
ĠL otteria
ĠL alamove
ĠTh en
Ġho áº¯c
Ġho st
ĠP ix
Ġgiá» ¡n
ĠNg Äĥn
ĠK j
ĠK et
ĠK um
ĠD z
ĠD á»ĭ
ĠD in
ĠD áº¡ng
ĠD ot
ĠD ict
ĠG ol
ĠG ina
ĠG eepee
er ite
Ġsá» ı
Ġ20 9
ĠCh iáº¿u
ĠCh il
ĠPh ra
ĠU X
ĠU MP
ĠU chida
Ġá» Ńng
ĠKh Æ¡
el i
el o
ĠI w
ĠI SI
es te
ĠR az
ĠR atch
ĠR aul
ĠR ise
ĠR EE
ĠR wanda
ĠÃ ĵ
ĠÃ įch
ĠF ay
ĠF lex
ĠF aker
Ġná» Ľt
et in
ic us
as oo
as ons
as una
Ġso hu
at oglou
ĠÄĲá» §
hi ro
ĠGi gg
ĠQu anh
ĠQu Ã¡t
ĠW ant
ĠW end
ĠW PA
ĠW oz
ĠW awrinka
ĠE tt
Ġkhu i
ĠJ ia
ĠJ ing
ĠJ ie
ĠJ CI
us te
ĠY um
ĠY oshua
ĠO v
ĠO NE
Ġ19 17
th ao
Ġtho ang
ac ute
ĠAn ita
ag ues
Äĳ áºŃp
Äĳ áº¯t
Tr ÃŃch
Tr á»¥c
Ch áº·ng
ĠhÃ£ n
od ir
ĠAl aia
ion aires
19 53
ph in
az quez
ĠLe go
Ġ18 85
ĠThu duc
ĠMar e
á»ĩ m
ĠTu fts
av ik
ĠRe ich
ab al
ĠLu ck
ill ian
Nh an
ck ey
ĠSt ay
ĠSt ol
eb u
ub a
ĠthÃŃ a
Ġw ord
Má»¹ CÃ¡c
Má»¹ Tay
art s
Ġf il
ĠHy aluronic
Ġi POS
Ġ21 8
Ġ0 28
Ġro ad
kh ung
ĠSh imb
ĠSh yn
st own
ev ich
ĠCon tent
Ġ23 4
ĠCar y
car om
ĠPar ma
qu ot
Ġ27 6
Ġáº¤ y
ĠBa ena
ĠBa ja
Ġ28 7
io id
ĠAm ir
ĠAm Cham
ĠGo tham
ort y
ĠEl ton
ĠEl asten
oll ib
ud d
Kh Ã³a
Ġ35 4
Ġ35 8
Ġon ly
Ġ31 8
ĠBr una
ĠBr endan
ĠSc ors
ĠGu antan
iz i
Qu áºŃn
yl es
ĠCol gate
uk u
ĠÄĲo Ãłi
ĠCl imate
ĠDe ir
ĠRob ber
ĠRob orock
ott a
ust ain
ĠSch war
ĠSer hi
ipp er
ĠCap ybara
to cin
ĠMark ets
Em manuel
ĠDung áº¢nh
ĠEr igai
ĠBen ito
ĠSw iss
att i
Ġst ablecoin
ĠBo ca
ĠKhá» ķ
Ġ42 1
ĠFor m
ĠCom fort
ĠPer m
ĠPer ric
ĠPer odua
he im
ida e
ĠEd die
ĠDon y
itt a
sh ot
ĠVi olympic
ĠRom ance
ĠHan sen
ĠMay er
ĠJon elle
CA P
ĠMat rix
ĠPi one
ĠRos en
IS W
top ia
IA EA
ĠLou vre
á»Ĺ m
AS C
ĠGra f
ĠVen eta
ĠDO J
ĠSol o
ect ion
ĠTon er
ĠTe ck
ĠOl ga
ĠKing dom
ĠTor ino
ĠGh ana
ĠMaria h
Ġis oflavone
ĠNe umann
ĠSouth west
Lu is
ĠViv obook
ĠVik ing
lev el
ĠFA A
ult an
ĠHaw k
ring ton
ĠFar ina
ĠFar go
ĠFound ry
ĠAlph ard
ĠIB O
ĠMir ra
Cap tain
ĠIl ul
AF F
ĠJess ie
ĠCher ry
ĠNik ki
gu erite
ĠCer ro
ĠPV C
ĠOut look
ĠOut lander
ĠHur st
ĠMI L
ĠQueen am
ĠFab ian
Ġpar ents
Mac Book
ĠSor ento
ĠRO E
ĠKor eno
ĠFE MA
ĠWes ton
ĠHor se
ST D
ĠCle ans
ĠPT DT
ĠJak ub
ough t
Ġbot ulinum
ĠRec ipe
ĠCit i
ĠLem on
ĠPor trait
ĠPur due
agh er
ĠRat cliffe
ĠGian lu
NO AA
Ġcort icoid
ĠColl ider
ĠMarcel o
ogl io
ĠSpr ings
Ġphot obooth
ĠLak en
ĠÄĥng ten
ngh Ä©a
ĠFiin Group
ĠNano covax
Ste ve
cor vo
ĠPA FACA
ĠDisc ord
ĠBurn s
ĠSiem ens
ĠBerg oglio
ĠCarr era
ĠMetropol itano
ĠBee ch
ĠEst ate
Dai ry
thor ne
wh asoo
ĠAlban ese
ĠAur ora
Alex ander
ĠTrail er
ĠAbb ott
ĠKost y
ĠAviation ist
fun ix
Ġaer obic
Ġá»Ķ n
ĠNeural ink
ĠNom ura
ĠMend es
ĠWiki Leaks
ĠLun ar
ĠHoff man
ĠYur ia
ĠBlog ger
ĠIK MC
ĠRepl ika
ĠSemi An
ĠKuw ait
Ġchild ren
ĠESO P
ĠNok ia
ĠClo oney
Kee fe
Pier re
ĠSabat ier
Mosk va
ĠNune z
ĠBotte ga
ĠSardin ia
ĠLLO UD
ĠUMP K
ĠGigg s
ĠWoz nia
ollib ee
ĠScors ese
ĠGuantan amo
ĠErigai si
ĠPerric ard
0 20
0 30
0 99
2 25
3 85
4 17
4 99
9 70
? '",
A qu
B u
B ro
B reak
C op
D Æ°
E lo
E quipe
F ox
G ood
H uyá»ĩn
I OC
I vy
J u
L i
L exus
N Ãºi
N á»Ĺ
P ub
P ace
R B
R AD
S K
S uy
S Ã¡t
S VN
S akura
T ÃŃn
U SI
V áºŃt
V AMA
X ung
c s
c uá»ĳi
c áºŃu
c á»ĳng
c á»©ng
d is
f est
g Ã³p
k Ãªnh
l ar
l is
r Ãª
r ite
s áºŃp
t ia
t Æ°Æ¡i
w eb
x AI
Ã ī
Ġ use
Ġc áº¡m
Ġc os
ĠÄĳ Æ°á»Ŀi
ĠÄĳ áº¥ng
Ġl á»ĭ
Ġk it
Ġtr Ã³t
Ġtr ack
Ġb uy
Ġb ro
Ġb ison
Ġb ring
Ġs ar
Ġs áº©y
Ġs up
Ġs ub
Ġs mar
Ġm us
Ġm Ãºn
Ġh Ã³i
Ġn áº±ng
Ġn Ã²i
Ġkh áº¿
Ġd áº¥p
Ġd Ã¬m
Ġng á»Ļp
ĠT b
ĠT Ã¡ch
ĠT iá»ģm
ĠT ort
ĠT eng
Ġph Ãºng
Ġph one
Ġvá» ĵ
Ġthá» ĳc
ĠN ong
ĠN á»Ł
ĠN in
ĠN ed
ĠN ate
ĠN eal
ĠN ankai
Ġx áºŃp
Ġqu est
Ġqu á»ĩt
Ġr ing
Ġr ub
Ġchá» ĵi
ĠC J
ĠC Æ°á»Ŀi
ĠC ort
ĠC ash
ĠC ustin
ĠC ase
ĠC SC
ĠH ed
ĠH ust
ĠH uss
ch Ãºc
ch uk
ch igi
ĠM Ãº
ĠM SE
ĠM ook
ĠM eal
ĠM its
ĠM ura
ĠV ig
ĠV igo
ĠV SEC
ĠB uá»ĵn
ĠB á»ĩ
ĠB eg
ay ashi
Ġmá» ģ
am ont
ĠÄĲ Ã¡y
ĠTr ee
ĠTr icia
Ġlá» §i
ĠS áº£ng
ĠS ok
ĠS ig
ĠS ik
ĠS low
ĠS rin
ĠS oul
ĠS mile
Ġ" '
ĠA es
ĠA xe
ĠA jinomoto
ĠL áº©u
ĠL ist
ĠL iam
ĠTh iá»ĩp
ĠTh ank
Ġho w
ĠP ag
ĠP ran
ĠP ain
ĠP CI
ĠK w
ĠK eo
ĠK ound
ĠD S
ĠD áº¡o
ĠD ain
ĠD ino
ĠCh aser
ĠPh Ã¡
ĠPh Ã¬n
Ġto ok
ĠKh ay
ĠI con
ĠI FC
ĠR iz
ĠQuá»ĳc Má»Ļt
ĠF ati
ĠF uad
ĠF SD
ĠÄĳo Ã¡i
ĠGi t
um acher
Ã¨ ne
id an
ĠE asy
ĠE agles
ro b
Ġchi ff
le igh
Ġ9 40
ĠHo b
ĠY ad
ĠY erm
Ġmang a
Ã´m e
om as
om ere
ĠO rochi
ĠNá»Ļi NgÆ°á»Ŀi
th m
Th Ã¡ch
tr Ã´ng
tr Ã¡nh
tr ib
ĠAn y
... ;
and ine
ĠTá» ¥
ov it
ag os
Ġca ke
Ġ30 5
re k
re hens
od uo
ĠDo ors
ĠDo yle
Ng á»§
19 14
19 28
19 26
ie h
ph Ã¡p
ph or
ph arm
ph ony
Ph Ã¡i
Ġ50 1
ut a
ĠIs s
ĠIs ak
ĠMar iana
ul u
Ġw ho
Ġw atch
Ġf amily
ĠJo anna
Ġi Pay
ĠAr my
kh ar
kh áº£o
kh áº©u
ĠCan tor
ĠThe il
op oulos
ĠSh ab
ĠMus so
eg ro
ĠCon clave
ĠLo o
Ġ27 7
SE A
ey es
ert ies
ĠDu da
ass y
du oduo
ĠEl is
ĠEm pire
ĠAs he
ĠBar cola
ĠBr ugge
ĠSam oa
Ġ90 7
iz uki
ib r
ib an
ett ing
ĠÄĲo Ã¡n
ĠSte ff
ust o
ct or
ĠYou Net
ĠCap ello
ha al
ĠGl en
Ġal ways
ash imi
Ġst ill
kho e
ĠBo c
ĠBo ost
yo ung
Ġoxy tocin
eh icle
ĠUl la
ĠBer ger
ĠBro d
ĠMic ron
ĠEn vironment
ĠCho on
ĠMi ley
ĠKar no
ĠSal t
28 9
26 5
ĠMa e
ĠMa jin
Ġj ump
Ġj oy
ĠAll i
Ġfor mat
ĠMW C
Ġ53 8
Giá» ¯
ĠGeorg ie
ĠSá»Ń u
ĠBlack Rock
ĠNo em
ĠBank er
ĠKr uger
ny i
Ġson ar
ju ice
ĠJim mie
ĠIP v
ĠTw in
ound er
ĠPra do
ĠWest wood
ita Dairy
ĠBeck y
Ġpl atform
ĠWh ar
ĠDr u
ĠOm dia
ĠOm akase
ĠModel s
ĠGood all
Lu Ã´n
hu áº¥n
ĠMu á»Ļi
ĠKy ong
ĠEver y
ĠEver ton
ĠPe ugeot
ĠSmart Things
ĠJam al
Nghá» ī
ĠBrand t
ific ation
DC VFM
ĠTal ks
br ugge
ĠMcC ur
ĠRock et
ĠCel ia
ĠKn ights
ĠKaz uma
ĠKid o
ĠOcean Bank
ĠChang shin
Ġje an
ĠSav ina
ĠBow ers
ĠGall agher
Ġstud y
Ġat iso
ĠFi or
ĠMour atoglou
Ġ= >
rad or
ĠOrigin al
ĠLib by
ĠCoin base
Ġar ound
ĠCB F
ĠGil bert
ĠSolut ion
ĠHum ane
ĠCOP D
ĠWW DC
As ton
ĠEll is
ĠEll ison
ĠFreder ick
ĠFac ial
CV T
ĠTM Z
Ġtá»ħ nh
ĠGai man
ĠSof ÃŃa
ĠRoth en
ĠJae coo
Ġwh is
ĠMarcel e
ĠBuk ayo
ĠAcc ess
ĠZakhar ova
Ġop ioid
ĠBird s
ĠTD TT
ĠDj ere
Bay ern
ĠTR UMP
ĠJust ine
ĠOt ago
ĠRadio active
ĠBlan ch
ĠTat ler
ĠMetropol itan
itar nyi
Ġdr iver
Ġret inol
ĠXo Ãłi
Bal ah
ĠPap ua
Ġweek end
Ġcre ator
ĠWick ed
ĠHarmony OS
ĠCompet ition
ĠCompet ency
Ġcook ie
ĠEurope an
Sm ith
vie c
ĠBast ad
Ġgra phite
ĠNeg av
ĠCot eccons
ĠMech an
ĠRivers ide
ĠFore ver
ĠJag uar
Que en
fess or
ĠTrib une
ĠMathi eu
ĠNutr ition
Ġbik ini
onn aise
Vie ON
ĠKirill ov
ĠTot al
lux tour
Ġpep tide
ĠDiff usion
ĠIda ho
ĠGarm ex
ĠKeen an
ĠZee brugge
ĠSchia par
ĠSwan son
ĠPonte corvo
Ġelec tron
Ġtá»Ł m
ĠSemiAn alysis
Ġchiff on
% ".
1 000
2 14
3 35
6 33
A dam
B inh
B ia
B rain
C Ã¡t
E B
F re
F ID
F irst
H ow
H uman
I E
I O
I LO
L Ã¢u
M b
M Ãłu
M edia
N P
N SA
N BA
O m
P et
P MI
R N
R au
S on
S at
S hi
S ocial
T á»§
T ime
U p
U SG
U CR
V Ã¢n
V ai
W ork
b az
c en
c Å©
f le
g s
g ado
g azer
g round
h áº§u
h Æ°Æ¡ng
h al
h om
h ome
j oy
k ami
l ist
m áº·c
m á»Ľi
m ins
n áº¡n
n or
n ot
n ton
n á»Ńa
o ia
p al
p ose
s á»
s Ã³ng
s ing
s peed
s ugar
t Æ°á»Łng
t ÃŃp
t á»«ng
y stem
Ġ áº£i
Ġ aco
Ġc ell
Ġv áº¹m
Ġtr Ã¡t
Ġb it
Ġb áº«m
Ġth em
Ġm ade
Ġm oney
Ġh im
Ġnh áº£nh
Ġn iken
Ġg ly
Ġg Æ°Æ¡m
Ġg reat
Ġg erman
Ġd Ã¡t
Ġd á»ĳt
ĠT áº»
ĠT ap
ĠT ek
ĠT CI
Ġph Äĥng
Ġgi g
ĠN id
ĠN af
ĠN aga
ĠN igel
Ġr áº¿t
Ġr im
Ġr áº¯m
Ġr á»¯a
Ġr eg
ĠC is
ĠC zy
ĠC owell
ĠH ell
ĠH TX
ch y
ĠM ou
ĠM EF
ĠM oto
ĠM TTQ
ĠV K
ĠV ach
ĠV AMA
ĠB Æ¡
ĠÄĲ iá»ģm
ĠTr oy
ĠS R
ĠS Ãºp
ĠS á»Ńa
ĠS SC
ĠA q
ĠA CC
ĠA cker
ĠL áº¿
ĠL Æ°á»Ľt
Ġho cmai
ĠP H
ĠP ence
ĠP BOC
ĠK ou
ĠK ee
ĠK ays
ĠD ad
ĠD ist
ĠD iane
ĠG á»ĳc
ĠG ould
ĠG ulf
ĠG azz
Ġsá» ©a
ĠQ D
ĠCh us
ĠCh lor
ĠCh ep
ĠCh eon
Ġ3 11
Ġto m
ĠKh uyÃªn
ĠKh Ã©p
ĠKh Ã©o
el ier
or an
ĠI rene
ĠI jen
es hip
ĠR ag
ĠR app
ua te
Ġlu mi
Ġlu pus
ĠF am
ĠF au
ĠF LC
em us
et le
as imov
Ġvá»ĭ n
is i
is te
at ani
Ġthi u
Ġthi ng
ĠGi use
Ã¨ le
id den
ĠW att
ĠE ra
ĠE OS
ĠE cho
Ġkhu Ã¢y
Ġ7 10
ĠJ iri
Ġ8 20
Ġ8 60
Ġ9 20
ĠHo over
ĠHo we
ĠHo ms
ĠY aga
ĠX ÃŃch
ĠX ie
ÄĲ Ã²n
il yn
ad ol
ne ction
ne apolis
th iá»ĩt
th Ãºc
ur k
ur ine
ac ios
ĠAn essa
ĠÄĳá»ĵ m
ov ka
ed i
Äĳ Ã¬nh
Äĳ en
ak ris
ĠAl am
ĠDo or
ĠTo chigi
19 25
19 23
ent ence
pp e
ard a
ir us
ĠMar issa
ĠMar guerite
av ing
ĠRe aper
ĠRe illy
ou f
ab in
ab it
ĠSt able
ĠthÃŃ m
Ġhy d
Ġnháº¹ t
gi áº¥u
ĠHu á»ĵi
Ġf air
ore p
Ġi zi
Ġsai d
kh iáº¿n
ĠCan yon
Ġ22 4
Ġ22 8
11 6
op ing
ĠNha HLV
ĠViet inbank
ĠSh ak
ĠSh ort
ĠSh are
st ed
st ock
Ġbu ilding
ĠCar ib
ĠCar men
SE L
omb u
ĠAm using
ĠAm andine
ĠGo h
ĠGo op
ert z
ĠDu ne
Ġ29 3
In s
Kh Ã¡m
ĠAs ter
ĠCo pper
ĠGr ill
chá» Ĺ
Ġof ten
ĠTim othy
end aya
Ġhu Ã½t
iss e
ĠGen k
ĠUn ai
ĠCl if
ĠMon ique
ĠPl ate
ĠCam us
ĠSch ro
ĠSch umer
ĠSch neider
ĠSch umacher
VN PT
ĠPal acios
ug u
iev e
ĠGl obe
Ġpro ducer
Ġ38 3
ĠSun ni
ĠPr ed
ep ort
ĠEr ick
do or
att a
ĠBo oster
ĠMin neapolis
ĠPet r
ĠWal k
ĠUl br
tra de
ĠAndre as
ĠBill ionaires
ĠMil itarnyi
ĠRom ano
ĠOn ce
ĠCho colate
ĠMat ic
ĠRes erve
ĠRich mond
oc irc
lu cent
ĠWil der
ĠWil ts
ĠTá»Ń u
ĠGeorg es
65 5
ĠHa as
ĠEv il
ĠEv geny
ĠRed Note
ĠGer ring
ĠGer asimov
ĠVen esa
ĠIv es
%) ...
ĠMill ie
ĠLat via
uc c
yan in
ĠTw ente
ĠRod dick
ĠGh Ã©m
ĠWh y
ĠKel ley
pl ate
ĠGood y
ĠSand ers
ĠKang aroo
ĠSel phy
ĠSoft Bank
ĠWat erg
ĠSub ianto
ĠJam on
ĠDem is
ific ial
ĠMcC all
ĠPop ov
ĠRad ar
ĠRh ode
ĠFal mi
ĠFred die
ĠFu ente
ĠGe a
ĠPower China
ĠCos m
Sh ara
Bar ron
ĠSher ri
zh in
Ġstud ents
ĠMen u
ĠJD AM
Ġkar ate
JI CA
ĠPV OIL
hy un
Ġvo á»įc
ĠSho gun
ĠSom yot
ĠBlu es
ĠBlu ffs
ĠAdv is
ĠCS R
ĠGyeong sang
etz ky
Ġar sen
VCB F
ĠFund iin
ĠOptim um
há»Ĺ n
ĠHU RC
ĠBour bon
So obin
ĠDimit ris
ĠTrip le
ĠRem ix
ĠBian card
ĠFlow ers
ĠChamp ion
ĠKOL s
Be auty
Ġhip hop
ĠPhot oshop
ĠGam ing
Har ris
Re uters
MW G
SL NA
ĠPD F
NS ND
ĠBT U
HU TECH
ĠVick ie
ĠShap oval
ĠKry st
ĠIbrahim ovic
ĠEur asia
Cam era
ĠDab at
Ġsho pping
Ġsho uld
ĠLav rov
ĠZe it
ĠEdu Connect
ĠBroad com
Ġmon th
ĠChap man
ĠTrev or
ĠJacqu eline
ĠDep ay
ĠMidd le
ĠMidd leton
ĠConn or
Ġ00 7
ĠBeaut Ã©
ĠAx el
ĠRab bit
ĠEt ch
pho on
ĠChlo Ã©
lear ning
Soft ware
ĠWy oming
ĠProp erties
Lau ren
Sw iatek
rene ur
Val entine
Ġpart y
Ġreal ly
hor mone
ĠCran es
ĠVinac afÃ©
ĠHampton s
dil ao
Ġhal f
ĠKier k
Mil k
ĠPoi rot
ĠAlp ine
Ġend orph
ĠNaz ario
ĠKod iaq
okh od
lins mann
ĠPrim ary
ĠMerck x
stell ation
ĠNel da
ĠYaros lava
Ken ya
ĠComm od
ĠOlive ira
ĠNapole on
ĠUnitedHealth care
Ã¦ r
Yam aha
ĠSongk ran
ĠAltern Åį
ĠParad ise
Mob iFone
ĠArd ila
Zen eca
ĠHors chel
ĠJann ese
Ġfol low
ĠMyster e
ĠReev es
Panth era
ĠHels inki
ĠGastro Pub
Ġchamp agne
ĠKj Ã¦r
ĠIlul issat
ĠSrin iv
ĠWhar ton
UCR U
Ġaco ustic
Ġgerman ium
ĠCzy z
Ġlumi Ã¨res
etle juice
akris hnan
ĠUlbr icht
ĠWilts hire
) "
/ ,
0 25
3 95
4 15
6 90
B áº£ng
B OT
B GD
C y
C ua
C iv
C Æ¡m
D X
D b
D Ä©
D ev
E ver
F K
G ov
H Ã´n
I r
I FC
I FI
K iá»ĥu
L áº¡i
L yn
L uc
M eg
N Ãły
N IC
N obel
O l
O lympia
P ak
Q A
R WA
S e
S Äĥn
S el
S ub
T áº¡
V es
W in
W ind
b á»ĳc
b om
b áº¥m
b ap
c ai
c áº·p
c á»Łi
d ao
d al
f ace
g l
h eo
h iáº¿m
h ack
j s
k á»ĭch
l iá»ĩu
m á»ķ
m áº«u
m ich
m á»¡
n á»ĵng
o trich
p ole
r im
r á»§i
s um
s oo
s eller
t áº¯t
t coin
v ant
v á»ı
w C
w ing
w all
Ã ¸
Ġ )
Ġ :
Ġ econ
Ġ iá»ĳt
ĵ m
á» Ľt
nh á»ĵi
ĠÄĳ Æ°á»£m
Ġv áº¡ng
Ġv logger
Ġk aki
Ġk iosk
Ġtr Ã¡p
Ġb Æ°á»Ľng
Ġth Ã£i
Ġs áºŃm
Ġs ec
Ġh Ã²ng
Ġh Ã³ng
Ġnh Ãłi
Ġnh Ã³i
Ġn Ãłi
Ġn Ãºp
Ġn ever
Ġg Ã¡o
Ġg allium
Ġch ang
Ġch Ã´m
Ġch ange
Ġch áºµn
Ġd Æ¡
Ġd ar
Ġd eal
Ġng Æ°á»Łng
Ġp ay
Ġp ress
ĠT W
ĠT iáº¿u
ĠT ac
ĠT áº©y
ĠT Ã¡u
ĠT ier
ĠT een
Ġph y
Ġvá» Ľ
Ġhá» ±c
ĠN Ãª
ĠN Ãªu
ĠN Æ°á»Ľng
ĠN Ã£o
ĠN io
ĠN iáº¿p
ĠN aldi
Ġx Ã³
Ġx Ã©n
Ġx á»ĭn
Ġr an
Ġr est
Ġr á»Ļp
an sen
ĠC att
ĠC FA
ĠC aud
ĠH M
ĠH Ãºt
ĠH us
ĠH ave
ĠH TM
ch Ãłng
ĠM áº¡i
ĠM áº¿n
ĠM áº¥u
ĠM it
ĠM AMA
Ġcho line
ĠV ay
ĠV TC
ĠV ili
ĠV LT
ĠB ag
ĠB ub
ĠB ott
ĠB áº«y
Ġmá» £
on de
ĠÄĲ u
ĠÄĲ áºŃp
ĠÄĲ Ã³a
ĠTr Ã¹
ĠTr aph
Ġlá» ³
Ġlá» ¥i
ĠS v
ĠS ex
ĠS Ã³i
ĠS AG
Ġngh áº¿ch
ĠA is
ĠA ve
ĠL Æ°á»£c
ĠL á»įc
ĠL amp
ĠL ost
ĠL ith
ĠL umi
ĠL idar
ĠTh Ã²
au b
eo s
Ġgiá» Ł
ĠNg áº£i
ĠNg ao
ĠNg Ãµ
ĠNg Æ°á»¡ng
ĠK R
ĠK ym
ĠK ien
ĠK estan
ĠK linsmann
ĠD ah
ĠD ash
ĠD á»«ng
ĠD AR
ĠD addy
ĠG Ãłnh
ĠG iáº¿t
er es
Ġtrá» Ľn
ar co
ĠQ L
ĠQ TS
ĠNh ÃŃ
Ġbá» ¥
al us
Ġto day
ĠU pper
el ing
Ġ5 25
or ra
or ity
Ġkhá» Ŀ
ĠI gor
ĠI RC
ĠR ao
ĠR ung
ĠR BC
ĠR ib
ĠR AN
ĠR IM
ĠR GB
ĠR amesh
im co
ĠF K
ĠF ang
ĠF ine
ĠF ear
ĠF oden
em ber
em me
Ġná» ı
at is
hi ans
hi ll
ĠGi Ã£
ol ina
id al
Ġba zan
ĠW ur
ĠE p
ĠE tihad
Ġkhu Ã¢n
Ġ8 99
ra v
ra ct
Ġrá» Ĺ
Ġrá» £n
Ġmang an
ÄĲ áº¥u
ÄĲ á»©a
il es
il iate
ĠSau d
ĠO MAD
Ġ19 13
Ġ19 31
ad ows
th Æ¡
Th Ã³i
Th omas
ĠHCM Nhiá»ģu
ĠAn at
ĠAn imon
os o
os u
un ny
and o
ĠTá» ĵng
ĠTá» ıi
ov in
Äĳ uá»ĳi
Äĳ uá»ķi
Ch O
ak ed
ĠDo o
ĠZ S
ĠTo b
ĠTo w
19 20
19 24
19 58
ob er
ig ital
ent ino
ph Ã³
te a
Ph Ã¹
az ed
pp ola
Ġ25 4
Ġ25 9
ut or
ut at
Ġ18 90
ĠLan a
ĠThu á»µ
ĠMar ilyn
ĠLong oria
ĠTu cker
ĠNew wave
ĠLu caris
ee ch
ĠHai ma
ĠHai dilao
Ġw ish
Ġw ait
Ġf ac
Ġf ree
Ġf ather
Ġf irm
ĠHy ogo
Ġin ter
ĠJo an
lo o
kh Ã¡c
ĠMai a
ĠSh ev
ĠSh rek
st yle
ĠMus ial
ĠCon way
ĠCon stellation
Ġmay onnaise
TS KH
Ġ26 7
ĠPro v
qu er
qu Ã¡i
qu iat
Ġ27 9
Ġ28 6
ez h
ez da
ry n
ĠDu á»ĩ
ĠDu ffy
ist o
ĠMan che
Ġchip set
ĠAs tron
ĠBar cl
ant ik
ĠCo untdown
ĠCo ppola
ĠGr etzky
thá» ĳng
ĠTá»ķ n
ĠBH A
ain a
ĠBra h
Anh Tiá»ģn
Ġsa f
ĠMas oud
Ġcar at
Ġ45 5
ĠMy th
iss ion
con cert
con nect
ĠBl um
ĠUn cle
ĠCa hill
ĠRob son
ern a
ern an
ĠMal one
uch enko
ĠStar gazer
ĠSch ul
Ġ37 2
ĠGar n
ĠGar o
ĠGar ber
cel yn
Ġ38 8
ĠPr igo
ĠAng us
ĠAng lia
se ung
ĠLon ely
ĠRo chester
ĠEx c
ĠEx pl
ĠCamp bell
AM D
ĠMax Kleen
ĠOs wald
á»£ n
ĠGreen wich
ĠBo omb
ĠAt mos
ink ansen
ĠFor ce
ĠAv atar
ĠWal ton
Ġ43 4
ĠRobert a
ĠAngel s
int hians
its ch
ĠSon ny
ole en
23 6
ĠMi wa
ĠMau rice
ĠLam ar
esh er
ĠSal iba
Ġ56 1
ĠMa as
II E
EF E
ise ido
anc ing
ĠArt sy
IS T
ura kh
ĠWar sh
ĠSm otrich
ĠEs te
ĠHay at
ĠCor ley
ĠEv ra
ĠEv ander
Ġno Ã£n
ĠKr as
ĠVP L
PV F
ĠMe urs
ĠHal im
ĠBy ung
yan sk
ĠTon ali
Phá» ĳ
ĠVar gas
ĠBur uk
ĠOl mo
ĠPin duoduo
ĠKon stantin
su le
ĠTho Ã¡t
ĠDr iving
ĠIm ax
pl us
ĠDes ir
ĠDen ita
ĠDen ys
ĠTer amont
ĠRi ot
ĠRen Ã©e
ĠClin ical
ĠRu th
ĠEver ett
ĠEver ilda
ement s
ĠHel ios
ĠSand s
erb iev
ĠFer ran
ĠGrab Food
ĠIC AN
ĠCre ator
ĠFar age
ĠBas il
ĠBas quiat
ĠJu ice
ĠHas an
Ġfl an
ĠEVN SPC
ĠCel ta
ĠRh ine
ĠHass ett
ĠSing le
ĠKn apper
RO M
ĠVPBank S
ĠST K
ĠEconom ica
ĠTrans former
ĠGe un
ĠMik ey
Ġz ero
WS T
Ġlay er
ĠTak eda
ĠVel de
Sh in
Sh ine
gu ang
ĠAud ax
ĠPC R
ĠIM Db
ĠGener ative
ĠGR B
ĠPas o
ĠLaz arus
ĠPre ah
ĠAR J
cap e
ĠLux on
ĠVu ong
usta Tee
chu á»Ļt
ĠHin ch
Ġad min
Ġbus iness
ĠCu nha
ĠKlo ok
ĠBat man
ĠDor ival
abe co
Un iversity
ĠClark e
ĠPle ase
ĠBey ond
Am azon
IU CN
ĠValer iy
Ġcomp any
ĠPel osi
ĠAu thor
ÃĶ tÃ´
ĠDam on
ĠNZ SS
ngh Ã¨o
ĠFront ier
ĠDab aco
VA SEP
Ġgl amping
ĠNes reen
ĠPul itzer
ĠSchw artz
ĠNub i
ĠSystem s
ĠMarin er
ĠFresh er
ĠPetro vietnam
ĠRank ings
ĠFok in
You T
ĠBorg es
Ġchun ky
ogn ition
nd ers
bell ine
RF EF
cá»¥ m
ĠMack enzie
ĠTul si
ĠCed ar
ĠKier an
ĠHeat tech
ĠBurg um
Ġjack et
ĠVey o
Ġdid n
ĠLott ner
Jenn ifer
ĠDee bot
ĠOg awa
Ġleg ging
gard e
ĠIsab elle
ĠSafi ullin
ĠNash ville
Ġsit com
ĠChub b
ĠHerz egovina
sand box
Ġcarot eno
ĠShiz uoka
ĠCitig roup
Ġengine er
ĠHumph rey
ĠBion ic
ĠLU MI
ĠArav indh
ĠZv ezda
ĠMurn ane
Suz uki
anak an
ĠShimb un
ĠKosty uchenko
ĠWoznia k
Aqu aman
ĠMura kami
ĠTheil vig
ĠGeorgie va
ĠSchiapar elli
ĠCarib be
IFI L
ĠHTM L
ĠTraph aco
ĠBarcl ays
ĠPrigo zhin
. /
/ .
0 28
0 85
3 99
5 10
5 80
9 80
A uto
B áº£y
B iden
B rit
C UV
C IS
C omp
D áº¡y
D re
D ub
E v
E TF
G ukesh
H g
H iá»ĥu
H iáº¿u
H Ã¨
J D
J ames
K Ãªnh
L ang
L og
M F
M c
M ik
M iami
N ep
P CI
R ant
R ene
S s
S il
S kel
S ense
S HB
T á»Ľi
U X
U FC
V Ã´
V á»Ł
V HM
W AN
W ave
X anh
Y emen
b et
b ow
b abu
b lind
c á»Ļt
c uá»ĳn
d s
d eep
e au
e er
e astern
f man
g Ã£
g áº¥u
g uro
h l
h ung
h Æ°á»Łng
h Ãłm
h asa
j ar
j ik
j ee
j ian
k it
k lam
l áº¡nh
l it
l ift
n en
n is
n áº¯m
n Ã©m
n á»Ļp
r ong
r el
s mart
s ari
t as
t at
t á»ķn
u ity
u Ss
v áº¡ch
v iv
v itamin
x Ãºc
x el
y ao
z aghi
» ¿
Ã «
ï »¿
Ġ arm
Ġ aud
á» Ĵ
á» §y
ng u
Ġt áº¯p
Ġc ome
Ġc áº·m
Ġc ats
Ġc ru
Ġc lean
nh iÃªn
ĠÄĳ ung
Ġv iá»ĥn
Ġv áº¡y
há» ĳ
Ġl Äĥm
Ġl áº³ng
Ġl ag
Ġl Ã³i
Ġl Ãªnh
Ġl inen
Ġk ÃŃ
Ġk Ä©
Ġk ick
Ġb el
Ġb ath
Ġs Ãª
Ġs ell
Ġm ic
Ġm ost
Ġh Ã³m
Ġh áº¿ch
Ġnh Äĥng
Ġn Ä©a
Ġch Æ°á»£c
Ġch eo
Ġch Ã¢y
Ġd et
Ġng Ã¹i
Ġp Ã´
Ġp ic
Ġp at
Ġp age
Ġp unk
Ġp eso
ĠT E
ĠT p
ĠT ÃŃ
ĠT ass
ĠT ania
ĠT ory
ĠT idal
Ġhá» īnh
Ġhá» Łi
Ġtá» Ŀi
ĠN al
ĠN im
ĠN ir
ĠN ex
ĠN iss
ĠN CC
ĠN odir
Ġr oll
Ġchá» ĥnh
ĠC á»ĵ
ĠC Ã²i
ĠC int
ĠC uc
ĠC MG
ĠC ombat
ĠC klam
ĠH áºŃn
ĠH ue
ĠH NG
ĠH Ã²e
ch áº¥n
ch icine
ĠM ee
ĠM ug
ĠM á»Ĺ
ai ss
ĠV S
ĠV ac
ĠV ald
ĠV MG
ĠB ates
ĠB akh
ĠB odo
Ġmá» ģn
on es
Ġlá» įn
ĠS N
ĠS Ãª
ĠS Ãºng
ĠS uss
ĠA ge
ĠA ust
ĠA AE
ĠA uster
ĠL anh
ĠL ic
ĠL om
ĠL EO
ĠL td
ĠL hasa
ĠTh Ã¡o
ĠTh áº¥p
ĠTh iÃªu
ĠTh áº©n
au g
ĠP it
ĠP ick
ĠP ino
ĠP ull
ĠP yn
ĠP enc
ĠP itch
ĠP á»Ŀ
ĠP CCC
ĠP wC
ĠNg Ãłn
ĠNg Ã¢m
ĠK J
ĠK P
ĠK ro
ĠK om
ĠK ov
ĠK oi
ĠK all
ĠK TS
ĠK ick
ĠK omp
ĠK urakh
ĠD á»ĳc
ĠD up
ĠD ines
ĠD ining
ĠD risc
ĠG Ã£
ĠG eek
ĠG á»ĳm
ĠG á»£i
ĠG obi
ar n
ar na
ĠQ X
Ġdo ck
Ġ20 33
ĠNh anh
al m
al ik
al tar
al odon
ĠCh h
ĠCh em
ĠCh áº¡m
ĠCh ol
ĠPh aco
Ġ3 19
Ġto gether
Ġy ard
ĠU L
ĠU TS
Ġá» ¨
Ġlo afer
ĠKh os
ĠKh eng
or ry
ĠI A
ĠI TP
ĠI ryna
es c
Ġ4 17
ĠR áº¯c
ĠR ace
ĠR AV
ĠR ush
ĠÃ Ĳ
ĠF o
ĠF IA
ĠF act
et is
et cher
as ed
as ha
is mo
at ment
Ġbá»ĳ ng
hi t
ĠQu Ãł
ĠQu en
id ay
id ia
ĠW ak
ĠW yn
ĠW inn
ĠW elson
ĠW ishing
ĠE j
ĠE ld
ĠE ve
ĠE manuel
ĠE pson
ĠJ eol
ĠJ azz
ĠJ ollibee
ĠJ ustaTee
ro bi
ĠUS MCA
Ġ8 26
Ġem u
us and
us hu
le c
le isure
ĠHo d
ĠHo ur
ĠHo ka
ĠHo oper
ĠY us
ĠY od
ĠY og
ĠX uyáº¿n
ĠX iáº¿c
ÄĲ Ã³n
ÄĲ á»£t
ĠO F
ĠO ort
ĠO wen
Ġ19 29
th áº£i
th Ã¹ng
th áº¥p
th Ã¡nh
Th ai
Th ÃŃch
Th Ãºy
ĠHCM Sau
ur ai
tr Äĥng
ĠAn and
ĠAn ya
un es
ĠAI M
Ġ30 8
Tr á»«
ĠIn zaghi
Ch arl
up le
ew s
Ng uy
ĠZ ar
ĠZ al
ĠZ han
ĠZ endaya
ĠtrÃ¬ u
19 00
19 36
19 31
ho od
iv ity
ph u
Ġ50 2
Ġáº ¾ch
ĠIs id
ĠIs co
ik awa
ĠThu Ãª
ex pharm
ĠMar z
Ġtrá»¥ y
av an
10 8
ab ul
ĠLu z
ĠHai fa
12 6
eb a
iá»ħ ng
Ġ40 8
Ġw afer
AI H
Ġf t
Ġ24 3
Ġin d
ĠAr ora
ĠAr jun
lo op
amp er
kh a
kh áº¯c
ĠMai land
co ol
ĠSh ear
ĠSh akh
ĠSh aun
ĠSh iseido
st ars
ĠDá»± ng
car ot
car lo
ĠLo we
ĠPro k
qu Ãª
ĠSo ck
omb ie
ĠAm ata
ĠChi u
ation ship
ĠVN R
ĠMan ager
ant om
ann ing
Ġ31 4
Ġ31 6
ĠNghá»ĭ u
ĠGr um
ĠSc ore
ĠSc andin
ros e
ĠGu am
AT A
CS I
ĠYork shire
ĠMas cher
uk o
ĠMy k
ĠMy eong
Sau di
ver ie
Ġ32 9
ĠDe if
ox ie
ern ova
ĠPl atinum
tre p
Ġmm Hg
ID S
ĠNai robi
ĠSch o
Ġ36 3
Ġ37 1
Ġ37 9
Ġco aching
ĠIT F
ĠIT viec
ĠDi jk
ĠVI N
16 5
Em ma
ĠGl ou
Ġal tcoin
Ġ38 2
mi um
mar athon
ĠCarl son
ĠFran Ã§
24 2
17 8
90 9
ĠOs man
ĠOs sy
ĠOs asuna
ĠAt us
ĠAt to
ĠAt kins
Ġ42 9
are h
ink ing
Ġ55 9
ĠAb out
ĠPer formance
ĠPer anakan
ĠAv ro
CO S
ĠAngel o
gh áº¿
ĠCr im
ĠCr it
Ġ44 8
13 1
ĠEn do
ĠHan uman
ĠHan asaki
ĠMay a
ĠMay belline
23 4
ĠKar n
ĠWe an
ire z
ĠDani els
ĠMat ter
ĠSal monella
ĠMa jor
ĠSup ra
ĠNor ton
ĠShi ft
ĠArt em
ĠSport age
ĠPol k
ĠNhu áº¿
ĠWil mar
ĠAg u
ĠSm all
tar o
ĠMur der
ĠFl appy
ĠFl etcher
US MCA
erg ing
ora emon
ĠGra z
Ġbo ho
ĠComp ass
ĠComp lex
ĠFrank en
Ġam onia
ĠSM IC
ĠJim u
Ġ900 1
ĠMetro pole
ĠWall et
amb eau
ĠShe eran
ĠRam irez
ĠVar s
ĠDa egu
ĠTho hir
Ġcl ick
Ġme eting
ĠSen egal
ĠOne Plus
ĠGood bye
ĠDar in
ĠRon an
ĠDes k
ĠLab el
Thá»ĭ t
ĠTur in
ĠSchool Rank
bur ne
ĠMu ang
unt ap
Ġbe fore
ĠMot ion
ĠLang ley
ĠPay oo
ĠDay ton
ĠKo z
urt i
PG WP
ĠSky pe
ĠYang on
ĠBet erbiev
ĠBah ia
form ers
mon itor
ĠSing leton
ĠFal se
BH YT
ĠBut ch
Chat bot
ĠJess e
ĠCos mas
ĠKey board
ĠRet inol
ĠIM G
ĠSuz anne
ux ay
oth o
ĠInf antino
ĠSho ot
ĠNY PD
ĠHotel s
ĠLib ya
ĠPep tide
ĠIshi i
ĠIshi guro
ĠSor bitol
ĠJP L
ĠTeam s
ĠNag asaki
ĠDream s
Sc ott
Sc ript
ĠWW W
ĠMedic are
ĠJod ie
Ġmag ma
ĠVit toria
Dav is
ĠFair lucent
ĠEmil io
ĠGelex imco
ĠCD U
amo unt
uts al
ĠLec ce
Re ading
Ġmeme coin
ĠWolf s
duct or
ĠASI A
ants ir
biot ics
ĠMoy er
Mad am
bro ok
Ġthá»ī u
ĠLO Q
ĠLap land
ĠScreen Rant
Ġpol ymer
ĠGay le
ĠRev ive
ĠChop ard
Res earch
Ġfeel ing
ĠIron man
Ġed tech
dil ov
ĠAndr Ã©
istr ia
ĠDae jeon
Str ategy
ĠNun es
ĠHO SE
Hol lywood
ĠWake field
nez dilov
Uy á»ĥn
ĠDaw son
overn ment
assem ia
HE REx
ĠVl asta
ĠToul ouse
Ind ian
Ġol ive
Ġpot oo
ĠMarg ot
ĠColoss al
Feder er
ĠHew itt
ĠAustral ian
ĠEps tein
ĠHoch stein
CX A
ĠAit ana
ĠPhotog raphy
ĠKui per
ĠYir uma
ĠXports news
ĠZia ja
ĠObser ver
Ġhydrox yl
ĠKrishnam urti
ĠGit Hub
ĠAny car
ĠMcCur dy
USG S
mins ter
ĠNid ec
ĠSchro eder
ucc ino
ĠShapoval ov
Ġendorph in
BGD ÄĲT
Ir eland
Ġdar uma
ĠCaud ron
ĠKym dan
ĠRamesh babu
Ġcaroteno id
Skel ly
ĠNodir bek
ĠCklam ovski
aiss ance
ĠSuss ex
ĠDrisc oll
ĠKhos la
ĠJeol la
ĠMascher ano
! )
0 33
0 54
2 99
3 75
3 21
5 45
7 65
7 41
9 19
A b
A CO
A ms
A udi
B lockchain
C áº£ng
C at
D B
D OC
D EI
E TP
F an
G U
G ames
H SA
H á»Ĺ
I psos
J ason
K at
L áºŃt
L Ã²ng
L áº¯ng
L ew
L ou
M ini
M á»«ng
M azda
N Y
N Ãłng
N áº¯ng
O ur
P K
P ar
P ass
R á»ĵi
R ach
S W
S l
S al
S Ã³ng
S ol
S ty
S onic
S chol
S abeco
T w
T Ã´
T iÃªn
T áº·ng
T áº¡p
T ex
T uyá»ĩt
U s
V ision
W U
W riting
X Ã©t
Y áº¿n
Y EG
a eda
b áº£ng
b uá»ĵn
b ush
c Ãºm
d t
d uyÃªn
d áº¡ng
d ee
f on
g á»ĳc
h Ãłi
h at
j t
j ia
j ac
j ab
k iá»ĥu
l iá»ģu
m icro
m á»ĩt
n ab
n Ã£o
n ica
n istria
o ch
o que
p et
p ert
r est
r ange
r iac
s áº¡t
s how
s ler
s umi
t Ã¡ch
t á»ĩ
t sen
t á»©
t omo
v áº½
v ich
y er
Ġ overs
ng á»¯
ng á»ĳn
Ġc uá»ĵn
Ġc ello
ĠÄĳ Æ°á»Ľc
ĠÄĳ Ãªnh
há» įa
Ġl Ãº
Ġl Æ°á»Ŀn
Ġl actic
Ġb Ã´n
Ġb or
Ġb áºŃy
Ġs anh
Ġs em
Ġs áº¯ng
Ġs ake
Ġm Ä©
Ġm ÃŃch
Ġh áº¹
Ġh ard
Ġh appiness
Ġnh Ã´ng
Ġnh áº¡n
Ġn Ã¡
Ġn ine
Ġkh Ã²
Ġkh uyá»ĥn
Ġkh áº¥m
Ġd iÃªn
Ġd ÃŃu
Ġd ream
Ġp o
Ġp Ã¢u
Ġp et
ĠT G
ĠT iáº¿c
ĠT iv
ĠT av
Ġph iá»ĩn
Ġhá» ¥c
ĠN F
ĠN I
ĠN áº¯p
ĠN áº¡p
ĠN á»ĵng
ĠN IM
Ġx áº¯t
Ġx Ã©m
Ġr Ã¬
Ġr ai
Ġchá» Ľi
an an
an es
an ine
ĠC TS
ĠC atch
ĠC ombo
ĠC PTPP
ĠH N
ĠH ul
ĠH ech
ĠH oney
ĠH Æ°Æ¡u
ĠH utch
ĠH nezdilov
ch anh
ch Ãło
ch iÃªu
ch áº¡m
ch ot
ĠM K
ĠM Ã¢m
ĠM iáº¿ng
ĠM uk
ĠM TA
ĠM AC
ĠM á»©t
ai o
ĠV ak
ĠV ox
ĠV GA
ĠV MO
ĠV ista
ĠV antage
ĠV ukov
ĠV itaDairy
ĠV arda
ĠB am
ĠB Æ¡i
ĠB oll
ĠB ola
ĠB á»įn
ĠB EV
ĠB jorn
ĠÄĲ Ãºc
ĠÄĲ uá»ĳng
ĠTr op
ĠS ax
ĠS eth
ĠS IP
ĠS ustain
ang el
ĠA L
ĠA ion
ĠL áº£o
ĠL up
ĠL SE
ĠL ind
ĠL aser
ĠTh uy
au m
00 1
Ġho pe
Ġho urs
Ġho lid
Ġho ckey
ĠP iet
ĠP orts
ĠP uma
ĠP uka
ĠP antsir
ĠNg Ã¡ch
ĠNg Æ°u
ĠNg á»±a
ĠK ÃŃt
ĠK ak
ĠK ens
ĠK isha
ĠK ombu
ĠD uyá»ĩn
ĠD eg
ĠD ias
ĠG A
ĠG amb
ĠG FT
ĠG EX
en k
ar ina
ar etz
ĠCh Æ°á»Łng
ĠCh áº¥m
ĠCh ill
ĠCh oul
ĠcÆ¡ i
Ġto Ã¡c
Ġto Ã¡ng
Ġto áº¡c
Ġy oung
ĠU eno
ĠU IP
ĠU NDP
ĠKh un
el antik
or am
or row
ĠI psos
Ġ4 25
ĠR ew
ĠR AR
ĠQuá»ĳc Sau
im m
im aya
Ġngo áº±n
ĠF U
ĠF ather
ĠF igo
ĠF aldo
ĠF idel
ĠF untap
et arian
Ġ6 17
as u
ĠGi ver
ĠGi br
ĠQu ora
ĠQu inc
ol ski
Ã¨ ve
id eway
ĠW GC
it ia
it ive
ĠE Y
ĠE Z
ĠE h
ĠE z
ĠE at
ĠE TH
ĠE PC
ĠE MV
Ġ7 47
ĠJ TFCAS
ĠJ ICA
ĠJ oleen
ro d
Ġ8 80
ĠY ue
ĠY ader
ĠY von
ĠX R
ĠX áº¡
ĠX Ã³a
ĠX ÃŃn
ĠX á»ĩ
ĠX RP
ÄĲ Ã³ng
ÄĲ CÄĲ
Ġmáº¹ t
om ac
ĠO K
ĠO w
ĠO TC
ĠO VI
ĠO gas
Ġ19 11
Ġ19 16
Ġ19 22
ad ian
th y
th áº¯t
th ome
Th Æ°á»Łng
ur u
ur ed
ur day
ac et
ac era
ĠAn war
os ung
os ure
ot in
ĠTá» ĩ
Ġ12 00
Ġsáº» n
Ġphá»§ i
ok ee
Ġ15 80
Äĳ Ã´ng
Äĳ Ã³n
Äĳ á»ģn
Tr uyá»ĩn
Ch ambeau
Ġcá»¥ p
Ġcá»¥ ng
up s
up ol
up iter
ĠHá» ģ
ĠHá» Ľn
ĠAl k
ĠAl s
ĠZ oo
19 12
19 11
19 13
ĠBan non
ig ami
Ph Ã³ng
ĠIs ao
ik ar
ik tok
og ram
10 5
ue h
ank yo
ul la
ck off
12 1
ell s
ĠSt or
ĠSt ark
ĠSt aff
ĠSt ories
eb ab
eb rig
Ġ40 1
Ġ40 2
Ġ40 4
ess y
Ġw agon
Má»¹ Háº¡t
Ġf ind
Ġf utsal
Ġ24 8
ĠGiá» Ĺ
ĠAr s
ĠNgh iÃªu
Ġ22 1
co x
ĠSh ell
ĠSp in
ĠSp ieth
Ġ23 8
ĠLo h
ĠPro gram
qu áº¡t
ick i
ters hire
ey a
ĠAm azing
ĠGo al
ĠEl ie
ĠEl ise
ĠEl lie
ec ial
ĠVN X
Ġthá»ķ n
Ġ35 3
Ġ35 7
ĠCo ote
ĠCo cktail
aw ara
ĠBr enda
ĠInter pol
ros port
chá» ¯
ĠGu ang
Qu Ã¡ch
lor y
ĠBra ga
ĠBe ar
ĠBe etlejuice
our as
ĠAir Tag
Ġcar go
Nhá» ĭ
ib ank
old t
Ġ32 3
Ġ32 6
af i
ĠDe pot
bon ne
ĠSte in
ĠCam on
ĠSch iff
Ġ36 4
ĠTech day
Ġ34 5
ug g
16 6
ĠMo ana
ĠCity U
ĠPr att
ĠEr rol
se ud
ĠEx cook
Ġ48 2
kho áº£nh
ĠBo ut
ĠMed alist
ĠHon dur
ĠOr bit
ĠFor ge
ĠMin ion
ĠPer ug
ĠAv i
ĠSe ed
ĠSe qu
Ġmeg awatt
my ung
sh aw
ĠtÃŃ u
SI M
ĠVal ery
14 4
ĠRom eny
ĠSu ites
ĠSu nhouse
Ġ47 4
ĠFin tech
ĠHan bin
PA C
lad es
ĠAD C
ĠEuro monitor
CA ND
ary n
bá» ģn
ĠPat rice
ĠPat uxay
26 7
26 8
Ġj iu
ĠNor rie
ĠJack man
ĠArt ur
ĠPol an
olog ical
AD AS
ĠWil kes
ĠWar ri
ĠMur ph
US TR
phá» §
phá» ķ
Ġ67 1
ĠJenn i
ĠHa aretz
34 9
ille d
ĠVP N
Ġbo ard
ju ic
ĠSol ana
Ġ77 7
mone y
ĠMeg alodon
ĠTw itch
ĠVir uSs
Co ca
khá» ķng
ĠDa ew
ĠLand ing
ĠTor an
ĠBern ie
ĠTrav eller
pl ace
ĠStr ong
ĠDes ire
ĠDes riac
ĠRi ley
ĠBal tim
Ġhi u
ĠAT I
ifi ed
Ġcá»į p
ĠKu ari
ĠTem ple
ĠDan ang
ĠFort night
ĠBrook ings
ĠHil ux
ĠBas ma
ĠDim on
ĠTal iban
ĠCons truction
ĠRock star
ts ia
ĠFre ed
ĠFre eman
ĠSP HEREx
ĠClau del
ĠCub illa
ĠBon di
ĠBon ucci
ĠEle ven
ĠDre ame
Star link
GC G
iat ive
ĠCher okee
ten berg
ĠSach i
ĠVel ar
ĠThai land
ĠAud rey
ĠCoun ty
ĠOp in
ĠOp al
ĠUP enn
ĠFi ji
ĠGel ora
ĠNak ayama
ĠBes o
ĠJoh or
ĠIndian apolis
ĠSom ers
chu á»Ĺi
ĠMI X
Hu áº¥n
Ġtem plate
ĠNev es
ĠMont juic
ĠBox ing
Cl utch
ĠKor ogo
ĠAB BA
ĠGil les
ĠVie ira
IR CC
ĠDh aka
ĠSaf ety
ĠDer rick
ĠJak ob
ĠWW E
190 7
ĠNova Group
ĠCost co
agh etti
ĠDown town
Ã¼ r
Ġcomp osite
FI FA
ĠCL PS
Mich elin
ĠVis ual
ĠPed ri
ĠDat ab
ĠBull s
ĠIsaac man
ĠSem icon
tho use
ĠNao ki
Ġsp aghetti
Ġmo ther
ĠRodrig ues
ser ies
ĠDj elantik
ĠPot omac
ĠBrent ford
nghi Ãªm
Han oi
HÄĲ ND
ĠLenn ox
ops ie
ĠPres ident
Ġcol chicine
ĠHid ankyo
ĠPad illa
fin tech
ĠFlo or
ĠVas quez
ĠScient ific
ĠSul whasoo
ĠSens or
ĠLif et
ĠAthlet ics
ĠDid ier
ĠMats um
ĠJohann es
Br ian
kar aoke
ĠWy ckoff
col m
ĠEug ene
ĠMol ly
IQ LO
uf act
ĠMish ustin
ĠDG W
ĠEverg lades
Ne il
Ġass ignment
Ġhal ogen
Gold en
ĠCay enne
ĠHaz ard
ĠCra zy
ĠFah asa
Ġfriend s
ĠKip t
opol itan
ĠPend erg
ria ge
ĠWA AP
ĠOri ental
ĠEli ot
Jam al
ĠNakh on
ĠHigg s
ĠCosmet ics
ĠAstra Zeneca
ĠKup yansk
ĠEu rosport
ewell ery
ĠChain alysis
Ġchar ter
ĠNK G
Ġcit ric
ĠSter ling
araz zi
ĠGrow th
ĠTart us
anhai ya
ĠTis ch
ĠHano ia
ĠLÆ¡ nh
Nest lÃ©
ĠEtt oday
ĠPione er
ĠGianlu igi
ĠElis abeth
Ġwhis ky
ĠKays er
Ġthing s
ĠPred ator
ĠCatt elan
Ġsaf ari
ĠBoomb ox
ĠMeurs ing
ĠAuthor ity
Ġpic nic
Ġá»¨ c
Ġamonia c
Sty le
Schol astic
ĠTiv oli
ĠHech inger
ĠPorts mouth
ĠGiver ny
ĠGibr altar
ĠQuinc y
ĠYvon ne
ĠOgas awara
ebrig tsen
ĠBaltim ore
ĠKorogo cho
" )
0 40
0 70
2 15
3 27
4 22
5 12
6 25
6 24
7 44
8 75
? ,
? ;
? '',
A PT
A qua
B i
B áº¡ch
B ey
B ern
B lock
B ride
C U
C á»ķng
C ombat
D áº¡
D áº§u
D en
D ie
D ou
D ec
E c
E US
F usion
G ian
G olf
G reat
H áº¹n
H á»Ļp
H igh
H PG
H asaki
I mp
J er
M U
M Ã¬
M ang
M Ã¡i
M Ã´n
M áº¡nh
N ay
N ational
N EU
O ng
O real
P F
Q aeda
S ora
S ign
T s
T ia
T or
T Ã´m
T áº¥m
T á»Ľ
U G
V T
V Ã©
W al
Y N
Z one
b is
b era
b ler
b aby
c Ã´n
c at
c ation
c ale
d Æ°á»Ŀng
d iá»ĩt
d á»±a
d ana
e ace
f c
f its
f air
g áº¥p
g el
g it
g lu
g ress
g gio
h Ã¢m
h uyá»ģn
h un
h cm
h wan
h erst
j ay
j ek
j aro
k z
k un
k igo
l ik
l ive
l á»ĳp
m ong
m Ã¡n
m is
m ix
m á»«ng
m ington
o form
p as
p lo
q q
r em
s ar
s áº¡ch
t Ãª
t á»ĳ
t uy
t Ã¡o
t ure
u ine
v u
v áº¥n
v ine
v Æ°á»Ŀn
v olt
y ung
y ad
y un
z ano
z burg
¦ m
® c
Ġ ob
á» īa
ng áº¡i
Ġc er
Ġc our
Ġc ost
nh áº«n
ĠÄĳ áº£n
há» ĳi
Ġl iáº¿m
Ġk Ã©
Ġk oi
Ġk ey
Ġb r
Ġs Ãłm
Ġs port
Ġs we
Ġs log
Ġs entence
Ġs ideway
Ġm ov
Ġm ens
Ġm áº«m
Ġm obi
Ġm achine
Ġh Ä©nh
Ġnh Ã¨
Ġn áº£i
Ġn ia
Ġn at
Ġg á»ķ
Ġg lory
Ġch áº¡ng
Ġkh áºŃp
Ġkh iá»ħng
Ġd im
Ġd áº¡m
Ġd eep
Ġd Å©a
Ġng Ã´ng
Ġng Ãłm
ĠT ad
ĠT ermin
ĠT icket
Ġgi Æ°Æ¡ng
Ġgi Ã³ng
Ġgi let
Ġthá» ĵ
Ġhá» Ľ
Ġhá» «ng
ĠN L
ĠN il
ĠN TP
ĠN eko
ĠN itta
Ġx Ã²a
Ġx Ã©p
Ġx Ãºm
Ġx Ãµa
Ġr Æ°Æ¡ng
Ġr Ã¡i
Ġr á»į
Ġr ec
Ġchá» ĵm
ĠC LV
ĠC age
ĠC ATL
ĠH Ã¡ng
ĠH Ãºc
ĠH á»ĳi
ĠH iáº¿m
ĠH ess
ĠH EV
ch Ã¨
ĠM á»ĵ
ĠM og
ĠM yr
ĠM iá»ĩng
ĠM OS
ĠM akh
Ġcho i
ĠV Ã²
ĠV á»¯ng
ĠV TP
ĠV ost
ĠV iss
ĠV EF
ĠV BA
ĠV EX
ĠV azquez
ĠB K
ĠB áºŃn
ĠB áº¡t
ĠB aku
ay u
ao k
am sh
ĠTr y
ĠTr Ãº
ĠTr á»Ń
ĠTr á»įn
ĠS Q
ĠS ne
ĠS one
ĠS ton
ĠS CB
ĠS MC
ĠS SD
ĠS val
ĠA man
ĠA TS
ĠA pt
ĠA GM
ĠL Æ°Æ¡n
ĠL ins
in as
in ka
ĠTh áº£
au sen
ĠP ine
ĠP uck
ĠP NE
ĠNg ang
ĠK K
ĠK iá»ģn
ĠK ett
ĠK eep
ĠK andal
ĠK iller
ĠD Ãł
ĠD Ã¬
ĠD um
ĠD ir
ĠD Ã£y
ĠD arm
ĠD GC
ĠD ST
ĠG ott
ĠG uad
er ge
er ati
ar ra
ar ge
Ä© u
Ġtu áº¿
al bum
ĠCh ron
ĠPh antom
Ġ3 000
ĠU I
ĠU CLA
Ġlo Ã¡ng
el ter
Ġ5 99
Ġkhá» ±ng
ĠI bar
ĠI EEE
es ch
es ha
es day
Ġ4 12
Ġ4 14
ĠR Z
ĠR áº¡n
ĠR áº±m
ĠR ex
ĠR he
ĠR DP
im al
im itar
Ġngo Ã¡y
ĠF X
ĠF ame
ĠF CC
ĠF agan
et os
Ġ6 99
as ing
as ek
is ic
is lav
ĠGi áº¥m
ĠGi Ã£n
ĠGi ld
um bo
ĠQu est
id ad
ĠW ech
ĠW ans
ĠW ren
it el
it ake
ĠE f
ĠE tern
ĠJ elka
ĠJ upiter
ĠJ ewellery
ro ux
Ġchi ll
ĠUS TR
us hing
Ġ9 000
Ġ9 300
Ġ9 80
ĠHo y
ĠHo ck
ĠHo gan
ĠY es
ĠY ev
ĠX S
ĠX ia
ĠX abi
ÄĲ K
ÄĲ áº§m
ÄĲ áº¡p
ĠO ok
ĠO st
Ġ19 34
Ġ19 01
th Ã¡i
Th Æ¡
Th Ãªm
Th áº¡c
Th aco
ur am
tr Äĥn
tr Äĥm
ac ier
ĠAn ast
ĠAn other
ĠmÃ´ tÃŃp
ter a
ĠchÃŃ p
ag ing
ĠNhá» ı
Äĳ áº»
ĠIn B
ĠIn es
ine cke
ĠAl oy
ĠAl ien
ĠTo h
ho on
iv ac
ph Ã¡o
ph áº¡m
Ġnam e
ĠLe b
ĠLe ip
ĠLe chon
ĠLe agues
ard t
ik s
ĠMar ch
ĠMar ion
ĠMar gin
ĠTu imi
ĠTu esday
ĠRe ij
ĠRe verie
ab ib
ĠLu igi
ill us
ul us
12 4
ian ce
ĠSt ylist
ĠSt amper
ess ion
ess ions
ess ment
est ra
Ġhy aluronic
gi Ãły
Ġf lor
Ġf arm
Ġf ranc
ran e
ĠHy att
ĠJo celyn
ĠGiá» ĳc
ND Soft
ĠAr j
ich el
amp oo
ers hop
ĠCan ber
11 1
ĠViet luxtour
ĠMai kel
ĠKim bal
co co
all ery
st imes
ev skyi
ĠSp ike
ĠSp lash
Ġxá» ¥p
ff ield
ĠLo opsie
ĠPro te
qu á»·
Ġ27 4
SE F
ĠSo j
ĠSo up
ow ay
ow icz
ĠAm ee
ĠAm herst
ĠDu áºŃt
ass ati
ork ovich
ĠEl la
ist in
oll i
enn ai
ec ombat
In tel
ity a
ate chin
aly st
ath a
SA C
ĠBr in
thá» ¥
thá» ĳi
ĠSam ho
HCM C
hn y
ĠSc opus
chá» īnh
ĠBra kat
ook er
ĠBe am
ib el
ett en
iss o
Gi áº£
Ġ32 8
ini um
15 8
ĠCl ay
ĠCl ose
ĠCl eop
ĠDe aura
ĠDe Chambeau
ĠRob inho
ĠLao pu
18 2
18 8
18 90
ĠFr uit
ĠSch ar
Ġ37 3
Ġco untdown
ĠSer o
ĠCap rio
ĠCap sule
ĠVI I
ĠMo ch
ĠMo or
ĠMo ut
ĠMo han
ĠMo ther
ĠPr enn
ĠPr ice
ash imaya
ĠAlex andr
24 7
24 8
ĠCamp ello
ĠMax ime
mer e
kho áº£n
kho Ã¡ng
com p
ĠDeep fake
ĠHol gado
ĠBu hle
ĠCom e
ĠCom mer
ĠSa ab
he art
ĠBer rios
ĠEd mund
ĠDon cic
ĠSe asons
ren o
Ġ44 7
ĠEn de
ĠEn trep
ĠMay Trip
ĠSai d
giá» įng
giá» įt
ĠMat eo
ĠSal ly
28 2
28 4
ĠAc count
Ġj itsu
oc aust
ĠSk etch
ĠShi itake
ĠIns pire
ĠArt istry
ĠSport back
ĠPol icy
ĠMor an
ĠMor in
ĠDai kin
ĠMag Safe
ĠWil mington
ĠWar m
29 5
ĠFl avio
US DA
uz z
ĠEs ther
urn au
ĠHay e
ĠSuper Port
ĠCor ia
ĠÃĶ m
IC T
ĠGer dn
ĠGer bera
ĠChia t
ĠChia ki
ĠSim ona
ĠTy phoon
ĠComp uting
ĠPa es
ju vas
akh et
ĠBel gi
rus h
ĠJul ien
ĠSol is
ect in
act ion
ĠRog oway
ellig ence
ĠTw ining
osh in
ĠRam akrishnan
rick s
ĠDaily mail
ĠPra ct
ĠTe acher
ĠMaster piece
ĠTho áº¡t
si us
Ġcl ass
ĠCT D
ĠBern anke
ĠGh Ãªnh
ĠHS C
cl one
ĠIm expharm
ĠStr ate
ĠKe ane
oph ore
ĠSoc rates
bur i
ĠRu á»ĵi
ĠVik kigo
ĠPay ne
ĠPe au
Vin Speed
ĠKu hn
mo Ã³c
ĠBuff on
ivi Å¡
ĠHil o
ĠYang Wang
ĠSec ond
Ġ190 2
ĠKai ros
ĠMcC orm
MS N
Net flix
ĠRh y
Ġgen er
ĠPlay ers
ĠVeg etarian
ĠTrans nistria
ĠLar son
ĠGor st
ĠMik o
SP F
Ġz ip
Ġz oo
ĠTak ashimaya
ĠNik ol
ĠNik ola
ĠPC T
EFA C
ĠJay son
ĠRet ina
ĠRet urn
ĠÄĲá»ĩ m
ĠTai wan
ĠIM X
ĠPri ority
ĠMet averse
Ġnit Æ¡
Ġnit rat
ĠSir ius
ĠLor ena
ĠPre c
ĠFel ipe
ĠBrit ain
ĠNS F
ĠLux share
ĠGun n
ĠSom alia
ĠSat urday
ĠCur rent
ĠOff icial
Mal ley
enh aus
ĠDun lop
Bl anc
ĠCS ÄĲT
ĠWhit mer
ĠImp er
ĠHav ana
ĠGon court
ĠLight ning
ces tershire
ĠRun way
Cho ice
box ing
Sc ot
Ġel ip
ĠIng ebrigtsen
ĠKrist ina
ĠCred its
ĠEras mus
Dani il
Ġsá»Ŀ n
ĠWork shop
Am anda
ĠExp ert
ĠJava Script
ĠKos ki
ĠBrid g
ĠCode Combat
ĠGur el
ĠCent aur
ĠZhi hu
ĠGam ma
ĠNZ BA
ĠLec un
ĠReg ional
ĠLak sh
ĠFO X
ĠChev ron
For ge
ĠChis ora
ĠFront iers
ĠCir c
Lab s
Gl imt
Wh at
Ġflav anol
ĠGill is
ĠZen da
ĠCav all
ĠVil k
ĠJos Ã©
ĠDep artment
Pal estine
ĠCham berl
ĠLif estyle
ĠNami Tech
ĠBis mark
ĠBeaut iful
She in
tru ct
Saigon tourist
ĠHis ense
ĠAur el
ĠKBS V
ĠCurt in
ĠKaw asaki
ĠHat oyama
ĠConf idence
ĠCont est
ĠNCA P
ĠFant astic
ĠMons oon
Ngh Ä©
verse as
Make up
ĠMari upol
ĠVa art
ĠIz umi
VD SC
Ġhand made
ĠHQ C
ĠBau er
ĠHospital ity
Ġland ing
ĠPerf ect
ĠMirai kan
ĠBivol aru
Bos nia
PSS I
Ġtel omere
ĠZir kz
Ġvis it
ĠTamp a
ĠDoub an
ĠAdvent ure
ĠGrav ely
Er ling
ĠThal go
ĠBerk lee
ĠMust afa
Ġpap arazzi
ĠDestin y
Ge ely
Ġblo use
ĠDip l
Ġstick er
Anton y
Ġmain net
ĠDw ight
ĠMcCl ellan
Ġlá»ĭ m
Ġsar coma
Fre estyle
FID E
Mb appe
Ġgig awatt
ĠGiuse ppe
ĠClif ton
ĠKierk egaard
Pak istan
ĠKien long
ĠShev chenko
ĠGarn acho
ĠImax tree
ĠDesir rÃª
ĠHinch cliffe
Dub ai
ĠCint ula
ĠBakh mut
ĠAust en
ĠChh avi
ĠScandin avia
Lew is
jt aba
vich a
ĠRew ards
ĠHondur as
ĠToran aga
ĠOpin ion
ufact uring
Ġslog an
ĠSval bard
ĠAloy sius
ĠCanber ra
ĠCleop atra
ĠGerdn ang
juvas kin
ĠMcCorm ick
ĠChamberl ain
ĠZirkz ee
0 35
1 45
3 15
3 18
3 17
3 88
7 95
9 77
A lya
B ai
B áº¡c
B TT
B á»ģn
B MI
B rand
B rad
B ashar
B etis
C e
C Ã¡p
C ity
D inh
F ran
F ind
G er
G lad
H a
H ello
I CM
J ang
J ane
J ordan
K O
K Ã½
K em
L H
L Ã¡
L áº§u
L áº¡m
L os
L á»ĩ
L Ã£o
M K
M R
M iá»ħn
N H
N at
S im
S up
S ud
S ix
S á»£
S yd
S CA
S ky
T an
T áº§n
T Æ°á»£ng
T Æ°á»Łng
T CB
T á»Ŀ
U r
V n
V iÃªn
V ir
X IE
Y e
Y u
Z ero
b h
b Ã³c
b and
b áº¿p
b ath
b old
b Æ°á»Łi
b ella
c áº¥u
c á»ķng
d d
d á»ĳc
d emir
f o
f en
f ing
f iger
f rey
g áº¯n
g old
h Ã²n
h orn
h ost
h ere
h awk
i od
i pen
j it
j ing
k W
k ir
l á»Ļ
l Æ°á»Ŀi
l Ãłnh
l áº¥p
m áº£nh
m uá»ĳi
m ake
n Ã³c
p os
p atch
p ons
q r
r er
r un
r iona
s im
s od
s edan
t á»
t Ã¹
t Ãłn
u ve
v ard
v adze
w ord
w ani
x Ã©
x á»©
x cÆ¡
y k
y áº¿n
â Ĥ
Ġ Ã©o
ģ nh
ng Æ°á»£c
Ġt ell
Ġt iram
Ġt echn
Ġc ash
Ġc enter
nh áº±m
nh ower
ĠÄĳ anh
ĠÄĳ áº±m
Ġv ani
Ġv ote
há» ķ
Ġl Ã³
Ġl áº¹
Ġl Ã¡y
Ġk Ã¬a
Ġb on
Ġb ul
Ġb erm
Ġb ooth
Ġth áº£y
Ġth áº«m
Ġs áºŃt
Ġs th
Ġs ap
Ġs leep
Ġs tero
Ġs ashimi
Ġm á»ĳ
Ġm ed
Ġm áº¡p
Ġm á»ĳng
Ġm iso
Ġh Ã¬
Ġh ist
Ġh amb
Ġh Ã³p
Ġn icot
Ġg old
Ġg áº±n
Ġg overnment
Ġch Ãµ
Ġng Ã¡t
Ġp al
Ġp ut
Ġp ub
Ġp ÃŃa
ĠT eo
ĠT Ã¡nh
ĠT áº©n
ĠT ine
ĠT az
ĠT ard
ĠT ate
ĠT KV
Ġph Ãłng
Ġph Å©
Ġgi áº¯c
Ġgi Äĥm
Ġhá» Ńng
ĠN Æ¡
ĠN ath
Ġx Ã©o
Ġqu áº·n
Ġqu áº«y
Ġr áº£o
Ġr ia
Ġr Ã¡m
Ġr Ã©n
Ġr Æ°á»Ľn
ĠC Æ°ng
ĠC net
ĠC IS
ĠC GI
ĠC ME
ĠcÃ³ t
ĠH ig
ĠH ui
ĠH aco
ĠH evel
ĠH umb
ch áº£y
ch ui
ch annel
ĠM itt
ĠM á»µ
ĠM aking
ĠM imi
ĠV á»±c
ĠV áº¯ng
ĠV áº¡ch
ĠV amp
ĠV era
ĠV bee
ĠB att
ĠB abe
ĠB attle
ay ga
on line
am ol
am yd
ĠÄĲ NA
ĠTr oll
ĠTr oon
Ġlá» £
ĠS Ã£o
ĠS ip
ĠS SA
ĠS EO
ĠS ark
ĠS ep
ĠS ven
ĠS DS
ĠS ugar
ĠA Z
ĠA ke
ĠA ura
ĠA isha
ĠA iman
ĠA ckman
ĠL uy
ĠL áº·p
ĠL und
ĠL Ã¹n
ĠL áº¿ch
ĠTh Ã³c
au de
au ss
Ġho Ã³c
Ġho log
ĠP us
ĠP TS
ĠP ico
ĠP ipp
ĠP eh
Ġdá» ģ
ĠK T
ĠK Ã¨
ĠK ool
ĠK anda
ĠK ild
ĠK ovac
ĠK Ã¡r
ĠK usto
ĠD F
ĠD Ã¬nh
ĠD rama
ĠD ango
ĠD oraemon
ĠD iviÅ¡
ĠG áº¡t
ĠG ap
ĠG TC
ĠG mail
ĠG utt
ĠG etty
er ies
en uity
Ġsá» ģn
ar h
Ġbá»ĭ p
ĠNh Ã³c
Ġbá» īnh
Ġbá» ¥t
Ã¡p agos
Ġtu Ã´n
ĠCh Ã¢m
ĠCh arm
ĠPh Ãł
ĠU sh
ĠU PU
Ġlo an
ĠKh Ã´
ĠKh Ã³c
el ina
Ġ5 75
Ġkhá» ĳ
ĠI L
ĠI b
ĠI EA
ĠR Ã´ng
ĠR Ã¢u
ĠR iÃªu
ĠR ui
ĠR ust
ĠR enta
im o
im el
im mer
Ġngo ai
Ġlu ck
ĠF ED
ĠF irl
ĠF ermin
em pic
et amine
as bourg
is en
Ġthá»§ i
20 4
20 5
ĠGi ul
id y
ĠW ing
ĠW uk
ĠW TT
ĠW ade
ĠW ASC
it ect
ĠE qu
ĠE ise
Ġ7 19
ĠJ oly
ro me
le ction
Ġ9 44
ĠHo áº¡
ĠY ard
ĠY ee
ĠY ep
Ġrá» ¥c
Ġrá» ©t
ĠX Ã¡t
ĠX iá»ĥn
ÄĲ am
ÄĲ áº¥y
Ġan tim
om s
ĠO M
ĠO sk
ĠO RS
ĠO verseas
Ġ19 18
Ġ19 28
th Ã¡o
th áº£o
ĠHCM Nghá»ĩ
ĠHCM Chá»ĭ
ur ella
tr Æ°á»£t
ed y
Äĳ Ã¢m
Tr Ãºc
Tr ust
Ch inh
Ch ris
Ġtá»ĭ t
ĠAl g
ĠAl oud
Ng Æ°á»£c
Ng áº¯m
ĠZ amb
ĠTo an
ĠTo áº¡t
19 10
19 35
19 37
ent ion
ent ina
ph anh
Ph ÃŃ
az awa
ĠLe ike
Ġáº ®c
ĠIs a
ĠIs hisa
Ġ18 68
oi h
Ġcam pus
ĠRe ck
ĠRe juvaskin
ĠLu á»ĵng
12 2
12 9
iet o
gi Ã³
Ġf ront
ĠHy eon
ĠHy nos
ĠHy eok
ĠHy osung
ĠAr chim
ĠCan c
ĠNha Theo
ĠLá» ĵng
ĠLá» ©a
ĠViet ABank
ax aco
ĠSh ank
ĠSh uz
ĠSh arma
ĠSh inkansen
st agram
ĠCon stantin
ĠCon nection
Ġkim bap
man in
TS MC
ff er
ĠPar as
ĠPar sons
qu el
qu ero
Ġ28 9
lin er
ow ling
ĠAm pat
ĠAm orep
ĠGo ethe
ri b
Ġ70 5
ast ick
ĠHuy R
ram ento
ram bler
ĠMan ass
ĠMan ufacturing
Kh ÃŃ
Kh áº¯c
Ġ35 9
ant i
ĠCo ch
ĠCo cky
Thá» ©c
ĠVin ce
ĠVin fast
chá» ©c
Anh HLV
ber i
Ġmu á»Ĺm
ĠLa Civ
Ġshow case
our ces
end ong
ĠMas erati
uk as
uk vadze
ĠSl avia
Ġ45 7
Ġrobot ics
25 2
con a
con ut
ĠBl anc
ley man
ĠCl ick
ĠCl ement
ĠNews paper
ĠDe ath
80 2
ies e
ĠMon ster
ĠGal Ã¡pagos
Ġ33 4
ĠPl Ã´ng
ĠMal colm
35 8
ens io
ĠFr assati
ĠSch imel
Ġ36 1
ĠTech com
Ġco ach
ith er
ĠIT V
ĠAd itya
16 8
ĠMark le
ĠAP G
ĠAP K
ĠMo use
ines e
Ġ38 4
Ġ38 6
ĠPr as
ĠPr iv
ĠGB P
ĠAng ie
se au
ĠRo usse
ĠEx tra
ĠMax well
CC P
ĠTá»± u
Ġst and
ĠBo ot
ĠBo eh
de en
ĠAt ch
ĠMed lat
ĠHol ocaust
ĠLai ng
ĠUt sumi
ĠFor th
ĠFor lan
ĠBu á»ĵng
ĠCom fee
ĠSa qr
75 5
ĠEd el
ĠAngel ica
ano ff
ĠFlor es
ĠÄĲH QG
Ġ46 5
gh chi
ĠMil it
14 7
14 8
ĠSon Kim
Ġmá»ĵ m
á»µ u
PA S
DI S
ĠTom e
ĠMart ell
ĠKar plus
ĠCO NCA
ĠTex t
ĠLau taro
ĠSal man
ĠMáº¹ o
II SS
ĠSup ach
ĠSup ernova
Ġj ava
ĠRos ie
ĠRos enberg
ĠAll an
ĠAll ure
ĠPol king
ĠMor i
ĠMor ales
ĠNhu á»ĩ
ĠWil de
ĠWil cox
Giá» įng
ĠWar wick
ba atar
ĠZh endong
US T
Do Ã£n
68 5
ĠÃĶ i
ĠEv olution
ĠGra ve
Ġbar ber
ĠMS R
An ne
An nam
ĠVP Milk
ĠTy ra
air s
Ġ66 9
ĠSum it
ĠMill s
DP PA
ĠJul issa
ci ent
Al pha
ĠRa e
ĠRam i
ĠRam adan
ĠUN IFIL
ĠSil k
ita Land
ĠMaster i
ĠWeb MD
ĠOl lie
ĠMartin elli
ĠJan elle
ĠJan aina
ĠBern ardo
ĠDr ess
cl us
ĠOm aha
ĠStr asbourg
ĠDJ I
ĠHen man
ĠTas demir
oph y
ĠTur ismo
ĠKy na
ĠSand ler
ĠAp atani
ĠPe ace
ĠTem asek
ivi era
ĠDra g
ĠHil figer
ĠLog ic
ĠCre ative
ĠBell ucci
ĠMatthew s
ĠMang o
ĠJi had
ĠBas in
Ġ190 9
br andt
tinh vi
Ġsh isha
med i
ĠWind ow
CL OS
por ary
ĠBud de
ĠOcean bank
ĠChang ers
ĠClau d
Ġwork ing
ĠTrans formers
rant our
ĠColor OS
ĠLes otho
ĠCos mos
AID S
ĠVo id
Ġor igami
ĠEc ology
ĠBow ie
ĠPC X
ĠCer etti
St ore
St artup
ĠDC DS
alleng e
ĠOk t
Ġshop house
ĠPV F
ĠPV R
ĠUV B
PC E
MP EST
ĠPac aya
Ġex am
ĠOd lie
aro id
ĠSá» Ľm
WA AP
BO J
ĠBre xit
ĠFe in
ĠFe el
ĠBoy d
ĠGau di
ĠSor os
ĠRO A
Cl aude
NT U
ĠBul gari
ĠKan ako
ĠNag ano
ĠPear ce
ĠDer by
ĠGang won
ĠAgent ic
ushi on
ĠCit izen
ĠMedic aid
ĠKrist en
ĠSpec trum
ĠPur fle
ĠHI EUTHUHAI
ĠBot sw
ĠBryan sk
NO I
Ã¼ n
ĠBent ayga
ĠMO XIE
ĠKos pi
ĠBrid get
ĠCL TC
ĠCin em
ĠVis it
ĠAra ghchi
ĠXi ong
ĠZhi hui
cin us
Ġmo chi
ĠCab rera
aph one
ogl obin
ĠReg ister
ĠRaj am
Ġen vironment
cept ion
Ġphot pho
ĠGreat est
ĠNy Post
Ġover all
ĠYas en
SL IM
ĠBog dana
ĠAce h
ĠChev ening
Ġag re
Ġtur bin
Ġmet an
ĠRou ge
ĠYoshi tomo
pro tein
ĠPot osi
ĠCF TC
ĠEther net
ĠLanc aster
Ġper oxide
ĠBav et
ĠHyper loop
ĠEX O
ĠMorris on
Ġpre biotic
ĠCatal ina
ĠCarr oll
ĠVikki Go
ĠSens ing
ĠSac ramento
ĠMes cal
ĠMatch a
ĠMatch room
ĠThink ing
ĠDead pool
CE NTCOM
ĠMut esi
ĠFat ou
Ġpass ed
ĠAU DI
ĠThor burn
ĠRid ley
ĠAlban ia
Ġlight stick
ĠLum ias
ĠED M
unis ia
ĠGiven chy
ĠWol ver
ĠEug en
ĠYuan bao
ĠGriff ith
igl acera
LE Z
Nghi Ãªm
OP EC
Rub en
ĠYoko hama
Ġox al
ĠWeiss enhaus
ĠCAR B
ĠHank s
ĠNishi oka
ĠLP GA
ĠSham s
ĠAV T
Ġform aldehyde
ĠHep burn
ĠOrch estra
Sk etch
Ġwhi le
ĠNorm al
ĠMaverick s
ĠBagh dad
ĠKarak urt
ĠIndus try
ĠSod ol
ĠGior gia
Gener ative
ĠMoh medi
ĠSales force
ĠStrait stimes
Whi te
lut ide
ĠVC CS
ĠLud wig
ances port
ĠDesc ribe
Je ju
ĠAgi bot
ĠDv orkovich
ĠGiron a
ĠSwin burne
Im age
Kaz akhstan
ĠIslam abad
ĠHaf ez
ĠWend ling
ĠForm ula
Ju ventus
Ġsmar thome
ĠFior entina
Pet rolimex
ĠBrah im
YouT ube
ĠCaribbe an
Dre ka
Ġaud io
ĠNal ica
aug hn
ĠDines en
ĠIsid oro
ĠChoul seung
ĠPerug gia
ĠSequ oia
ĠSomers et
ĠDatab ricks
ĠSemicon ductor
ĠMatsum oto
ĠOok la
ĠSplash News
ĠEnde avor
ĠStrate gies
Scot land
Glad iator
xcÆ¡ va
âĤ Ĥ
Ġtiram isu
Ġberm uda
Ġhamb urger
ĠTine co
ĠTard ieu
Ġholog ram
ĠPTS D
ĠKÃ¡r mÃ¡n
ĠWuk ong
ĠEise nhower
ĠArchim edes
ĠShuz hen
ĠAmorep acific
ĠLaCiv ita
ĠRousse au
ĠMedlat ec
ĠCONCA CAF
ĠPurfle et
ĠBotsw ana
. )
1 19
3 45
4 95
5 69
6 15
6 99
6 68
7 99
7 85
9 55
A p
A ce
A PI
B or
B iá»ĥu
B ecamex
C áº¥p
C áº¥u
C ad
C ASA
D áº¡o
D iá»ĩp
D á»«ng
E ck
E ner
E co
E TS
E mp
E PS
E ric
F ilm
G W
G ate
G Ã³p
H ot
H Ã¹m
H ero
I v
J et
K e
K BS
L Ã²
L á»ĳi
L aw
L eon
M in
M áºŃt
M Ã¹i
M ate
M ult
N áº¡n
N oo
N ode
N IM
N HTSA
O x
R áº¯n
R iÃªng
R od
R yan
S á»ķ
S ight
S yn
T áº¡o
T áº¡m
T ottenham
U SS
V o
V ik
V erse
W est
W atch
Y our
Z hang
b Ãºt
b ad
b Æ¡m
b ody
b oss
b jorn
c ong
c ot
c ass
c ott
c uts
c ript
c chio
d h
d Æ°á»£c
d eb
d ance
d á»ĩt
d ahl
e uro
f ur
f ram
f low
g ra
g il
g re
g ley
h ab
h wa
i OS
j ad
j ew
j ani
k j
k ari
l im
l Ä©nh
l ly
m Ãª
m áº¡o
m Ã¹i
m ith
n á»ķ
n áº¥m
n ov
p ure
s ia
s il
t áº¿
t áºŃn
t áº¿t
t us
u th
u etooth
v l
v á»Ł
v á»ĭnh
w as
w at
x á»ķ
x uá»ĳng
z ons
Ã ļ
Ġ il
Ġ acc
Ġ its
ng á»įt
Ġt to
Ġc ro
nh áº¡y
Ġv Ã³
Ġv al
Ġv áº¡c
Ġv log
Ġl áº¡n
Ġl ittle
Ġk á»ĭ
Ġk ebab
Ġtr Ãª
Ġtr ench
Ġb áº·t
Ġb art
Ġb áº»o
Ġth inh
Ġth ank
Ġs pe
Ġs ince
Ġs ighting
Ġm áº£
Ġm er
Ġm uá»ĳt
Ġm ust
Ġh Ãªn
Ġh Ã¡c
Ġh Ã¹n
Ġh appy
Ġh idden
Ġnh Æ¡
Ġnh áº¡nh
Ġnh Ãºm
Ġn áº¹p
Ġn uc
Ġch lor
Ġkh Æ°
Ġkh áº¥p
Ġd rag
Ġng áº©m
Ġng Äĥm
ĠT X
ĠT iá»ĩn
ĠT ing
ĠT un
ĠT ell
ĠT orn
ĠT OS
ĠT atar
ĠT upai
Ġph áº§m
Ġgi áºŃm
Ġhá» ¥i
uy ama
ĠN NSA
Ġx Ã¡n
Ġqu Ã¡nh
Ġr áº§u
Ġr á»ĭch
Ġr á»±a
Ġr etro
Ġr ÃŃu
an and
an ova
ĠC lor
ĠC á»ĳm
ĠH áº¿n
ĠH ate
ĠH ip
ĠH ern
ĠH me
ĠM p
ĠM Ã¢n
ĠM áºŃp
ĠM Ã£n
ĠM uch
ĠM á»¥
ĠM time
ĠM oxie
ĠM ivac
ĠV eo
ĠV HA
ĠB Ã©o
ĠB TP
ĠB ord
ĠB Æ°á»Ľt
ĠB IS
ĠB olog
ĠB JP
ay i
ay ana
on ica
on jac
ao u
am er
am ina
am atsu
ĠÄĲ Ã¡t
ĠTr ab
Ġlá» ĥ
Ġlá» §ng
Ġlá» £m
ĠS W
ĠS Ã¡
ĠS Äĥn
ĠS Ã¢u
ĠS ot
ĠS á»Łi
ĠS ick
ĠS ever
ĠS emb
ĠS iegel
Ġngh ÃŃa
ĠL áº¡
ĠL iá»ģu
ĠL ess
ĠL over
ĠL aptop
ĠL IV
ĠL umin
in et
ĠTh áº¯p
ĠTh ron
au ka
Ã¡n dez
eo d
00 4
ĠP W
ĠP iá»ĩt
ĠP ig
ĠP ik
ĠP ey
ĠP ert
ĠP ip
ĠP ace
ĠNg on
ĠK G
ĠK iá»ĩu
ĠK Ã¨m
ĠK ram
ĠK ÃŃp
ĠK ors
ĠK FC
ĠK wa
ĠK DH
ĠK ahn
ĠD D
ĠD eo
ĠD ara
Ġphá» ĵn
Ġra ce
ĠG im
ĠG MC
en one
ar c
ar an
ar ch
ar te
Ġdo t
al ity
al ty
ĠCh áºŃm
ĠCh ul
ĠCh ry
ĠCh ennai
ĠNam e
ĠPh y
ĠPh Ãłn
ĠPh iÃªng
Ġhai r
Ġcon tent
Ġto o
Ġto ang
Ġto ys
ĠU A
ĠU R
ĠU i
ĠU gar
Ġlo t
ĠKh Äĥn
ĠKh áº³ng
áº» n
el t
Ġ5 19
ĠI E
ĠI X
ĠI TS
ĠI ChO
es ley
Ġ4 18
ĠR V
ĠR av
ĠR ail
ĠR ight
ĠR ings
ĠR ita
ĠQuá»ĳc Trong
im im
Ġngo Ã¨o
ĠF ow
ĠF lu
ĠF TX
em pire
Ġ6 35
Ġ6 18
Ġ6 75
ic ol
as us
is awa
at hip
20 8
ĠGi anni
ĠQu Ã¡i
ol aou
id u
id ed
ĠW L
ĠW eg
ĠW onders
ĠE A
ĠE CI
Ġkhu á»µu
Ġ7 25
ĠJ ord
ĠJ ama
ĠJ une
Ġ8 200
ĠUSD A
ra kesh
Ġ9 15
ĠHo s
ĠY ons
ĠY nez
Ġrá» Ľm
ĠX ue
ÄĲ á»Ļ
ÄĲ á»ĵi
il ian
Ġan y
om ics
om me
om dahl
Ġ19 19
Ġ19 25
Ġ19 21
Ġ19 33
ad on
th áºŃn
th en
th Ã¡p
ur d
tr ai
tr Ã¡ch
tr Ã¢u
tr ath
tr Ã¹m
ĠAn cient
os c
os ito
Ġta ff
and ar
ĠTá» ıa
ĠTá» ¥y
Ġ15 40
Äĳ eo
Äĳ áº©y
Tr Ã¬nh
Tr ans
one zh
ĠIn te
Ch Æ¡i
re j
re ad
od ka
od iesel
up trend
ĠHá» §
ĠAl ert
Ng uyá»ĩt
ĠZ y
ĠZ imb
ĠZ EUS
ĠTo th
ĠTo ols
19 55
Ġgá» Ľm
ho f
iv en
ph alus
Ph a
az i
ĠLe gan
ĠLe vi
pp y
Ġ50 5
Ġáº ¦m
ĠIs sa
ik ham
Ġ18 97
og ra
ir ra
ir ed
ah ashi
ĠMar qu
ĠMar riage
ĠMar rakesh
ĠRe i
ĠRe act
ĠRe inecke
ĠNew port
ab ut
ab we
ab uri
ĠLu ther
ill es
Nh iá»ĩt
ul es
ul se
ul emans
ck owski
Ġcá»± a
if ier
ian sk
ĠSt art
ĠSt age
Ġw ent
est ar
art ner
Ġf acebook
ran ts
Ġi T
Ġ0 98
ĠAr g
ĠAr ia
ĠAr gent
ĠAr iel
ĠAr iane
ĠAr gam
lo a
kh Ã´i
ĠCan non
Ġ22 000
ĠMai tinhvi
co urnau
ĠSh ine
ĠSh arm
ĠSh aze
ĠSh aryn
ĠSh ampoo
st ay
ĠSp ice
ĠSp ru
ĠCar la
ĠCar mel
ĠCar reno
Ġkim chi
ĠPar amount
qu Ãªn
Ġ27 2
ĠBa ch
Ġ28 1
ry w
lin son
ĠAm ar
ĠAm al
ĠAm os
ĠGo Pro
ĠGo ffin
ĠDu cournau
Ġtri p
ĠEl vis
ud o
ud din
ack s
ack er
Ġ29 2
Ġ29 7
ate au
ip le
aly a
ĠAs ep
ĠAs se
ĠAs ensio
ĠBar r
ĠBar bie
ĠBar rett
ĠBar oque
ĠCo upe
ĠCo oih
ĠSin atra
aw at
ach e
ĠGr et
ĠGr imble
ĠBr as
ĠBr ink
ĠBr emen
orn u
aza q
ĠSc ale
ĠSc imitar
ĠVin speed
iz z
Qu est
ĠCN C
igh thouse
EL I
Ġe at
Ġe agle
Ġe KYC
CS T
CS U
end ee
Chá» Ŀ
uk awa
Nhá» Ľ
ib ao
ib ar
ost em
pe ace
ĠGen uine
ĠBl omdahl
Ġbá»Ŀ m
15 7
ĠCl ipper
ĠGre ens
ĠDe anna
ĠCa ffe
ĠMon ten
ĠRob yn
ĠRob erge
po el
ox y
ĠSte gen
ust an
Ġ33 2
Ġ33 8
ĠPl ug
ĠMal ibu
ĠNad ella
Ġmm Wave
ĠCam orra
ham ove
Ġ36 8
ĠMc F
ĠMc Bride
ct is
ĠYou Gov
Ġ34 6
Ġ34 9
eth ai
eth ylene
ĠAd ani
ĠAd cock
ĠVI NA
ĠQuÃ½ t
ĠGl ob
ĠGl azer
Ġpro bl
Ġpro biotic
ĠChat rier
Ġ38 1
ĠSun bird
ĠAng imex
17 4
ĠBen astick
ĠSw ane
ĠSw itch
Con nor
ĠTour ism
com o
thu áº§n
thu á»·
ĠKhá» ī
ĠHol i
ĠOr d
ĠOr eo
ĠBu Ã´ng
ĠAb as
99 5
ĠPer ato
ĠlÃ² e
ĠUl san
CO T
ĠTam aki
ĠTam beri
ĠFlor entino
ĠBro ckman
Ġ39 7
ĠMosk alik
Ġbl ess
Ġbl uetooth
gh t
ĠLi quid
ĠMil es
Ġ44 4
ien a
ĠSu ccess
ĠSu leyman
ĠEn rico
bo th
bo utin
ĠMay otte
PA FACA
DI F
ĠTom linson
ĠChung ÄĲoÃłn
ĠKar lin
ĠKar la
ĠEuro money
ĠMau rizio
ĠTop Dev
ĠMer ri
ĠMer ezh
ĠLau re
ĠMat xcÆ¡va
ĠSal ukvadze
ĠRes ources
II P
MA P
oc al
oc yanin
ivers e
ĠRos al
Ġ68 5
ĠIns urance
Ġ53 3
Ġ53 7
Ġ53 9
ĠMag gie
ĠWil hel
ĠGold stein
27 3
ĠFl am
ĠLou boutin
Ġ99 6
ĠBlack thorne
ĠCor inthians
ĠCharl ton
ĠKat rina
ĠSn ooker
ĠSim pson
ĠComp ute
ĠMe an
ĠMe adows
36 6
ĠDis patch
Ġ78 7
ci ardi
Ġnho Ãłi
ĠShe ffield
enz ene
ĠRod in
Ġpl an
ĠIr vine
Ġcl ub
ĠLand s
ji ang
ĠSar ee
Ġ74 9
ĠBos nia
ĠBao Viet
ĠDom ing
ĠShow a
ĠViv ienne
ĠTur ley
ĠSoc cer
ĠCop ern
ĠEver ything
ĠEver deen
ĠWell ington
ĠPay Pal
ĠAp tech
ĠKo j
ĠGrab Car
ĠIC U
ĠNic olo
ĠCre ed
ĠCre ek
ĠBas ic
ĠNorth eastern
AG R
ĠId ris
ĠCons erv
ĠMcC len
ĠGro und
tu oit
ĠRh ett
ĠWis dom
ĠVeg hel
ĠKaz an
Ġsal monella
cÃ´ la
ĠOle h
ĠChe ung
ĠChe at
ĠMun ro
Ġac et
ĠCy press
ĠBol ton
ĠBol ikham
ĠGw an
ĠNik olai
gu ette
ĠLink in
ĠBai chuan
ĠCer ebras
ĠCoun s
ĠSev ille
ĠSuz ette
ĠOp rah
ĠGel areh
rad ar
ĠScot s
ĠKl aus
ĠKl itsch
rah man
Lo Ãłi
ru ethai
ĠSho u
ĠSho pping
ĠCard i
ĠCard one
ĠCard iff
ĠCoin Teleg
Ġmin ivan
Car s
ĠBre w
ĠFab rizio
ĠCS B
ĠZalo Pay
ĠKath arina
ĠSor bonne
ĠLet ters
ĠRO G
ĠJP Y
ĠLiv ing
ĠLil iya
ĠChar acter
phy rios
ij der
cy c
ĠDor gu
ĠKay la
ĠIR A
ĠIR IS
ĠIR GC
ĠEnd s
rett a
Vol vo
ĠKal ibr
ĠPass port
190 6
ĠIng rid
ĠIng enuity
As ian
ĠMem ory
ĠPS H
ĠPor phyrios
Ġas ked
ĠMr s
ĠRud i
ĠAdr iana
Euro Cham
ĠDur ant
ĠRah em
ĠScar let
ĠGian carlo
Ġre ason
aku za
ĠIg G
ĠRem brandt
ĠAutom obile
ĠAu ctions
Chu áº©n
ĠLead er
Ġwh at
Mich elle
ĠMarcel inho
ĠBuk ele
ars lan
ĠMaxim o
Ġphot oc
ĠMicro Strategy
ĠVNG Games
val u
Ser bia
ĠnhÅ© n
ĠMath ias
Ġmet averse
ĠYoshi da
ĠKirk land
ĠKam al
Ste fan
ĠBoris ov
ĠJet our
fol io
ĠCrist hian
ĠBO E
ouch sur
Ġper f
ĠeS pring
ĠCav al
ĠFig ari
ĠPres ton
ĠLives po
ĠNE ET
Ġ09 18
ĠWo ori
Ġmil k
ĠMes haal
augh ter
Br uno
ĠGin seng
ĠSkin care
Vic tor
hua hua
ĠAlm ada
ĠÃī n
ĠMoz art
ĠCe ulemans
ĠSamp aio
ĠLay er
alop olis
ĠFram ework
ĠRobo con
Ġdis co
ĠBever age
ogn ini
gn Fly
ĠCod ecombat
ĠVE AM
ĠGustav sson
âĢĭâĢĭ âĢĭâĢĭ
ĠChau met
ĠFant asy
ĠDG X
Ngh Ä©a
ĠCold zy
ĠPlatform s
ĠZhu que
Fal se
ĠNur ul
ĠBorn eo
ĠYao yao
indh oven
Per u
ĠEy al
Ġav ant
ĠCob olli
ĠKara arslan
ĠPharm acity
ĠRivers ong
ĠTit led
ĠHep za
ĠMult i
ĠYuk o
ĠYuk ina
Lear ner
ĠPend ant
apt ive
ĠZan etti
ĠWins ton
Ġsilic ate
ĠDut y
ĠDut roux
ĠDigi world
ĠGag arin
Mat thew
Ty son
ĠAld rin
ĠArman i
ĠMiner va
Po int
Ã± o
ĠHick ock
ĠKob ayashi
ĠYul o
ĠTrain ing
ĠApr il
ĠKamp ong
ĠLauder dale
Eng lish
ĠHind ustan
ĠTransl ate
ĠOdd ity
rang arh
ĠAQ I
ĠGul er
Ġcod ing
ĠKS V
ĠVery well
ĠKet ut
ĠOv alle
udd ing
Break er
Ġmus ic
ĠDain es
ĠSteff i
ĠBoc elli
ĠAdvis ors
ĠAis bett
ĠKR W
utat ip
Ġfirm ware
Ġdet ox
ĠTass abut
ĠLic ciardi
ĠGlou cestershire
ĠKarn ruethai
Rach el
Tex as
Ġmens wear
amsh ala
ĠSne ijder
ĠLins ay
ĠWans trath
ĠLeip zig
ĠEntrep reneur
BTT TT
Syd ney
Ye ah
ĠHumb oldt
ĠPipp en
ĠOsk ol
ĠManass ero
ĠBoot leg
Ace cook
cass urance
zons por
Ġbart ender
ĠMivac ron
ĠTrab zonspor
ĠThron es
ĠUgar te
ĠYons ei
ĠLegan es
ĠArgam ani
ĠShaze er
ĠAsse fa
ĠMonten egro
ĠSwane poel
ĠMerezh ko
ĠWilhel m
tuoit re
ĠBolikham sai
ĠKlitsch ko
ĠCoinTeleg raph
ouchsur fing
' d
0 48
5 25
5 99
5 21
5 64
6 88
6 64
7 25
7 13
7 23
7 28
7 48
7 49
8 24
9 15
9 42
9 79
? ''.
A ut
A sh
B iá»ĩt
B es
B ac
B ot
B ent
B io
B Æ°á»Łi
C áº§m
C II
D Æ°á»£c
D Æ°á»Ŀng
D ung
D in
D áº¥u
D at
D eepfake
D irect
D emi
F AT
F IC
F lash
F MCG
G h
H on
H áº¡n
H áº¯n
I EA
J on
J un
K F
K CN
L U
L DL
L agrave
M T
M i
M á»Ļng
M ur
M LS
M achine
N á»ĳi
N FL
N HS
P erm
R u
R Æ°á»£u
R NC
R USI
S et
S ee
T áºŃn
T er
T Ã¡m
T ax
U d
U CLA
V l
V ARS
W all
W TA
Y ang
Y ah
Y agi
Z verev
Z eekr
b á»Ļt
b áºŃn
b Äĥm
b io
b eing
b nb
c áº¥t
c Æ°á»Ŀng
c ro
c á»Ń
c ity
d á»Ļt
d Ã¢y
d oi
d ata
d eev
d oping
e at
e un
e Box
f all
f ather
f ront
g áº·p
g gy
h ao
h us
h ausen
i ens
i ors
j at
k iá»ĩt
l iá»ĩt
l á»įc
l ent
l áº·n
l aptop
m Ã¹
m á»±c
m ou
m Å©i
m ont
m uda
n B
n uá»ĳt
n ix
n á»¥
n ote
o h
p ex
r anh
r al
r ath
r ary
r uit
r assy
s ak
s ho
s tress
s elf
t Ã¡m
t iá»ģm
t cha
v áº¯c
v ette
w ind
w ana
w ior
x on
x Ã´i
Ġ [
Ġ att
Ġ Æ°á»Ľm
á» Ĳ
ng Ã¡o
Ġt Æ°á»£c
Ġt er
Ġt Ãªnh
Ġt Ã³e
Ġc c
Ġc or
Ġc áº¡y
Ġc lear
Ġl áº©y
Ġk eto
Ġk onjac
Ġtr Ã¢m
Ġtr ump
Ġtr ui
Ġtr Æ°á»Ŀn
Ġb Ãłnh
Ġb áº¹n
Ġb oss
Ġb Æ°Æ¡u
Ġb runch
Ġb enzene
Ġth Ãªnh
Ġth ese
Ġs Ãº
Ġs Ã¡m
Ġs Ãµi
Ġm ao
Ġh Ã¹a
Ġn Æ°á»£c
Ġg áº«u
Ġch Æ°á»Ŀng
Ġkh Ã©n
ĠÄĳá» Ľp
ĠÄĳá» ¥n
Ġd áº±ng
Ġd ate
Ġd ella
Ġp ace
Ġp erson
ĠT ch
ĠT á»ĵn
ĠT Ã¨o
ĠT ip
ĠT SA
ĠT CS
ĠT ari
ĠT FT
ĠT unisia
Ġph os
Ġhá» ¯ng
ĠN D
ĠN um
ĠN ail
ĠN EC
ĠN ME
ĠN oir
ĠN HTSA
Ġqu áº¯t
Ġr ÃŃch
Ġr ain
an is
an baatar
ĠC áº£n
ĠC Å©
ĠC et
ĠC omb
ĠC iro
ĠC ould
ĠC EFR
ĠC ilic
ĠH H
ĠH áº£ng
ĠH áº¥p
ĠH wan
ĠH usse
ĠH MPV
ch inh
ch Ã¡n
ch Äĥn
ch Ã¡u
ch urch
ĠM Ã¡c
ĠM iá»ĥu
ĠM ok
ĠM av
ĠM ien
ĠM ata
ĠM esh
ai c
ai gn
ĠV ia
ĠV id
ĠV and
ĠV ib
ĠV Æ°Æ¡n
ĠV lad
ĠV ibe
ĠV ehicle
ĠV iglacera
ĠB áº§y
ĠB one
ĠB end
ĠB iel
ĠB á»ķn
ĠB vl
Ġmá» ĩ
on x
am ica
ĠÄĲ K
ĠÄĲ eo
ĠÄĲ ÃŃch
ĠTr ay
ĠTr in
ĠTr Æ°á»£t
ĠTr il
ĠTr iv
ĠTr acy
Ġlá» µ
Ġlá» ķ
Ġlá» ¥p
ĠS áº¥u
ĠS ph
ĠS co
ĠS CC
ĠS ala
ĠS ave
ĠS áºµn
ĠS VIP
ang ala
Ġ" .
ĠA sk
ĠA co
ĠA eg
ĠA GS
ĠA ji
ĠA WD
ĠA hamove
ĠL M
ĠL Æ°á»Ŀng
ĠL áº·c
ĠL áº¯c
ĠL ia
ĠL us
ĠL áº·ng
ĠL omb
ĠL ix
ĠL ines
ĠL ift
ĠL ush
ĠL ovo
in ov
ĠTh Ã¹ng
ĠTh erm
ĠP Ã¬
ĠP ong
ĠP Ã¡o
ĠP rai
ĠP ris
ĠP ast
ĠP iano
ĠP ena
ĠP aco
ĠP ont
ĠP ilates
ĠP YN
ĠK ad
ĠK ul
ĠK ele
ĠK cal
ĠD Ãª
ĠD Ã¡ng
ĠD ey
ĠD á»¥
ĠD my
ĠD ome
ĠD evin
ĠD MS
Ġphá» Ľi
ĠG E
ĠG ris
ĠG orn
er c
er ma
er ger
en burg
Ã© r
Ã© rie
ar la
Ġkho m
Ġ- >
al anta
al comm
ĠCh on
ĠCh eo
ĠCh it
ĠCh ee
ĠCh ant
ĠCh anda
ĠCh ange
ĠCh ateau
ĠPh iáº¿u
ĠPh orn
ĠPh yl
Ġdá»¥ i
Ġcon trol
Ġto áº¡
Ġlo cal
ĠKh ap
ĠKh abib
ĠKh vicha
el ma
el ta
or u
or io
or ama
ĠI ch
ĠI mane
ĠI NOI
es cu
ĠR A
ĠR ho
ĠR oi
ĠR ana
ĠR SI
ĠÃ ¨
ĠÃ Ĩ
Ġlu tein
ĠF if
ĠF uri
ĠF HD
ĠF iona
ĠF SEL
ĠF ognini
et as
ic ana
Ġso c
Ġso l
20 50
ĠGi g
ĠGi Ã³ng
ĠGi ann
ĠGi ga
um ba
ĠQu ÃŃ
id us
id ge
id ane
Ġba guette
ĠW ine
ĠW ear
ĠW ire
ĠW orth
it ational
it hout
ĠE CO
ĠE brahim
ĠE NZ
ĠE astern
Ġ7 300
ĠJ ada
ĠJ mi
ĠJ ade
ĠUS TH
us u
ra e
ra ck
ra ge
ĠY im
ĠY unch
Ġrá» ģn
Ġrá» ıi
ĠX II
ÄĲ áº¹p
om m
ĠO T
ĠO Ã¡nh
ĠO ther
ĠNá»Ļi Sau
Ġ19 10
Ġ19 27
ĠNgo c
ad ers
ne w
th ua
th us
th ocyanin
Th ung
Th áº»
ĠVá» «
ĠHCM HÆ¡n
tr Ãº
tr Ã¶
ac er
os an
... ?
ĠAI H
ĠTá» ī
ok y
ed ine
Ġ30 2
Ġ30 3
Ġ30 6
Ġ30 7
Äĳ Ãªm
Tr e
Tr á»ĵng
Tr á»©ng
ĠIn doch
Ch ic
Ch Ãºa
re a
re p
re view
Ġdi ffic
ak is
ĠHá» Ŀ
ĠAl bu
ĠAl icia
ĠDo e
ĠDo g
ĠZ ong
ĠZ ac
ĠZ idane
19 18
19 17
19 21
19 39
19 42
ho ang
ho us
ig s
ph e
ph ys
te gei
Ph O
Ph áº£n
Ph arma
ĠLe vin
pp el
pp Ã¶
ard en
Ġ25 3
ut en
Ġ18 73
Ġ18 86
Ġ18 84
Ġxu á»ģ
ce phalus
ĠKho Ã¡t
av ier
ĠChá»§ ng
ou le
ank ovic
Ġo il
Ġo thers
ill an
ul o
ĠHai yang
ĠHai dt
ck ley
if or
if est
if estyle
ĠSt o
ĠSt av
ĠSt ub
ĠSt ability
eb ale
eb enone
Ġ40 3
ĠcÅ© i
Ġw ood
Ġw ife
Ġw arm
AI ST
est one
Má»¹ Khi
art y
Ġf at
Ġf un
Ġf ut
Ġf ire
Ġf lu
ĠHy ppÃ¶
tral a
TP Bank
ĠAr am
ĠAr sen
ĠAr cher
ich o
ĠNgh iá»ħm
ers ion
kh tar
Ġ22 3
11 8
op ark
Ġthá»¥ ng
ĠLá» §ng
ĠViet rantour
ĠHar ker
ĠSh al
ĠCon tainer
ĠSp ero
ĠSp iel
ff le
car i
ĠPro fessor
ĠBa ez
ĠGo jek
ort ens
ĠEl antra
ĠEm b
Ġ29 5
enn an
ate k
ĠâĢ Į
ĠBar on
ĠBar rios
Ġ35 1
Ġtá»¥ m
ach ov
ĠGr u
ĠBr ight
ĠBr atis
orn o
thá» Ł
ĠSam ba
Ġ90 10
hn u
Qu Ãª
Qu alcomm
Ġchá»Ł m
la anbaatar
Anh Theo
Ġmu Ã´ng
Ġe kip
ĠTim or
ĠLa jal
Ġcar e
Ġ45 4
Nhá» ±a
ĠSong s
25 1
ĠParis ien
ani es
Ġ32 7
af ood
ĠCl Ã©
ĠCl os
ĠCal m
ĠCal o
ĠGre ce
ĠDe h
ĠRob b
po on
ĠDav ies
Ġ33 9
ĠPl aton
Ġsu ch
18 6
18 85
ID P
uch a
ĠFr onx
ĠSch me
ĠSch ult
Ġ37 6
Ġ34 3
Ġ34 4
ĠCap itaLand
ĠAd d
ĠAd der
ĠMac G
ĠMac R
ĠGar land
ĠGar Ã§
ĠVI MC
16 4
ĠMark s
ĠMark ovic
ĠGl iese
Ġpro ton
Ġpro ject
ĠPr et
AN K
ĠRo e
ĠRo und
17 9
AM OLED
AM VNX
ĠBen ch
do zen
ĠHong dae
ĠHong chao
âĢĻ .
ĠSan ik
Ġst yle
ĠGreen peace
ĠKhá» ıe
SS I
ĠCom o
ger ia
ĠPer eira
ĠAv ant
ĠAv deev
Ġde ad
tra ge
ĠBer man
ĠBer muda
ĠTam my
ĠDon ilon
ĠSe fc
ond s
app le
SI U
ĠAndre i
gh ini
ide a
ide co
ĠCr es
14 9
[...]
